<s>
<pad>
</s>
<unk>
<mask>
!
"
#
$
%
&
'
(
)
*
,
-
.
/
0
1
2
3
4
5
6
7
8
9
:
;
?
@
[
]
^
_
a
b
c
d
e
f
g
h
i
j
k
l
m
n
o
p
q
r
s
t
u
v
w
x
y
z
{
}
£
“
”
##o
##r
##f
##l
##k
##s
##i
##e
##j
##c
##n
##p
##t
##d
##h
##m
##u
##a
##b
##g
##y
##v
##x
##w
##q
##0
##z
##9
##1
##3
##2
##4
##8
##7
##5
##6
##er
th
##in
the
##ou
##nd
##ed
to
##en
##on
##at
##or
##ing
of
and
##is
##ar
##as
##es
##an
##th
be
##ll
in
her
ha
no
##om
sh
##re
wh
wi
##le
was
you
##ly
##ld
it
##ion
##it
##ve
##ch
##ce
she
he
##ut
##se
##ent
for
as
##gh
##st
not
re
that
##ould
##ct
with
on
##ir
##ter
##im
##id
##ver
##ow
##ay
had
an
su
his
##ere
at
##ess
##al
but
so
##et
##li
##ther
have
pr
##ad
##ght
mr
con
is
##ect
##ri
##ee
##am
him
all
##ab
##ain
##for
##oo
##pp
##ur
##ation
##ann
mu
de
my
by
whi
me
st
##lf
##all
ne
##ome
could
##est
##ery
##ge
##our
we
##ak
ex
fr
do
which
##ard
will
would
very
been
from
sa
mor
ch
were
##self
they
com
ever
or
en
what
##ant
##ra
any
##art
this
##os
##ul
li
your
##end
un
##ough
dis
##ic
sp
them
there
am
pro
af
mo
mar
their
kn
##ment
##able
##thing
##ate
who
mis
##ight
more
mrs
##ous
##ence
##ood
al
##mp
##ance
ag
such
##ind
than
said
per
##qu
##out
how
see
when
##il
##ish
co
##ity
every
must
##wn
##ong
know
if
##us
ab
##ive
##iv
wor
much
##ast
##ure
##ro
##ear
some
##one
##itt
se
one
man
are
##ert
##reat
ad
##ck
##anny
miss
fanny
##un
##age
##ink
##cy
part
##fore
##lin
##ill
other
qu
##ake
int
##ook
##ject
##ister
##if
think
only
##op
##ame
ac
sister
le
##ot
##ings
##ady
should
##ke
own
tim
##ry
ev
fe
##ath
att
##ap
did
##ite
comp
##ness
up
##ally
##ved
##ford
exp
now
##ort
well
##fer
herself
##la
##way
##au
lo
ob
##ward
##raw
too
time
ed
##ice
again
##ought
##eel
ind
might
good
##ound
after
great
##ag
##ire
ju
imp
##alk
##med
can
##ach
rep
happ
##fect
##ress
mari
##ving
being
##ather
##leas
before
##nder
feel
look
never
##ily
eli
##ie
say
elin
##ru
elinor
##ol
pre
long
nothing
go
eliz
litt
though
app
##ree
##urn
tw
little
##ose
soon
has
res
##ib
without
##eth
##abeth
elizabeth
day
##ber
craw
##ions
crawford
##and
may
##oss
cons
bet
ro
pleas
##ise
dar
wish
##enn
even
most
fir
lady
##ine
out
##ies
##ever
##ful
us
##ade
##anne
sir
##ten
marianne
fri
##pt
gr
hop
nor
first
##act
##ious
thought
te
##av
like
##oun
cont
friend
##ried
let
inc
##hw
rem
##ouse
dear
mother
two
##um
house
##und
po
make
##lie
then
about
##od
shall
supp
room
des
##ced
##ers
char
##are
##ng
ar
##ible
made
##led
young
into
over
##iness
op
##ated
##ass
##fort
##lt
##ary
##int
##ud
im
ret
##ton
darcy
under
##ci
belie
##we
sat
##cc
##ley
##mund
edmund
fam
ass
himself
thing
its
##own
beg
##ide
spe
##ig
kind
sm
inde
##icul
however
away
jo
par
##fe
inter
sub
##ertain
acc
give
last
just
quite
dist
##ond
##augh
add
##ens
off
##ave
sure
##ged
alway
always
talk
##pect
dif
mann
want
pres
felt
hope
##ody
##ning
many
pers
far
##ention
return
mean
br
pl
heart
family
found
mom
moment
certain
reg
##ations
way
##oll
enough
bo
bro
work
affect
end
##ider
cann
cannot
lu
pla
eng
##ied
speak
sc
walk
##ty
##ris
appear
thom
##ane
consider
unc
thomas
benn
set
rec
bennet
##em
letter
##per
##te
mind
##aint
##ost
##ount
ser
giv
less
##oub
better
wr
hear
bec
having
deli
##ram
hand
love
done
upon
bing
where
##lied
bingley
rece
##most
feelings
indeed
##ately
brother
gen
bert
come
saw
bertram
##ither
##ull
##uten
##wards
##air
still
expect
jane
here
mat
##ossible
##ces
col
happy
##igh
occ
comm
##unt
##ause
subject
something
##ndon
##ield
das
father
while
comfort
car
pass
##ist
##arly
yes
year
##ham
##ins
##less
##avour
##hwood
dashwood
str
guten
##sh
##its
acqu
##berg
gutenberg
down
till
##gether
gener
adv
present
came
same
home
##isf
tru
##ew
##ined
##ason
disp
our
project
almost
##aps
wom
ent
adm
gl
nat
##ft
dec
conf
place
##haps
myself
##aughter
rest
##wer
##ition
perhaps
##cept
##ction
tell
pe
##ility
vis
word
satisf
daughter
##by
half
edward
find
##field
really
##osed
seemed
call
sin
yet
particul
pleasure
ans
few
hour
##ret
spir
##cess
##ably
##ained
##medi
##mer
##ety
sec
sur
believe
##ne
##riage
affection
answer
##ited
##inu
##ense
inst
replied
opin
act
##body
immedi
take
##ase
cried
##ack
##ived
object
thr
heard
disc
hard
##ened
beh
agree
##ves
##orth
oh
##lic
gent
turn
##ang
##rib
left
ey
##iam
conc
##ended
##onel
manner
colonel
continu
whom
coll
##ild
world
aunt
together
##arm
differ
both
##ip
jenn
rus
##other
acquaint
jennings
##red
conv
morning
reason
cous
ill
##app
##oubt
cl
tr
tak
ask
another
sus
express
foll
##oy
##hworth
visit
often
happiness
going
rushworth
rather
does
sit
##ser
inv
read
##irl
seen
el
girl
id
three
betwe
between
willough
least
underst
woman
willoughby
ref
looked
certainly
therefore
obli
cour
##ms
##man
##ign
best
fa
fort
spo
##mpt
those
##ured
new
obser
delight
opinion
##vers
these
person
##oice
##xt
norris
poor
uncle
surp
get
##ceed
##ently
##owed
whole
interest
each
##ue
wick
rel
gentle
##di
##bour
william
sil
##ual
##ern
##ange
evening
told
##eep
dire
doubt
equ
##ars
once
##eek
mans
prev
min
##use
suf
knew
against
began
##ute
chap
enter
perfect
##ople
wickham
wo
##ix
towards
dep
others
sett
est
gone
##du
town
##irc
respect
people
circ
opp
right
##ower
anything
spirits
immediately
abs
##ments
##ude
general
mansfield
wonder
##quir
charact
given
prom
##form
next
exc
lucy
since
ele
favour
pur
use
week
short
##asion
child
prop
collins
eas
went
##ished
point
suppose
gave
side
##ught
##itation
cond
attention
bus
fear
la
known
because
##aut
deter
hon
##iment
life
hardly
else
resol
ought
ide
determ
bl
back
ly
forg
leave
compan
jud
eyes
##ances
care
##ial
##sel
party
##ile
direct
friends
tm
##hn
seeing
sisters
john
##dia
lydia
grant
brought
through
understand
within
able
attach
ear
mid
sent
##ingly
passed
acquaintance
pain
longer
character
full
possible
necess
ext
everything
##row
##ult
pret
occasion
hum
disapp
regard
##ember
hands
received
gra
high
wa
##yond
##ared
beyond
inf
anx
chapter
sor
##ided
glad
put
##iting
stay
days
added
situ
##selves
either
gu
prob
took
small
means
engage
admir
##ord
##aged
din
##itude
convers
meet
cousin
business
strong
##isten
##lia
whose
continued
##lp
##err
matter
bra
##over
door
che
london
impro
open
imag
gard
##ner
help
wished
account
##val
play
circum
fl
coming
park
serv
obliged
fortun
minut
ef
ins
##ending
arri
##dle
deal
yourself
years
aw
mak
##oint
why
##rying
##ship
middle
circumst
power
##ates
near
suffer
brandon
es
sens
##ether
whether
##ager
minutes
state
concern
course
listen
##ection
##ick
marriage
self
accept
##ating
beaut
wife
##laim
maria
looking
persu
honour
coun
count
lad
##ple
feeling
spoke
perfectly
idea
head
##sequ
ste
live
conversation
##uct
##onth
quest
julia
impossible
convin
ladies
bre
civ
##les
diff
behav
keep
voice
##ised
appro
mention
##iour
##empt
##ven
##atch
married
grat
situation
behaviour
draw
hor
##atter
##osition
prov
thank
hen
poss
son
ter
##ust
##aid
mist
kindness
farther
advant
entire
settled
##eness
consequ
manners
henry
ferr
old
##ron
##read
aff
returned
natur
disappoint
ferrars
hus
##res
##land
serious
cle
##ancy
##antly
cop
determined
hur
tri
##old
##day
allow
compl
##iew
different
cather
four
sort
##ient
##tt
##iss
##ready
already
##ference
called
entirely
catherine
##ting
walked
##lu
##ience
##band
distress
talked
agreeable
husband
offer
price
inclin
eager
table
things
former
##shire
satisfact
middleton
country
warm
##eng
enc
among
temp
expected
taken
##ail
##omm
doing
scar
av
sense
##cing
##ory
dare
don
night
som
##joy
##cious
##zz
##ark
##ented
prep
address
pretty
fine
laugh
##reh
aston
themselves
##itted
##itting
import
repe
##iece
ready
##ures
enjoy
saying
engaged
nature
advantage
body
##rise
##mb
giving
month
name
##acy
##aise
form
##ledge
particular
difficul
scarce
##wise
mary
##ounds
bring
recoll
carriage
surprise
gentleman
sorry
scarcely
cap
view
##now
neither
exact
remo
begin
##ully
turned
cal
##lot
incre
charlot
charlotte
fix
##fic
##iety
##el
##come
fortune
met
##ock
inform
##owing
alone
wanted
conduct
##ength
pu
pal
##ex
forward
##etim
conn
proper
pleased
words
daughters
sometim
early
##iet
stre
need
judg
dinner
five
##ps
##iner
whatever
afterwards
greater
likely
appeared
entered
law
anxious
sometimes
ack
##ren
##ili
##dd
tom
##ution
ord
##mpl
comple
talking
regret
satisfied
earn
making
acknow
cor
##ene
##ons
real
##ishment
##ified
common
convinced
terms
##ph
##right
attempt
used
believed
decl
##anger
exactly
ten
##ying
##aining
produ
##ortun
works
equal
opportun
lear
##fully
ang
##raid
usual
directly
satisfaction
ball
##erely
##uring
neigh
change
prof
afraid
attent
appearance
write
particularly
purp
attachment
necessary
encour
earnest
neighbour
##ell
##ities
##idence
##light
except
marry
hours
asked
children
temper
got
lar
##lay
##rew
reach
lizz
expl
##tenance
remember
plan
gardiner
lizzy
tend
##ling
##son
thous
##ident
##like
##aste
##mploy
thousand
air
bart
##will
##inci
##oud
hoped
engagement
street
dr
sch
const
spite
indif
smile
ende
speaking
second
handsome
employ
men
ph
bear
##lect
##ched
soci
conce
##usion
worth
smil
##ney
consequence
natural
creat
eld
fin
und
##ked
##ually
##ased
##ession
mod
greatest
silence
servant
effect
countenance
break
##ict
##omp
notice
princi
##rie
quiet
evil
assist
taking
elect
question
purpose
endeavour
case
##iable
##up
deg
##iving
thinking
assure
truth
drawing
opportunity
fancy
##ior
exceed
girls
surpris
depend
learn
barton
ma
##uri
##bert
##wh
nobody
##ents
longbour
##ibility
compliment
information
longbourn
dread
##ected
supposed
company
cheer
##ronic
months
electronic
sitting
wind
##ler
##ising
##arr
meant
cott
sever
intim
wishes
thoughts
##airs
news
humour
avo
judgment
society
ap
dress
ke
##lud
##ken
##cas
##ted
##aken
pleasant
susp
arrival
beauty
bad
dut
fre
val
shew
knowledge
support
foundation
lucas
occur
tran
circumstances
##gy
##alth
perce
##rodu
true
##redit
silent
resolved
probably
repeated
surprised
mer
##hood
##aving
living
alter
introdu
##ages
##ief
instantly
followed
influ
fond
fair
round
##so
everybody
wrong
hearing
copy
swe
##ross
##br
requ
##ication
spent
seem
parson
considered
answered
book
vol
##su
##ich
##pe
##gg
remained
deser
desire
trust
disposition
invitation
parsonage
curi
credit
har
taste
##fast
##gr
##ony
stand
unp
##used
desir
##ribut
troub
easily
##ission
danger
pay
sim
##ove
##king
bel
sudd
pros
##osity
##oney
leaving
##rupt
cousins
face
equally
pub
palmer
large
tender
sudden
money
pounds
pride
##ears
contr
calm
grie
sake
slight
watch
##outh
relie
alarm
hopes
difference
acknowled
exceedingly
frequ
public
jour
##ead
##men
priv
##ool
cold
looks
susan
easy
journey
niece
sum
##therfield
stru
netherfield
morrow
##ively
indul
desc
arr
joy
commun
meeting
imagine
degree
claim
dance
treat
thus
inquir
##essed
above
quar
quick
walking
recomm
comfortable
absence
eleg
fixed
breakfast
fit
kitt
merely
var
##lcome
thor
##ination
toler
##iding
super
##abl
##ability
##osing
knowing
happened
##fulness
tea
offic
##angu
##utely
schem
kitty
fut
late
##ors
share
allowed
light
seems
worse
remark
became
sinc
observed
delighted
weeks
aware
beginning
influence
future
det
sy
tra
praise
##aded
##eech
##oof
stri
lost
assured
disappointment
inclination
hab
##enty
exert
chief
speech
amiable
proceed
intell
observ
absol
companion
civility
gratitude
trouble
den
length
##ency
inj
##rem
requir
dev
amuse
mot
##ush
event
improve
princip
cottage
sweet
curiosity
tried
vi
yates
##iction
chance
disg
reply
##fortun
writing
delic
favourite
espe
importance
difficult
complete
eldest
especi
au
bor
vex
##ac
##ging
##inter
also
ago
times
incon
admiration
sensible
approach
attentions
duty
especially
ce
ir
thir
##cell
heav
forced
pray
##ract
unh
ladyship
receive
conviction
mentioned
window
past
port
rap
ut
##tain
##ze
formed
##roach
loved
accomp
luck
eye
relations
prevent
forgot
mistaken
enjoyment
free
pol
sight
six
##gn
##iter
##ides
succ
neg
excell
impat
desp
meaning
fault
extrem
##rehens
conceal
bu
dan
rich
health
solic
misery
whenever
compar
post
instead
agreement
acquainted
suspect
unhapp
hold
low
loss
none
pause
trying
ur
##ian
##to
##ative
##aration
##ested
##itten
attended
join
recover
letters
entreat
spirit
immediate
understanding
persuaded
neighbourhood
reached
prospect
intellig
der
fall
latter
##ergy
anybody
twenty
charm
assur
written
decided
confidence
discover
civil
angry
avoid
kept
pat
van
##ank
dece
afford
##agement
otherwise
##ify
fell
##aught
##rud
design
interrupt
match
##retched
expressed
delightful
forget
highly
dro
hast
lord
mery
ros
##night
##uc
lic
unf
united
attend
joined
spoken
gentlemen
grave
flatter
circumstance
capable
meryton
card
cause
dom
em
emb
med
paid
##ely
##inary
mus
delay
une
income
##well
expectation
colour
establ
astonishment
produced
suspic
success
bed
hint
led
send
##eal
##cap
##mouth
##ality
##formed
intended
conscious
wishing
arch
plain
turning
close
following
mil
##gar
tone
##aring
sother
safe
sep
consol
consideration
disposed
women
affectionate
anxiety
listened
selfish
##ficient
sotherton
bene
dri
during
eb
fact
ign
pember
##ii
##ier
##ace
##bation
shock
##ster
anim
sty
exam
excess
##osure
##ateful
reproach
norland
distance
addition
behind
fortnight
resolution
indifference
absolutely
ignor
pemberley
langu
tre
tears
wretched
##rance
##ith
##cri
##mission
tot
##riety
welcome
mort
choice
unwill
agitation
compass
dearest
receiving
expression
prevented
excuse
extra
wait
arrived
escap
superior
scheme
ebook
age
bless
ru
ra
run
sing
##cceed
##pend
##edly
##ison
##lly
succeed
##raph
##using
##iful
educ
please
likewise
remain
independ
finding
objection
estate
promised
sentiment
waiting
constant
##where
acknowledged
describ
viol
auth
excellent
style
bes
bright
fire
mad
pict
##ring
##een
##anch
wit
##itated
start
##osal
##otion
##lace
repres
mater
acting
smallest
horse
creature
occurred
inconven
ease
pity
vain
wro
##ses
##ont
##ired
##pped
##ourse
enquir
perform
resent
##ibly
regul
scene
particulars
##licity
reading
estee
promise
necessity
suffered
affair
trif
##grat
observation
required
compassion
author
wrote
er
fat
##anged
ann
stairs
lived
prot
proved
##aper
tempt
includ
younger
command
secure
understood
painful
lively
recollect
removed
several
tranqu
quarter
thorough
rosings
license
due
deep
##be
##ble
##aster
hers
forth
note
##eeper
weather
partial
compreh
##agraph
pleasing
friendship
charge
paragraph
strange
advice
difficulty
vanity
bar
gre
##rim
##iod
##gence
##isure
itself
asham
rej
nearly
libert
##ical
marrying
alto
##mph
period
lead
leisure
famili
accord
clergy
folly
reflect
prevail
pursu
useful
service
concerned
accepted
persuade
astonished
increased
declared
##arrass
relief
struck
delicacy
unhappy
ashamed
altogether
hund
mam
num
##smouth
##cise
##erable
##ision
##asing
##lee
##ows
sof
sol
def
yours
dislike
wholly
reser
returning
generally
respectable
donations
portsmouth
intelligence
unwilling
education
hundred
div
liter
red
rid
try
##oth
theat
##terday
sugg
sole
mel
##ardon
unk
unfortun
seat
##olo
prefer
twice
north
justice
scru
yesterday
interesting
unpleas
fatig
cru
dest
eight
hun
mine
pun
##nday
##ences
##ash
nove
proof
##urch
meas
ama
evident
imprud
##iously
moments
secret
staying
effort
important
recollection
orders
explan
value
private
amusement
embarrass
archive
master
##af
##xion
##onshire
##ingu
##arily
##lection
##irt
congrat
states
comes
unless
disag
proc
expense
ground
wanting
considering
become
entrance
##ribute
exclaim
fears
encouragement
servants
apolo
copyright
frequently
arrange
communic
congratul
hill
ren
vent
##oly
##tford
hertford
##reed
forb
##race
unable
##ilt
##line
##ferent
says
robert
opened
strength
reasonable
reflection
blame
guard
check
garden
disappointed
eagerly
warmth
indifferent
charming
miles
##ancholy
melancholy
disagree
hertfordshire
bur
bour
furn
harm
wood
##iest
##umph
##gu
shame
##itable
conject
exist
org
liked
agreed
parties
composure
road
##ption
boy
affected
considerable
displeas
display
instru
opinions
concl
trade
sorrow
makes
possibility
clear
connection
valu
polit
neglect
dancing
suspicion
besides
literary
lately
sl
sad
##yed
##esh
wild
forster
proud
dem
defect
stood
exer
fresh
##ously
##uss
parted
##ific
##ification
fright
grateful
supposing
art
distingu
admire
restr
pec
observing
proposal
dining
inclined
prepared
profession
modest
suddenly
difficulties
accompl
forgotten
extremely
uneas
liberty
bourgh
bit
cur
da
fan
fif
lim
piece
sign
##cul
height
##sey
##eele
steele
sacri
##iced
margar
felicity
##aging
consult
overcome
distribut
##teen
occup
calling
invited
feared
ideas
attached
admiral
beautiful
triumph
views
##elve
order
dreadful
belong
trave
exertion
improvement
consolation
represent
mama
margaret
ow
sou
sound
winter
##mn
##zwill
##inite
conve
chuse
knows
##ifying
attending
report
happen
twelve
housek
confir
confess
fail
depart
opening
horses
naturally
laughed
request
standing
contrary
recommend
elegance
fitzwill
solicitude
fellow
##ealous
totally
picture
unpleasant
fitzwilliam
ay
cross
drew
ga
pen
wed
##oc
##mark
##enced
whis
wid
death
sto
neph
spend
spare
perse
cost
comply
lose
gover
access
placed
passing
dashwoods
getting
propriety
earli
suffering
provided
seriously
phili
assistance
trans
books
simple
tenderness
habit
motive
comparison
music
language
inconvenience
esteem
thoroughly
explanation
politeness
nephew
caut
dine
gained
lay
lam
mut
##uli
##ines
rev
ant
stup
neck
lie
miserable
indu
apprehens
consent
consci
contri
remaining
subm
bertrams
carried
discuss
blush
probability
questions
mistress
hurst
bringing
cheerful
intimate
intimacy
indulgence
assurance
consciousness
material
resentment
tranquill
comprehend
number
peculi
whisper
philips
cou
catch
ec
fool
jealous
sick
##oci
##ray
##ouch
##semb
##vered
sun
pract
##rig
weak
willing
church
##ants
libr
##erty
indign
sooner
associ
parl
ourselves
confusion
restor
minute
property
infinite
listening
hurry
##fici
properly
earnestly
cheerfulness
deserve
summer
tolerably
proceeded
principal
madam
clergyman
##leep
renew
exercise
library
hes
orig
pa
vill
##ror
##fice
##bb
##lling
inn
##oming
##itions
reh
##idity
prud
deb
mem
stop
story
##rawn
uni
prove
seven
attract
greatly
##ressed
resist
result
supply
##emb
satisfy
actually
readily
interested
related
settle
favourable
judge
##ordinary
increase
connected
anger
smiled
undoubt
alteration
tolerable
officers
disgrace
third
emotion
extraordinary
theatre
disagreeable
trademark
parlour
origin
caught
fal
gall
grew
pardon
##kes
##ues
##ining
##onc
##att
informed
render
##amp
permission
##cky
intention
betsey
##lty
begun
ended
conclud
conven
sentence
engagements
possession
removal
cordi
employment
smiling
perceive
inquiry
elegant
utmost
brighton
exclaimed
burst
east
mess
sour
##leness
##zed
##orn
##anced
hall
fores
suit
conne
stud
chair
liber
unlu
unex
diss
##ilities
##ishing
coach
indis
impress
eliza
remem
affections
promot
honest
determine
human
step
steady
approbation
perceived
merit
communication
variety
deceived
witness
solemn
unfortunate
scrup
housekeeper
remembr
cr
fet
fee
maid
nay
pit
ration
ta
##mon
##ater
##cend
assemb
##als
press
pressed
dela
steel
##estic
exe
unne
spot
marked
seated
compla
##ounded
resemb
grad
subjects
admitted
peace
active
asking
follow
invol
refund
relation
absent
judged
matters
imagination
offered
warmly
addressed
increasing
finished
volunt
desirable
frequent
claims
heavy
rapt
domestic
sentiments
soften
bitter
soul
couple
false
delaford
steeles
unnecess
cut
dign
fash
nice
paper
sigh
sending
##kward
##jud
infer
force
##alt
##ampt
chose
spared
moved
##quire
##ilar
##ives
##ertin
parting
partner
quitted
impertin
prejud
pleasures
dared
belief
accident
wants
presence
discourse
oblig
observe
probable
awkward
provide
possibly
distressed
laughing
connect
acknowledge
declare
watching
treated
chiefly
impatient
single
including
bow
cens
drawn
line
ner
ran
tal
warr
##ize
##pond
shut
##ric
##urs
unlike
qual
intent
##ope
obt
rooms
##cied
believing
office
heartily
england
admit
objections
thrown
expressions
estim
circle
fully
affli
##respond
clever
amongst
calcul
correspond
profess
introduced
require
sincerely
completely
vexation
ceased
irr
faults
established
separation
ignorance
rejo
prevailed
northampt
measure
embarrassment
arrangement
demand
fancied
mutual
conscience
tranquillity
village
undoubtedly
tax
unnecessary
dwell
foo
lines
sought
sleep
tall
##ding
##he
noise
##veland
shewn
rever
##idently
sunday
lips
amend
along
##uses
quit
attack
expens
happier
applic
grown
arm
arise
assert
distin
uncomm
matrim
natured
telling
visitor
court
sufficient
blind
careless
disappro
strongly
improved
thanks
mistake
cleveland
hurt
eagerness
employed
learnt
strugg
habits
thirty
suspected
patience
raised
persever
indisp
fashion
warrant
uncommon
fast
fig
game
nons
ris
rising
##vous
##zing
##omfort
shru
##recy
##ldom
##iture
##owers
##urb
##icip
missed
across
exper
applied
betray
grounds
contempt
friendly
parish
preser
regiment
appearing
advise
secrecy
illness
cloth
opposition
wondered
forgive
grand
grace
doors
concerns
stead
smiles
elder
quietly
supported
altered
deserved
devonshire
heaven
build
separ
benef
escape
succeeded
independence
violent
suggest
destro
concluded
impression
softened
cere
ge
mere
rate
rous
sk
tired
ww
won
##oom
##sford
##aved
##gent
##ered
##onoun
youth
##liance
pronoun
##oose
##pping
env
##ices
spring
moreover
seldom
##unte
parts
##illy
evidently
goodness
preference
god
appar
residence
##ume
youngest
speed
kindly
interval
justify
expecting
commend
instant
##rible
##ribution
visitors
courage
direction
entertain
excited
forgiv
admired
stronger
insens
convince
hurried
complexion
attentive
explained
compliments
volunte
calmness
recommended
remarkably
sincere
striking
urged
hastily
ignorant
partiality
hunsford
furniture
restraint
necklace
foolish
infinitely
www
aro
cand
fill
gay
odd
pos
ride
taught
xx
##ole
##ff
##mas
##month
##ening
##ises
##thod
ine
##urday
method
wear
chos
agitated
owner
lover
happiest
elig
charles
around
saturday
uncomfort
commission
cares
carry
declin
##byshire
behaved
##anging
clock
idle
relate
wonderful
condition
laid
waited
guess
openly
fortunate
sensations
sensibility
gratified
thankful
laws
produce
undert
principle
shewed
quarre
borne
accompan
impatience
derbyshire
assurances
drove
cards
domain
excessively
trifle
announ
families
unkind
amaze
conclusion
slow
sacrifice
twelvemonth
associated
rehears
unexpect
remembrance
connections
geor
arose
chosen
uncomfortable
bust
mile
powers
rose
west
##lance
##just
##cies
##ned
inh
hair
white
held
##ury
chris
changed
sport
spread
thinks
fem
feat
lod
firm
smith
disturb
offence
offended
boast
comforts
##isted
generous
glance
##retion
continual
differently
##igned
depended
shortly
points
directed
imagined
insu
persuasion
distressing
formerly
prepare
endeavoured
humoured
dressed
introduction
trusted
watched
thorn
disgust
vexed
approaching
afforded
shocked
blessing
regular
green
reserve
imprudence
forbear
instrument
valuable
frightened
uneasiness
peculiar
indignation
resemblance
gradually
inferior
censure
intentions
figure
posit
amazement
ah
dam
dances
hate
hot
htt
pg
rain
rank
sink
##rence
##pic
##uit
##aw
##gen
##vity
##erity
##inc
##enham
##ore
shy
shook
##itations
reward
rebe
##ames
wealth
##akes
##arded
chaise
unre
move
moving
misfortun
worst
somebody
season
exped
##olent
teach
argu
##cca
justified
certainty
ways
broken
uncertain
gloom
objects
collection
refuse
characters
excl
purch
occasionally
provo
thanked
preparing
encouraged
paying
various
speeches
lucky
despair
interruption
animation
described
enquiries
reflections
apolog
confirm
departure
caution
discussion
debt
fetch
affliction
nonsense
bustle
christ
thornton
rebecca
dull
gate
loud
pian
raise
section
vast
yield
##oved
##under
##gress
noble
##uted
##urd
staid
unjust
dism
progress
##iled
##ott
events
lovers
##ieces
##olence
preach
distant
scen
becoming
stranger
confined
instance
discretion
obliging
##mptom
doubts
proposed
busy
companions
pains
higher
honoured
keeping
copies
recollected
attempted
dependence
seeming
desirous
below
grieved
treatment
inquiries
symptom
injured
utter
recovered
discovered
interrupted
tremb
ebooks
trifling
fifty
limited
distributing
aye
gaiety
stopped
stupid
gallant
rendered
prejudice
obligation
distinction
clothes
http
unreason
piano
breat
fate
fitted
gown
king
land
sw
tet
virt
wis
##look
##ially
##ium
##ey
##ale
##ger
##worth
##erous
##erning
thither
tor
##onom
##onst
##armed
beau
##omin
##ential
notion
withd
##amed
##osite
uns
unt
##ouses
##mpath
seeking
abilities
##ivid
composed
compliance
loc
individ
longed
apply
using
growing
remind
##ode
supper
interference
hearted
scre
gives
reception
brothers
truly
throw
continue
bestowed
entering
opposite
lace
extent
gracious
wander
nearer
gratifying
possess
complaint
encouraging
remembered
drink
severe
newsp
perceiving
introduce
remarks
sympath
strict
patron
establishment
escaped
independent
accordingly
fatigue
apology
displeasure
accomplished
daily
anticip
sunk
restored
memory
message
source
unlucky
rational
voluntarily
foot
matrimony
roused
tete
dined
eat
lower
mag
sangu
##ized
##com
##course
##mony
##back
##ingham
##arrow
shar
shop
##ital
##stairs
##ctions
print
bye
unwe
aloud
performed
##quest
abode
worn
##road
sex
##liness
leg
attribut
##ortion
replace
##rust
##olk
preced
##tens
hoping
smart
intercourse
distribute
meanwh
box
scold
walks
carrying
passage
advanced
thrush
disclaim
discont
closed
takes
doubted
highest
guest
ess
accepting
acceptable
honourable
breed
approve
providing
consequently
middletons
##ommod
repeat
remove
balls
explain
plans
school
finally
endeavouring
apart
similar
relieved
syll
deny
denied
devot
motives
delicate
cease
irre
freely
concealed
selfishness
drive
shocking
animated
additional
wretchedness
describe
authority
divided
ridicul
cruel
imprudent
existence
boys
representation
lament
apprehension
submit
econom
##bbery
dignity
risk
shrubbery
ceremony
commendation
insuf
unreasonable
lacey
newspaper
sanguine
unwelcome
meanwhile
ber
bath
fur
hither
haste
narrow
##oon
##folk
##ia
##iver
##nes
##nown
##hib
##mber
##maid
##ug
##ule
##vant
##vag
##ouched
##asions
##lled
##riages
allenham
weight
doct
likes
agath
abroad
##room
somewh
fever
##laf
obst
happily
goes
norfolk
overlook
justly
distribution
engross
lessen
hereaf
presently
secured
reasonably
bestow
persons
absurd
pointed
condes
condem
gravity
guilt
trick
##issed
addressing
format
attempting
created
moder
dressing
shewing
desired
beloved
contrast
improvements
bore
##acity
rapid
polite
entreaty
extravag
performance
deeply
rejoice
familiar
solitude
suggested
unknown
punishment
novelty
november
procured
displeased
distinguished
occupied
travelling
owed
conveyed
earlier
earliest
jealousy
renewed
uniform
complac
application
volunteers
eligible
declined
pglaf
breath
magn
somewhat
hereafter
ali
bas
ban
bla
bound
du
hy
lest
lane
nieces
ox
wound
water
##oline
##rase
##iation
##power
##hor
##halt
##gment
##ys
##ering
bew
##itary
notions
anhalt
web
fras
front
##ards
saved
morton
everingham
disinter
seek
##usal
abomin
quitting
##keley
##apable
lock
loves
obtain
impart
grow
incons
incapable
desper
overpower
parents
accommod
distrust
bred
broke
engaging
lovely
expectations
caroline
advance
decision
actions
discern
gentleness
refusing
oblige
previous
previously
setting
promising
proportion
elsewhere
handsom
counter
steps
horror
advantages
satisfactory
earnestness
phrase
merits
calmly
descri
schemes
approached
danced
hasty
coloured
example
trees
reserved
woods
wedding
induce
convenience
connexion
scruples
dwelling
expenses
insensible
inev
features
forbearance
misfortune
scenes
individual
breeding
berkeley
agatha
oxford
disinterested
alike
cas
died
fare
faint
houses
maint
mild
ring
tues
vall
xv
##ox
##rid
##roof
##lish
##elia
##pit
##mers
##ued
##eder
##onn
##orrow
bell
##set
reject
##iday
##etition
##rill
dead
defici
frank
choose
combe
ens
##rand
##raction
##ulous
unworth
spr
amelia
monday
mark
##qual
abhor
##earch
upstairs
reproof
longing
##enny
##umb
desert
begged
parent
interp
subs
recall
wherever
advis
surr
acted
continuance
collected
personal
suffici
entert
easter
fearful
midst
pretend
occasional
humble
regarded
putting
improp
sons
##resh
##ailed
addresses
puzz
judging
tomorrow
neighbours
evils
learned
repeatedly
harley
simp
prosper
contrad
grief
arranged
sincerity
denial
principally
principles
luckily
##rehension
discovery
medium
delayed
hints
plainly
driven
mortified
ruin
started
baron
barouch
according
hills
venture
conjecture
valued
modesty
uneasy
heightened
wednes
lieuten
weakness
calculated
correspondence
rejoiced
northamptonshire
disapprobation
uncommonly
forgiven
unexpected
christmas
gallantry
virtue
sharp
syllable
ridiculous
further
complacency
tuesday
valley
wednesday
aud
bill
brie
cast
dict
deeper
gain
hol
lot
page
size
silly
vul
wall
wise
##og
##rity
##ners
##hip
##min
##mons
##acc
##gian
##01
threat
threw
##atisf
##ork
##orum
nois
whist
fore
forty
releas
hist
conver
##ament
##amber
##ables
anyone
dish
spending
amused
alarmed
##que
sees
##ung
intending
##ift
compared
appoint
crawfords
roy
usually
content
contents
contribut
joke
subst
hopeless
plant
working
endure
recent
delivered
cared
carriages
glow
decide
visits
visited
expressing
visiting
invar
readiness
refresh
faith
reluct
##ernal
chapel
depri
elev
playing
flow
county
breach
##ustom
affairs
allowing
preparation
declaration
encourage
tendency
effects
purposely
avoided
suspense
duties
harp
##ableness
absolute
sweetness
born
extreme
buy
civilities
safely
excessive
total
running
materially
err
error
errand
protest
temptation
included
recollecting
leading
redist
congratulate
congratulations
ventured
displaying
distinguish
belonging
complying
blushed
prudence
univers
promoting
crit
##cended
pressing
exeter
raptures
talents
##opement
professions
amends
pronounced
envy
georgian
positive
replacement
essential
black
description
impropriety
contradict
barouche
lieutenant
brief
georgiana
bid
cre
cool
et
hunt
kent
mich
net
owe
sides
touched
vary
vows
##oqu
##ipt
##ec
##elty
##certain
##pet
##mitted
##uous
##uine
##ael
##gra
##xions
##71
##inct
##orm
##isite
inquire
##let
##itch
##chief
ascertain
noticed
##irth
##tered
##advant
##ries
##ains
##urity
defer
wel
##aking
doz
save
anywhere
##ulse
unaf
disadvant
amb
##ival
sea
adop
adie
##oph
lean
editions
imposed
consist
dark
grate
contented
charms
##uded
##cial
##cili
farm
founded
places
deliber
genuine
occasions
passion
strang
confident
##ception
continually
collect
invite
respects
oppressed
wondering
excite
lawn
throughout
necessarily
occasioned
guided
improper
provision
terrible
affron
clearly
needed
excepting
larger
creating
dreaded
harbour
alarming
privile
quickly
windows
relationship
posted
decidedly
attendance
flattered
benev
##iii
mortifying
tempted
grey
pursuing
sofa
cruelty
checked
fifteen
sacrific
distributed
confirmed
recommendation
induced
catching
paused
prudent
original
cordiality
foreseen
connexions
liberal
dissatisf
pitied
exec
impertinent
nervous
benefit
apparent
intervals
rehearsal
inhab
female
exclam
purchase
debts
devoted
insufficient
hitherto
doctor
counteract
##setshire
sufficiently
vulgar
noisy
michael
unaffect
bott
cure
dir
date
dwe
gift
later
main
mix
nine
rise
riding
sly
sal
sam
terr
war
wine
##ls
##iance
##case
##crib
##umed
##vent
##ism
##isance
inatt
ingen
##reg
##itate
##char
reck
online
##idable
anne
##ets
pra
conquest
##riet
stage
cheek
chamber
orn
energy
enquire
lift
lives
liking
unres
unsu
ungr
disli
dischar
##ics
##icing
##ically
##icious
alac
manage
mission
implied
imputed
pleasantly
evenings
outs
gross
contact
contained
housemaid
ard
overc
spec
lasted
bold
board
worked
appears
unconc
recon
reconc
receipt
decorum
restless
security
actual
concerning
continuing
reasons
cloud
elopement
refused
relating
doubting
respected
promotion
resolve
resolving
carefully
earth
prett
infam
situations
flut
flirt
insp
nearest
beauties
##venue
copying
avail
donate
forming
capital
fixing
regretting
phil
finest
assisted
fancying
keen
lucases
altern
inquired
##racted
sixteen
solicit
urge
recovery
fallen
falling
mortification
blessed
pursuit
solitary
unfortunately
eighteen
punct
efforts
communicate
communicated
forbid
guarded
guardian
proposals
accomplish
daw
signify
govern
governess
transp
submitted
innoc
stopt
attractions
liberality
coachman
falsehood
impertinence
nerves
qualities
obtained
estimation
struggle
perseverance
experi
destroyed
speedily
undertake
##onstr
##comed
attributed
preceding
fraser
unworthy
history
welcomed
leaning
dissatisfied
dwelt
ungrateful
alacrity
unconcern
42
ach
action
aust
crying
denny
ecc
fret
jun
link
nur
path
squ
song
site
test
touch
##ration
##ket
##iently
##eur
##egr
##tiv
##dom
##dig
##bs
##work
##erfect
thurs
##atus
hero
shire
shared
##rees
##ites
##itled
aside
ones
##verty
sold
sooth
##ading
conference
deficient
station
status
##akened
exch
chat
unn
unse
disd
amusing
prodig
knock
abund
sept
integr
leav
fees
comput
imperfect
contain
letting
poverty
submission
adding
surely
plann
scot
comfortably
##inson
acquies
discomp
aunts
inval
refusal
relative
opposed
useless
careful
directions
grants
humility
accounts
insist
awakened
sufferings
sensation
listener
mentioning
offering
repeating
formal
captiv
regrets
corre
constancy
employments
finish
modern
endeavours
degrees
cottager
avoiding
key
suspended
fairly
volume
unpardon
slightly
slightest
remarkable
detail
proceeding
observations
injury
built
holder
joining
recovering
flattering
remains
represented
enquiry
performing
protested
defend
preferred
scruple
embarrassed
neglected
artic
peculiarly
renewal
promote
assembly
involved
requirements
northampton
reverse
amendment
betrayed
grandeur
separate
filled
damages
shyness
wisest
located
reminded
printed
economy
obstin
engrossed
alive
basket
farewell
entertained
billi
holiday
adopt
gratefully
dirty
reckon
unreser
thursday
integrity
leaves
18
aut
apt
bowed
dim
doub
dup
fing
hat
jan
ll
mi
monstr
pace
ram
rul
tis
tid
vac
wet
##rained
##ks
##sue
##noon
##hold
##ulf
##uity
##uced
##acious
##bru
##bber
##vance
##view
##00
##671
##ench
##ator
##atory
##atively
##ories
##ancing
##llers
inex
##itating
##utation
aspect
refer
suited
##alty
soft
pratt
##ural
deject
stir
##lfare
welfare
saf
chain
enab
##osoph
unan
unus
unacc
disinc
agony
##iles
somewhere
##ckily
##illed
intreat
febru
comprehension
expose
afternoon
jump
feels
precise
console
##inement
grou
thoughtful
thoughtless
incred
incomp
##umn
pock
supplied
##forte
intern
interview
lasting
offend
minds
disposal
entitled
affectionately
throwing
hardship
eloqu
fortitude
silenced
respecting
blow
situated
improving
played
insip
insult
senses
acceptance
stepping
##lesford
approved
gratification
horrible
trial
inclinations
enjoyed
enjoying
removing
regretted
opportunities
learning
professed
conceive
undes
breaking
dreadfully
merc
harris
acknowledgment
indulge
indulged
joyful
detest
negli
urgent
prospects
derived
deceive
designs
designed
gravely
flattery
examining
succeeding
pictures
tranquil
solid
fatigued
measures
harmony
conclude
defective
limitation
signific
ordered
convey
failed
practice
hesitated
convenient
study
unluckily
solemnity
assembled
accidentally
talent
obtaining
irritation
assertion
experience
steadily
building
entertainment
quarrel
accompanied
announce
slowly
lodg
expedient
pianoforte
sympathy
apartment
condemn
magna
desperate
inevitable
deficiency
abhorrence
advisable
dozen
consistent
strangers
unaffected
bottom
outside
reconciled
flutter
philosoph
accomplishments
42671
ecclesford
september
correct
unpardonable
autumn
monstrous
unaccount
disinclin
february
avenue
bi
bent
bought
brill
ca
cook
cry
crim
die
dying
diver
ell
fulf
mount
mouth
narr
pou
pure
pap
paint
pained
sed
yards
##lude
##lorn
##ius
##iably
##eas
##ees
##nold
##de
##hed
##hing
##bor
##bton
##bted
##gue
##ynold
##vi
##41
##erness
thin
today
##isions
##isition
##asm
haz
shad
shade
sharing
whit
wimp
forte
forlorn
##ste
rect
reynold
##irm
##imp
ange
butler
sober
##aming
allusion
alluded
##oop
deference
star
stout
stair
neat
weary
exqu
extens
docky
sail
saving
moral
cher
chusing
chuses
##ulation
disres
disreg
##icule
sple
spark
proving
prohib
knoll
perple
permitted
coff
abst
abrupt
##ivity
adap
timed
attribute
impud
repro
repair
repetition
resigned
rob
##iousness
likeli
incess
dearer
##uming
indebted
endured
speaks
considerably
uncons
bennets
sermon
genius
maternal
acquit
generosity
advised
presented
presentation
confession
genteel
turns
follows
##ignific
##xture
wicked
silently
doubtful
equip
chapman
settling
oppose
extended
gladly
##istency
imaginary
fortunately
eff
insignific
awake
steward
drawback
##ustice
##olded
allowance
complain
husbands
prepar
advantageous
captain
palmers
ordinary
reaching
constantly
phys
severely
introducing
deserves
curious
dangerous
grievous
slighted
summon
offices
strike
injustice
amusements
motion
inconst
excellence
despatch
unhappiness
entreaties
dropt
hastened
unfit
unfeel
unfavour
unequal
suspicions
beneath
driving
examination
superiority
describing
madd
esteemed
recollections
pursued
numerous
divide
ridicule
theatric
fatigues
arrangements
blameless
conjectures
displayed
sorrows
wilderness
defects
curtain
consulted
belonged
owing
wide
widow
stopping
lambton
revived
cordial
honestly
witnessed
complaisance
involunt
voluntary
raptur
bitterness
dignified
reverie
indisposition
preserve
destroy
apparently
xxx
lodge
argument
confirmation
dismissed
symptoms
trembling
beaux
withdrew
unsus
complaints
legal
extravagance
impartial
sprung
puzzled
walls
release
reluctance
deprived
errors
ambition
privilege
cheeks
punctual
austen
exchange
unnat
scotland
billiard
mixture
group
pocket
brilli
wimpole
reynolds
staircase
exquisite
extensive
dockyard
disrespect
perplex
coffee
unconscious
aim
camp
fun
gaining
hated
jen
james
kitch
lee
mal
nin
nav
nurs
names
pack
rom
upp
ver
##ob
##kinson
##sp
##iqu
##iences
##cence
##how
##ua
##uary
##bable
##go
##vation
tong
##ones
##isen
shr
show
whence
wilf
##vel
##church
##sex
##stood
remed
##ters
ate
atone
##lig
pred
conj
whither
mend
meal
stu
exh
exult
fruit
willingly
enfor
ensu
##antic
liability
unb
unav
ungra
space
spith
amid
amount
mare
theirs
misc
misunder
mischief
perman
pervers
coat
everywhere
##ivative
wore
##earse
management
intend
intrud
##ote
attraction
exposed
##aust
indolent
impulse
happens
##ruction
precious
pretens
appeal
outward
user
incumb
dearly
##umer
arising
arisen
##assed
retreat
assuring
begging
specul
##igua
indec
parce
accustom
##ensh
plants
hearts
lux
english
considerate
unconn
sermons
acquisition
entity
entail
glass
confid
confused
confessed
surv
surve
instinct
activity
behave
##anges
worldly
sussex
expressive
inviting
spoilt
mansion
suffice
respectability
prompt
propose
determination
attachments
improbable
openness
flo
counsel
liveliness
convincing
civilly
horrid
possessed
offers
tempers
somer
formidable
##ieties
stream
needless
corner
producing
tempered
pheas
conceit
creatures
mode
merry
influenced
fondness
deserving
trusting
creditable
payments
treating
officer
official
detach
exerted
requiring
requires
sweetest
rapidity
impatiently
despond
##rehensible
concealment
comparatively
derivative
dropped
gravel
colouring
examine
languid
rule
violently
startled
horseback
authorised
protect
paragraphs
prevailing
pursuits
defence
unwillingness
reduced
hung
procure
procuring
conjectured
sadly
travellers
antigua
lieu
contrive
ecst
sickly
willingness
hesitation
rehearse
resisted
foresee
rationally
bitterly
rejoicing
demands
expensive
applicable
warranties
preserved
gracechurch
benefited
speedy
forgiveness
accompany
announced
unkindness
george
sports
disturbed
arguments
provoke
wandering
anticipated
disclaimer
moderation
bewild
abominable
overpowered
handsomest
cases
maintained
surrounded
royalty
substance
invariably
critical
varying
disadvantage
affront
inhabit
experienced
links
nurse
acquiescence
article
holidays
january
tidings
vacant
safety
enabled
unusual
precisely
unaccountable
angel
adapted
equipment
preparations
unfavourable
unnatural
jenkinson
kitchen
upper
ungracious
spithead
incumbent
unconnected
bare
bord
cent
coo
crow
dry
eating
fo
field
files
gather
hos
hence
kiss
kissed
ling
losing
mant
non
named
od
oct
ple
pang
rant
rough
rav
rude
roof
sn
south
search
tree
tables
vo
vest
wounded
zeal
##oat
##ober
##rain
##ivers
##cens
##nings
##ded
##dated
##bled
##get
##wom
##inently
topic
##enary
##encing
##encies
anders
##anes
##thus
nob
##omes
shed
shoo
shake
##lebr
##itution
shel
##stap
##ctive
##ime
##aled
##lies
##abilities
##ooth
##urrence
mead
stone
storm
exhib
chin
changes
enable
enthus
##arts
##uls
##ular
##ulty
liable
yourselves
unch
ungen
diseng
march
alas
pert
perfor
perpet
##ilty
covered
##usions
##rop
somehow
sevent
partners
intr
##ife
acutely
owns
owned
feet
indire
##ounding
##agged
repent
prec
longstap
gold
research
##ibule
consented
##annel
thoughtfulness
containing
contracted
incur
imm
retire
smooth
indef
accent
accus
offending
talks
##pection
persist
returns
brown
bride
branch
momentary
placing
score
##aneous
lesson
writer
deliver
generations
dispose
dispatch
admitting
glory
decent
decline
confinement
restri
calls
spirited
surm
answering
acts
hardened
illust
oftener
idleness
refrain
faulty
exciting
excused
pursue
pointing
blunder
infli
guessed
guilty
admirer
conversing
strongest
playful
flower
services
awful
stepped
##lesome
diffidence
gratify
##attered
consequences
cleared
copied
warmest
preposs
formality
particularity
viewing
conducted
anxiously
completed
attempts
declaring
attentively
explaining
remembering
depends
max
intimately
##soever
griev
grieve
relieve
alarms
acknowledging
arranging
recommending
teazing
officious
detain
trace
traged
exertions
intellect
celebr
portion
concealing
suspecting
holding
intelligible
derive
patient
affording
roses
email
successful
treas
ruined
raising
violence
enquired
regularly
compassionate
protection
quarters
comprehended
amazed
amazing
furnish
##ifications
curt
occupy
conveying
failing
penet
governed
cautious
stupidity
apprehensions
contrived
contriving
contrivance
attracted
disgraceful
gallery
sources
scrupulous
awkwardness
qualified
army
indisposed
betraying
steadiness
separated
insensibility
candid
quarrelling
unexpectedly
disgusted
positively
sinking
gloomy
kingdom
swall
tort
patroness
overlooked
condescens
moderate
extravagant
banish
hyster
inconsider
accommodation
discernment
handsomer
inducement
interposed
simplicity
appointment
refreshment
etc
hunting
adieu
benevolence
exclamation
michaelmas
terror
inattention
disliked
overcame
available
square
unsett
obstinate
rules
dejection
eloquence
mercenary
picturesque
lodgings
disinclination
disregarded
splend
summoned
maddox
perplexity
tongue
perverseness
##enshaw
confidant
somersetshire
pheasants
bewildered
odious
october
ravenshaw
vestibule
##woman
enthusi
ungenerous
seventeen
indirect
longstaple
20
burn
bonn
birth
dirt
ere
fid
file
flight
glee
groom
hart
hanging
jack
lab
mon
mirth
nancy
pet
pour
pages
push
ramp
rival
sla
sounds
ty
ted
tur
vic
vind
vice
##rent
##lest
##empl
##cast
##pent
##pear
##ds
##den
##ma
##mit
##umpt
##uities
##bar
##ges
##inity
##edy
##edom
##onies
##onial
##atious
##orous
##isons
##asc
##asy
##anter
##though
ingrat
hack
sho
shakes
##rep
##itably
##cher
##ceasing
heat
heir
##entive
forfe
forms
asleep
reve
reven
##cted
##imate
##imilar
##idge
suitable
##alf
##ales
##eteen
##liament
conform
##ril
alliance
stared
stock
##alled
frame
frost
comedy
enumer
##ositions
unl
ungu
unceasing
disord
dissu
spacious
amp
knife
although
##ilation
##usive
##asted
select
##inking
queen
##istered
##ifully
##ifiable
acute
##otions
timber
compose
compare
upright
exposing
loving
obe
indic
indies
imposs
canv
##ache
repose
repuls
appreh
robb
pleasanter
darling
contempl
##umber
supplic
arms
overth
##assing
##ltry
##cile
assid
begins
kindest
parliament
intermission
##onduct
##ensive
presume
plenty
scattered
served
acquired
downs
presents
glancing
decis
satisfying
instances
discour
behalf
agreeing
rushed
ident
courte
courted
faces
delightfully
williams
##eeping
##dued
propens
propriet
easier
conduit
directing
granted
painter
humili
guine
admiring
meetings
helpless
plays
playfulness
insolent
powerful
##attern
consequent
older
afflu
affability
fourth
fourteen
tempor
astonish
astonishing
pug
needle
ordained
corps
corrupt
##elly
constitution
conceited
worthy
worthless
assisting
dependent
cheerfully
april
freedom
requested
##peak
harry
tenderly
grieving
privacy
indulging
indulgent
claimed
variation
superint
detained
detection
devil
aug
prayers
negative
faultless
posts
entreated
falls
deceit
droll
unfolded
emotions
embra
meditations
musical
##cript
unwillingly
rubber
inconvenient
inconveniences
enquiring
barbar
mamma
seats
preferment
cruelly
hunters
existed
roads
restrain
curric
soup
departed
persevered
transact
revol
apprehensive
conscient
discussed
restore
pale
pausing
cordially
halloo
studied
dissimilar
crown
maids
pitiable
sighed
unlikely
calculate
correspondent
matrimonial
blinded
carelessly
persevere
indispens
graceful
buildings
suggestion
volunteer
candle
inher
spreading
firmly
firmness
##picious
provoked
vastly
preaching
composedly
drinking
scolded
irrep
feverish
absurdity
rapidly
politely
familiarity
banished
hyp
frankness
prosperity
audience
forego
converse
appointed
contentment
elevated
universally
contradicted
briefly
ascertained
##ciliation
sacrificed
##cribe
ingenuity
praised
ornament
reconcile
transport
innocent
soothe
disdain
prodigious
abundance
planned
dimin
fingers
negligence
causes
diverted
poultry
shadow
prohibited
impudence
likelihood
inconstancy
unfeeling
rapturous
nineteen
navy
exhaust
exultation
misconduct
pretensions
speculation
hospit
anderson
china
disengaged
intrusion
retirement
restrictions
maxim
intellectual
celebrated
condescension
unsettled
bonnet
ramparts
##peare
shakespeare
impossibility
curricle
90
aid
awe
bos
based
cow
custom
dor
divers
ears
emph
fer
fly
fish
finer
fishing
feder
gates
hide
ii
iron
iii
lin
lou
list
loose
lakes
lanes
mir
mill
nu
oli
ply
pop
pull
pair
rent
rare
rated
river
sney
tir
tour
tending
ug
ve
viv
vig
vouch
wont
yard
##othing
##lor
##ker
##izing
##ef
##eer
##eld
##cibly
##tray
##due
##bby
##wers
thro
##iners
##atic
##atible
##atingly
##isa
##ares
##arse
##ese
bef
nomin
shan
ship
shaw
shaking
##reci
##lett
##itious
##itia
##enting
forcing
forcibly
asci
ascended
astray
##ghter
##stand
notes
##tern
##imony
##idious
##vert
##vering
butcher
soothing
##etch
##etry
prior
prime
##ades
concept
##urm
##ational
deception
meat
stable
stro
stif
stated
stret
stamp
exempt
freder
french
doings
mornings
comb
whatsoever
unin
unite
unass
unint
unwell
unob
misapp
##quiet
##iling
coinc
abuse
##ivil
##iveness
##eared
seized
managed
manager
##unk
particip
##illa
##illery
sisterly
##key
attic
##ape
expence
indolence
goodwill
greatness
repine
preci
appet
resour
##andal
daring
gray
##ounter
include
remonst
household
descend
##ersed
charity
charged
overhe
retained
retired
satin
assent
assented
special
indemn
joint
jokes
subdue
accur
accuse
juster
justification
additions
##ensed
offensive
talker
plate
hearty
registered
affecting
affectation
endless
plagu
plague
speaker
scr
scra
scandal
considerations
uncivil
recital
minded
serve
comforted
carpet
carpent
yearly
dispositions
ours
entailed
glimp
answers
securing
answerable
discl
behold
beheld
##licit
gently
concise
concurrence
clos
train
rushworths
invest
readable
personally
perfection
oppress
prominently
excuses
favours
collinses
easiest
busily
fearing
fearless
resolutely
determining
blue
extort
pretence
pretended
graces
guide
probabilities
smaller
smallness
dinners
imagin
gardens
gardiners
insinu
sufferer
sensibly
persuading
honours
heads
headache
keeps
provisions
##reading
disappointing
disappointments
hurrying
allowable
encounter
enjoyments
gentlemanlike
capri
ordination
profit
purport
bartlett
secondly
handsomely
employees
model
##uries
electronically
winding
cottages
shews
harsh
unpr
##ributing
troublesome
coldness
summons
joyfully
inquiring
quickness
lengthened
injure
disgu
augment
vexatious
##acle
utility
despise
extremity
richard
solicitation
comparative
urging
intelligent
vanilla
##anks
forgetting
drop
meditation
meditating
establish
militia
consoled
consoling
examined
reproached
raillery
singing
objectionable
brightened
starting
authorise
accordance
clergymen
reflecting
solely
secretly
proclaim
exclaiming
gardener
furnished
instructions
distinguishing
restrained
accomplishment
consultation
occupation
travelled
housekeeping
gaieties
widest
costs
laying
whispered
practise
member
originated
concluding
messages
##orned
studying
honesty
humanity
remembrances
resembled
cutting
##alties
estimate
footing
struggled
warranty
ceremon
sketch
pronounce
instantaneous
candour
declining
feature
disgusting
inferiority
damage
rewarded
provoking
apologies
apologising
yielding
unjustifiable
trembled
torment
locations
screened
wandered
patronage
attributing
boxes
scolding
discontent
discontented
guests
apartments
lamentations
##ugal
condemned
formats
uniformly
abominably
overpowering
inevitably
rejected
deserted
surrounding
prosperous
baronet
dictate
wisely
threatened
dishon
royalties
contributions
invariable
redistribution
redistributing
coolness
adieus
deliberation
improperly
benevolent
execution
exclamations
salutation
ornam
housemaids
ardour
specified
reconciliation
flirtation
guardianship
dawd
june
testimony
heroism
knocked
computer
computers
captivating
reckoned
unreserve
unreserved
181
references
unanim
incomprehensible
insipidity
undeser
significant
philosophy
papa
##borough
whitwell
sailor
cherished
incessant
effusion
insignificance
physical
theatrical
unsuspicious
romantic
##iquet
conjugal
unavo
permanent
parcel
luxury
survey
floor
ecstasy
inhabitants
centre
snug
exhibition
dispatched
illustration
tragedy
penetration
hysterics
enthusiasm
fidget
labour
vindication
##umption
ingratitude
hackney
revenge
unguarded
dissuade
amply
selected
obeyed
decisive
courteous
affluence
august
deceitful
hospitality
bosom
cowper
dorsetshire
federal
louisa
plymouth
throat
ascii
stretch
frederick
remonstrance
overheard
glimpse
10
15
16
501
ak
ba
bri
bab
bond
bench
cart
cough
city
cun
dre
dur
ep
fle
food
fame
fili
gro
iv
jones
kill
killed
lect
laughter
ming
merr
mail
murm
nic
oak
pin
pattern
rout
san
sle
sang
sank
salt
sakes
tum
tribute
vers
ward
xl
xiv
ya
zip
##oke
##ros
##rong
##fere
##lar
##kingly
##swer
##iz
##iat
##iot
##iency
##pes
##pri
##pick
##der
##here
##hand
##ming
##mous
##mother
##ub
##uation
##uish
##uously
##away
##ander
##bit
##bell
##bling
##gest
##gate
##gments
##gency
##yard
##xcom
##inine
##enity
##oned
##ats
##ored
##orter
##isms
##ases
##esy
##thpick
inm
noon
shill
showed
shaken
whim
##itive
##itiously
##itatingly
##ceiv
heath
##utions
foret
##strong
reference
reliance
##cting
withhe
##idation
##owal
anec
sup
##etic
##liest
##lived
prison
concess
concili
alle
alloy
##about
##urbation
##anness
deed
meanness
stan
stra
stake
steep
stating
stretched
storn
weaken
wearing
##aker
sag
chanced
changing
channel
comic
enem
enorm
enlar
##ulity
unth
unfe
unsh
unso
##icable
ample
process
moor
miser
aggra
percept
perusal
coxcom
abate
abide
##ivility
sell
seating
manly
adorned
missing
##unch
##unction
partly
quality
##ifies
##oping
feed
attitude
compet
compris
updated
exposure
##aud
lobby
obvi
toothpick
imped
impose
repton
prem
resign
consistency
rode
outst
outlived
usage
tease
##avan
contro
contribute
incivility
mothers
pointer
suppress
supposition
##ledged
overt
oversp
oper
retaining
retros
underval
##igation
kinder
indelic
##fell
interfer
interfere
subsequ
subdued
distract
presumed
presumption
persisted
brings
broad
enduring
recently
series
serenity
lesser
lessened
becomes
handed
handker
bingleys
##uteness
commer
commended
dashing
caring
passages
acquire
truest
dispense
dispute
admin
glowing
deciding
rested
visible
finds
discredit
discerning
behaving
class
expressively
invitations
##mances
bestowing
observer
gets
interests
gentlewoman
doubtless
miniat
chapl
perfections
depending
estates
respectful
circuit
rights
rightly
wonders
promises
excurs
eleven
purity
usefulness
resolute
blood
lying
judicious
attaching
sentences
humbled
regarding
infat
infancy
infirm
sore
admires
admirable
conversed
cheese
helped
fortunes
insisted
insinc
arrive
countries
headstrong
breast
diffused
appropri
drawings
provoc
thanking
thankfully
terrace
clean
allowances
distresses
encroach
##ailing
avowed
avowal
donavan
laughingly
importun
informing
forwarding
earned
reality
commonest
tenant
production
productive
anguish
##ellig
largest
airs
bearing
finery
finishing
##icted
quieted
truths
exceeding
complimented
severity
apoth
apric
dresses
pleasantness
badde
fondly
##onymous
stands
acknowledgments
privately
varied
lightly
traced
striving
strikingly
injud
replying
inconceiv
ceasing
irres
irks
portra
preventing
sighted
succession
despised
riches
comparisons
unhappily
spiritless
discovering
attendant
meditated
musing
muslin
suspicious
archly
closet
animating
reproaches
languor
wretchedly
escaping
raises
educated
independently
performers
regulated
commanded
deepest
greg
liberties
leads
defy
defiance
division
destruction
punish
novel
proofs
explanations
masters
communications
communicating
communicative
congratulated
checking
bury
shameful
instruction
sorrowful
clearer
exerc
frighten
arts
artless
current
fancies
heighten
admirals
belongs
travel
representations
owens
reports
happening
crossed
penit
widely
transcri
revive
review
whispering
indignant
hesitate
hesitatingly
memories
attractive
resistance
originally
foresaw
dissip
spots
rapture
accidental
obligations
qualifications
irritated
demanded
sleepless
##heart
carelessness
disapprove
struggling
persevering
fashionable
steadfast
suggesting
sky
skin
skill
eligibility
feminine
regularity
misfortunes
expediency
expeditiously
teaching
uncertainty
exclusion
despaired
confirming
fetching
yielded
preacher
uttered
torn
withdraw
withdrawn
applying
screen
strictest
footste
discontinu
lamenting
condescend
condescended
tricks
alien
wounding
bewitch
growth
inconsistency
advancement
cassel
maintaining
mildness
deficiencies
##umbling
deserts
interpret
subsist
recalled
puzzle
##ogue
released
convert
contributing
plantations
faithful
universal
critic
create
##ecary
disadvantages
confidential
execut
counteracted
vulgarity
maintenance
terrors
warn
inattentive
discharge
discharged
ardent
overcoming
clouds
prettily
prettier
infamy
infamous
inspire
keenly
alternative
dawlish
innocence
unconcerned
prodigiously
imperfectly
planning
discomposed
invalid
double
duped
inexper
unanswer
intreaty
jumped
incredulity
hardships
insipid
crime
fulfilled
sparkling
abruptly
reprob
repaired
motionless
involuntary
involuntarily
brilliant
brilliancy
unconsciously
aimed
campbell
malice
wilful
atonement
enforced
ensued
amidst
misunderstood
indecision
accustomary
survive
desponding
coolly
lingering
shooting
meadows
perturbation
performances
perpetual
grievances
treasure
swallowed
torture
inconsiderable
splendid
confidante
jackson
turkey
vicinity
revealed
enumerating
disorder
repulsive
apprehended
robbed
contemplation
supplication
guineas
temporary
conscientious
hallooing
diminution
exhausted
fervent
linen
sneyd
tires
ugly
vivacity
shawl
stiff
unintellig
misapprehension
participation
precipit
appetite
plagued
scandalous
carpenter
caprice
disguise
ornaments
baby
cunning
flew
merriment
route
sanction
slept
tumult
yawn
withheld
anecd
##abouts
stornaway
comprised
subsequent
handkerchief
apothecary
apricot
baddeley
irksome
footsteps
bewitching
000
141
22
201
30
45
50
alight
bann
brib
cows
ded
dee
dil
dair
ech
emp
egg
fight
fla
fuss
fagged
gout
gun
goss
grud
games
ho
hind
hire
hates
ix
je
kick
lat
lit
lake
lap
loun
nanny
pall
pul
pink
pomp
pony
pieces
penny
pulse
rage
rouse
rum
rained
rides
rhe
rasc
sli
sally
sne
tit
tast
tear
tame
trem
vir
warmed
xi
xli
xix
xii
xiii
##oe
##oak
##ogn
##rit
##rown
##rors
##rusive
##fa
##flu
##lat
##lst
##long
##lock
##keness
##sons
##sgate
##ih
##iary
##ipped
##iott
##eased
##jo
##coming
##coat
##nge
##ping
##pter
##pled
##tar
##tion
##her
##hance
##hill
##mination
##uing
##uable
##ucy
##uction
##uating
##aet
##gs
##gre
##gic
##ymouth
##vings
##vol
##voice
##wis
##eral
thread
##iny
##inal
##inence
top
toile
##enet
##enhe
##onqu
##oration
##orney
##arice
##ask
##asis
##ancies
beat
infor
ham
haught
showing
shape
##reet
##lem
##lete
waste
wasted
younge
##ionable
##itor
##itute
##iterr
sheet
##utable
forwards
ascend
##stem
noticing
relig
withstood
##iring
##irons
##imen
##idance
##verse
##oward
##ays
anci
anew
soil
sobs
prices
##adrill
conqu
confer
island
##ams
devel
whilst
stately
stables
##allied
##gement
weigh
weymouth
friday
saucy
morality
chairs
evergre
enlight
envel
enhance
##oses
lies
liver
likeness
unw
union
unst
unab
uniting
unused
unquest
unste
##ician
prote
knees
misle
misled
altar
agent
agitating
agonies
cod
coarse
##ivoc
manor
ade
adh
##cks
##unging
##uniary
queer
quadrill
intently
acced
leaf
lewis
##oted
shoulders
timid
timidity
attained
attorney
##apham
complied
composition
competition
expend
explicit
##orting
edge
edition
imply
impenet
repaid
reprim
repressed
reputation
longest
twick
twisted
resented
resumed
betty
firmer
outwe
frivol
##pture
contract
remiss
##umes
poetry
thence
suppressed
descended
charmed
charitable
charges
argue
retain
undervoice
##igence
##iculate
accused
addicted
##ensions
##ensical
offences
presided
presuming
brow
brain
regain
scorn
walker
##anean
uncles
unconqu
recur
recogn
writes
hearers
loveliness
commence
committed
carter
passions
##istible
##istcoat
##shine
acquitted
generation
generously
advoc
advancing
dispersed
confiding
confeder
##werp
hourly
objected
objecting
disconc
##licited
differing
reasoned
cler
cloak
clapham
trim
trades
expressly
follies
##oyed
##serv
##ignant
fac
newcast
poorly
surpassing
relates
silver
minutely
chaper
depress
depressed
circles
wonderfully
prompter
favourites
proposing
honor
resolutions
blown
blunt
blamed
careys
##ials
midship
fullest
pretending
waistcoat
stayed
guiding
guidance
dines
cheat
cheap
improver
imagining
helping
circums
flir
insolence
inspection
arriving
awa
awoke
circumstanced
statement
statements
honourably
bread
diffuse
diffident
horrors
##uster
consequential
affirm
copse
complained
complaining
encl
temple
scarlet
avarice
viewed
calmer
pupp
forwarded
##rences
completion
declares
equals
ballroom
neighbouring
##incipled
constrained
phoo
phaet
final
unde
undec
effectually
degr
exceeded
surprising
##urious
##luded
occurrences
mercy
alterations
swelling
swelled
##bridge
requisite
volumes
payment
simper
watchful
watchfulness
descent
array
quickened
breakfasted
detaining
detected
syn
system
tragic
habitation
proceedings
injuries
devotion
vii
viii
disgra
borrow
##acies
thirteen
heavens
prayer
##roachable
eyeing
polished
danc
soliciting
comparing
posture
suspects
urgency
decease
deceiving
interrupting
hastening
licence
licensed
unfair
medic
mediterr
unequ
successively
hinted
military
blessings
rupture
races
bespeak
pitying
resentful
regulating
trifled
annuity
annuities
annih
includes
comprehending
familiarly
reflected
serviceable
hundreds
dividing
preferring
unpleasing
destined
congratulation
venturing
strengthen
strengthened
guarding
harmless
##guard
exists
organ
sadd
sadness
demure
freshness
##ificial
artificial
pecuniary
curacy
signs
heightening
triumphant
representing
requesting
crossing
gaily
penance
simpleton
lamented
mutton
reviving
antwerp
indub
blushes
eclat
sickness
sunshine
weakened
##bborn
supplying
##attle
intentionally
liberally
unexception
indisc
witnessing
solemnly
scrupled
fetched
fettered
feeb
pitiful
involving
prejudiced
prejudices
bowling
censured
estimable
estimating
calculation
professing
irritable
sleeping
attacks
asserted
assertions
distinct
courtship
courtesy
blindness
fastidious
nonsensical
elderly
rousing
pronouncing
environs
undertaken
undertaking
announcing
westmin
females
boasted
purchased
purchases
apologise
christian
louder
scenery
tremble
gowns
landing
sweep
wiser
wisdom
untouched
untoward
screens
graciousness
possessions
strictly
anticipation
footman
lowering
shops
legally
similarity
insuffer
narrowly
doctr
breathing
duly
frasers
locked
imparted
accommodate
xvi
xvii
xviii
ensure
ensue
##qualified
subsisted
subscribe
adviser
entertaining
simply
audible
dictated
##ograph
foreign
contributed
plantation
reluctant
deprive
elevation
protesting
protestations
bidding
creation
etiquet
deferred
ambitious
farmyard
deliberately
privileged
sacrifices
inhabited
mixing
praises
lifted
unsuitable
disliking
specimen
bolder
clouded
inspired
keenest
alternate
experiencing
aching
aches
fretfulness
junior
soldier
stationed
disdained
abundantly
discomposure
invaluable
captivate
obstinacy
dimensions
doubly
dupe
ramsgate
stirring
thoughtlessness
insulted
negligent
significantly
condemnation
bias
elliott
papers
hazard
hazarded
starved
stoutly
incessantly
effusions
insignificant
physician
theatricals
impartiality
nursing
nursery
veracity
shrinking
wilfully
remedy
remedies
stuff
stubborn
ensuing
misunderstand
instinctive
prompted
detached
despondence
sportsmen
barely
bordering
crowd
fonder
gathered
gathering
hencefor
void
voices
nobly
shelter
accusation
accusations
persisting
surmise
prepossession
curtsey
burning
slave
shoes
canvassed
overthrown
identify
propensity
proprietor
needlework
superintend
postscript
barbarous
transactions
indispensable
hypoc
diversion
emphasis
befall
nominally
stroke
unobt
resources
scratch
beholding
imaginable
unprincipled
ceremonious
dawdling
unanimous
undeserving
unavoidable
161
brighter
dream
grove
lecture
nicest
version
shillings
whims
foretold
straight
sagacity
enemy
unthought
unsolicited
aggravation
perceptible
coxcomb
competence
##audable
impediment
premises
retrospect
indelicacy
interfering
commercial
administer
chaplain
excursion
infatuation
provocation
injudicious
inconceivable
irresistible
gregory
alienated
executive
unanswerable
reprobated
tiresome
unintelligible
deemed
dairy
echo
gossip
pompous
rheum
title
tastes
toilet
##enheim
haughty
ancient
enlightened
unsteady
quadrille
impenetr
reprimand
twickenham
outweigh
frivolous
unconquerable
advocate
disconcert
newcastle
midshipman
phaeton
undecided
mediterranean
annihilation
unexceptionable
westminster
etiquette
11
14
26
59
60
62
64
80
801
841
99
agh
ail
ached
bach
band
bod
bits
bowing
binary
cam
cree
cass
cram
cured
dat
dow
dra
dint
dial
dick
dili
damp
eg
ein
emer
eps
fain
fest
faded
faster
fox
folded
fasc
gb
gar
gould
gig
goose
ht
hed
han
holl
hiding
jest
lave
laudable
ment
mour
mach
nour
naming
ost
oath
omitted
pad
pant
pill
pot
position
pope
ponies
pledged
riv
rings
range
rust
rash
sar
sect
snow
slee
sash
sized
tee
tap
tire
tie
tied
txt
tick
tread
tumbling
task
ult
ven
vag
vile
vict
wra
wink
ware
yew
zealous
##olin
##oading
##rom
##rest
##rowed
##fl
##father
##full
##fold
##lter
##lant
##lves
##lord
##loqu
##lborough
##loading
##kind
##scap
##ipp
##iers
##ienced
##ean
##ement
##ext
##cid
##cal
##cil
##cus
##net
##new
##pi
##ped
##place
##pired
##prop
##pidation
##poration
##tic
##try
##dy
##dure
##dock
##hall
##hear
##house
##hem
##head
##houses
##mond
##moved
##uv
##ump
##uber
##uated
##uits
##bib
##bod
##bles
##banks
##gain
##gone
##gree
##greg
##yer
##vest
##vour
##vable
##vial
##vii
##viii
##xy
##xed
##15
##16
##215
##87
##57
##eration
##ino
##inent
##inate
theor
##edient
toward
token
tonight
##enfor
##onlight
##ature
##atig
##ateness
##atives
##aternal
##ores
##orce
##orse
##orily
##orbit
##inge
##ington
##isc
##isse
##aria
##asol
##asper
##ester
##esley
##escrib
##ancial
##animate
bears
beque
befell
inch
inart
infect
inacc
hay
haute
nodd
##omed
##omple
shot
shady
shining
##requ
wives
witt
wasting
ital
##ioners
##ionably
##itative
##ituted
##chant
##ceability
heal
##entation
forest
ash
##stander
notifies
rely
relin
reci
relied
reform
revenue
withhold
##irited
##irical
##tery
##iders
anc
sust
atoned
##essing
##essfully
butter
soli
soph
##etuous
##thern
##added
##adays
issu
issue
##rily
##amable
##amaria
##pport
##urate
mult
deigned
delet
bystander
mement
stol
stip
staf
sturd
stoop
stored
##alloyed
wept
exuber
exorbit
exasper
frances
frug
fraternal
dove
doted
dogs
doomed
whichever
willed
saun
safer
sailed
morals
chances
enli
##raged
##ulated
unfor
unmer
unapp
uninter
unbe
unemb
unaw
unimp
unqualified
unrest
unmoved
unenfor
unalloyed
disk
disob
disquiet
disheart
disserv
##iciously
spurn
sparing
spont
sphere
spunging
theme
thereby
amiss
moonlight
marriages
marlborough
knave
whoever
misch
misman
misrep
aged
agitations
permit
##quate
covering
everyday
ability
abused
abusing
worry
worried
##rog
##robor
##earing
##ittance
seize
manoe
mankind
##erton
##ertext
advert
adjo
##cked
mississ
intol
acuteness
leant
lease
evin
evidence
feather
felic
compact
compressed
compilation
compatible
comprom
expences
exporting
nowadays
##ortant
##ortment
obso
obey
edged
indist
indication
indescrib
mighty
##agr
##agg
##agger
july
impass
impetuous
##meditated
repress
repining
reprehensible
##ressible
feelingly
##olt
preem
goals
appreci
appeased
twili
resp
reside
residing
resume
##iberal
##berry
consisted
considers
wisher
mostly
outd
outdated
##ptials
northern
thoughtfully
contend
contention
contraction
friendless
friendliness
incident
incomple
remorse
##umbr
##umerable
ponder
charities
chariot
arrog
overfl
overhear
##udd
##udes
##udied
image
imbib
retort
unders
undergone
satirical
##ccessfully
famous
assume
species
job
joking
parade
parasol
intermedi
accost
accents
accessed
adds
offsp
##pected
wanton
hopeful
meanly
bridge
boats
endur
endowed
placid
scram
sciss
scott
appearances
##aneously
##text
serving
lessons
lessening
hears
whereas
expects
matlock
##ighth
subjection
##istic
##istol
downstairs
downloading
advances
dispirited
projecting
##apsed
admittance
glare
decay
decency
decisions
confine
confide
confounded
tells
visibly
##mediable
actor
actress
actors
discrim
discreet
harden
agreeably
agreeableness
turnpi
##angue
##ribly
eyed
differed
differences
##ipe
rushing
reasoning
illiter
illiberal
clar
cluster
oftenest
##servant
invented
inventing
reader
willoughbys
refrained
refinement
courting
courses
spoil
spoiled
newly
newby
delights
relenting
##ernation
equalled
woe
deplor
depreci
deportment
estr
respective
excluded
favourably
weekly
shorten
shortness
proposition
easiness
conditions
laure
blank
bloom
blaming
blamable
backed
backward
backwards
forgave
director
painfully
extend
extending
extract
disappeared
graver
grander
waiter
wavering
infring
stays
problem
conversations
meets
cheated
images
accounted
accounting
player
flat
fluct
flannel
awed
awaken
beautifully
persuasions
counten
headed
liveliest
##uctible
approving
termination
mistakes
affable
hushed
clearing
trivial
incline
##enger
availed
donation
donors
nights
laughs
advantageously
capacity
##elor
paleness
paltry
properest
judgments
lawyer
corporation
corrobor
tenants
angrily
profits
profusion
##elled
exception
##mployed
streets
construction
consternation
endeav
employing
employee
social
financial
undo
undist
modified
modification
effectual
quietness
assistant
questioned
dreading
cheering
cheerless
newslet
pleasantest
pleasantry
dutifully
occurring
occurrence
merest
merited
merchant
influencing
fairer
fairbanks
wronged
swell
seemingly
bookcase
volub
harvest
harangue
unpro
unprep
desiring
desires
tenderest
contrition
grievance
frequency
publicly
coldly
quicker
fitness
superadded
teazed
lighted
lightened
detect
tract
strikes
denying
denote
denoted
injunction
eventually
sweets
violin
borrowed
vexations
##acles
irs
irish
heavily
despite
despising
richer
richmond
holds
lowly
lowest
losses
deriving
latterly
vanished
forgetfulness
unfrequ
attendants
eminence
musings
delays
unemployed
successfully
beds
sends
plainer
closely
consolatory
benefic
facts
animal
animate
reproaching
behindhand
treach
trepidation
mortal
mortify
singular
remainder
violation
violates
beside
brightness
madness
regulation
esteems
authoritative
erred
annum
annesley
annamaria
protected
commanding
quartered
bargain
periodic
accordant
##arrassed
defined
reserves
educational
divorce
literally
melan
preferable
northward
unpleasantly
fatiguing
cruise
destination
destiny
punitive
proofread
amaz
secrets
##inguished
grounded
renamed
checks
disagreement
disagreements
woody
conjecturing
instruct
conclusions
politics
neglecting
sloop
sloping
wildly
wildenheim
demean
##ificent
frightful
artful
limits
consulting
distributor
occupations
triumphantly
reported
unpleasantness
gazing
wider
stoke
accessible
transfer
transcribe
habitual
cautiously
revival
stupef
blushing
tranquillise
jealousies
practised
practically
indignity
associate
associations
restoring
restoration
renewing
villain
innumerable
debating
resisting
undoubted
thirdly
originator
pardonable
bursts
messenger
foresight
suitableness
studies
promoted
witnesses
assemblies
gradation
gradual
involve
nicely
nicety
paperwork
sighing
inferred
obligingly
professor
irrational
rejoined
taxes
taller
tallest
attacked
disapproved
struggles
fashioned
risen
shrubber
##urbed
contemptuous
parishioners
regimentals
grandmother
separately
envied
envying
candles
filling
methods
weariness
wearied
commissioned
quarrelled
accompanying
rehearsed
rehearsing
rehearsals
westward
westons
whitehall
disturbance
insupport
damaged
dullness
dismay
dismount
dismiss
landlord
landscap
swamp
unspeak
individually
reminding
screams
possessor
possessing
sympathise
sympathetic
anticipating
lowered
legacy
precede
preceded
disclaimers
syllables
ceaseless
irreg
irremediable
economical
obstacles
contrasted
breathed
breathless
magnitude
magnificent
basis
duke
duets
desperation
desperately
accommodating
discerned
disinterestedness
fainting
##ridge
rejecting
rejection
ensured
ensuring
desertion
parental
collectedly
simplest
lottery
threats
threatening
forebod
dishes
planted
refreshing
faithfully
redistribute
cream
network
##712
dozens
collecting
affronted
sacrificing
unaffectedly
salut
saloon
ingenious
##rietary
unsuited
unsuccessfully
discharging
specific
earthly
infamously
alternately
solicitous
punctually
forbidding
forbidden
guardians
government
transpar
achie
linked
squab
soldiers
soothed
chatty
discompose
invalidity
details
detailing
articles
1887
finger
hatred
ramble
inexcus
referred
dejected
jumping
incredible
incredulous
incompatible
internal
internally
international
eloquent
professedly
merciful
lodges
philosophic
disinclined
biograph
crimson
ellison
fulfill
narration
narrative
poulter
purely
painted
painting
seduction
whitaker
rector
rectory
neatness
prohibition
abstain
abstraction
abruptness
reproved
robinson
likeliest
wickedness
unfeelingly
blamelessly
rapturously
unsuspected
punctuality
disrespectful
verdure
shrunk
unavailing
intruder
intruding
retreated
retreating
parcels
accustomed
surveying
instinctively
sportsman
uppermost
bordered
mante
mantle
nonprop
plea
plead
ranting
shoot
sheltered
meadow
unchanged
perpetually
repentance
precaut
smoothly
indefinite
indefatig
deliverance
blundered
inflict
grievously
swallow
indirectly
2001
burnt
pettic
tyr
types
tedious
tediousness
forfeit
forfeited
conformity
stockings
unlink
indicate
indicating
assiduous
assiduities
identification
propensities
proprietary
humiliation
humiliating
embraced
embracing
dissimilarity
indispensably
inheriting
irreproachable
hypertext
maximum
miracle
nuptials
olive
popular
vehem
vouchs
##ternal
unassuming
indemnity
indemnify
jointure
accurately
scrape
concisely
closer
investigation
oppression
extorted
insinuations
harshly
proclaimed
members
dishonour
1813
hackneyed
1500
baize
duration
filigree
mingled
inmates
concession
stanhill
enlargement
unfeigned
unshaken
processing
abatement
obviate
outstri
overspread
undervalued
acquirements
miniatures
infirmity
insincere
appropriate
cleaned
encroaching
portraits
exercising
penitent
transcription
dissipation
steadfastly
withdrawing
discontinue
interpreted
subsisting
inexperienced
stiffness
precipitate
anecdote
22nd
4557
banners
deductible
empty
eggs
grudged
hindrance
jewe
latest
pulpit
rumour
rascal
virus
##faced
ascending
religion
conquer
envelope
unstudied
unabated
unquestionably
protege
mislead
codes
##ivocal
adhering
commencement
confederacy
clerk
tradesman
facility
circumspection
affirmative
puppy
undece
synonymous
unfairly
organized
saddened
indubitable
feebleness
insufferably
doctrine
nurseryman
henceforth
unobtrusive
rheumat
disconcerted
596
62215
809
84116
99712
aghast
bachelor
data
dowager
dialogue
egerton
epsom
fainter
gbnew
htm
hanover
lavender
mental
machine
paddock
panting
rivals
rustic
sections
teeth
tickets
vague
##ippi
theoret
bequeath
infection
inaccurate
hauteur
relinqu
soliloqu
issued
deletions
memento
stolen
staff
sturdy
exorbitant
exasperate
frugality
unbecoming
unembarrassed
unimportant
unrestrained
unenforceability
disheartened
disservice
mismanagement
misrepres
manoeuv
adjoining
mississippi
intolerable
obsolete
indistinct
twilight
incidental
incomplete
##umbrance
imbibed
intermediate
accosted
offspring
scissors
discrimination
illiterate
infringement
newsletter
volubility
unprepared
shrubberies
insupportable
landscape
inexcusable
poulterer
nonproprietary
indefatigable
petticoat
vehemence
6221541
gbnewby
19
23
24
28
25
200
aver
aus
ben
bon
bir
bal
bind
bree
bide
bank
bows
bash
bounded
bones
banks
cess
cant
cul
cake
crib
cult
cland
cup
cush
cray
cumber
dou
dess
dart
dav
dried
dated
dram
dates
ej
empt
epic
etext
f3
fund
fick
ger
gle
gid
gib
gum
gret
gild
gaming
gales
gape
host
hang
hue
hating
hired
humph
hug
homes
jar
jil
kings
kens
lain
loo
lur
los
lend
lung
lagged
mall
mite
mass
nation
nest
nast
nich
omen
por
pee
pens
pane
patch
pool
pac
petition
piqu
piquet
porter
pudd
rs
roo
rib
rud
rider
rack
rants
rivers
ragged
riot
rallied
rattle
sen
ster
sall
sear
saint
stern
tay
tam
tro
tun
tide
tack
tended
tac
tith
tasted
treading
ves
vow
voy
vices
vicious
wal
wol
waking
winking
wester
ye
york
##oes
##oid
##oli
##ofore
##oley
##olic
##oven
##ooming
##ovation
##ovable
##oisse
##rd
##rate
##rus
##run
##riting
##ffect
##fty
##fitable
##lc
##lars
##lusion
##lmers
##lberry
##kins
##sm
##some
##iate
##iated
##ioc
##ique
##eon
##eard
##eated
##cent
##cated
##cution
##ciful
##cont
##conc
##na
##nut
##nish
##numer
##pence
##pil
##pro
##pass
##ples
##piece
##pool
##prit
##tle
##tled
##tles
##don
##hered
##hog
##mos
##mits
##mished
##uge
##uition
##ugn
##afe
##bed
##bow
##bal
##bra
##burn
##boy
##bury
##box
##bdued
##bearing
##bolt
##gon
##gam
##gged
##giving
##gences
##groom
##gets
##yday
##vish
##vary
##venty
##vative
##voc
##viation
##wich
##writing
##zy
##erst
thri
thick
thunder
thrill
##inion
##inished
##oul
##edless
toil
toned
##enoon
##enuously
##oning
##onted
##atform
##ora
##oring
##orable
##oried
##ingby
##isir
##isome
##isant
##isades
##iseration
##arable
##aries
##espass
##any
##anth
##anity
##anically
##thest
bee
beings
bequest
##llen
##llor
##llable
inve
inest
inqu
inured
inanimate
heret
haunt
hagg
haunch
halves
nods
##omination
##omatic
shif
shield
shrew
shows
shirt
shore
shift
##rel
##reation
##recated
wight
wiping
wiped
wilc
##lement
washing
##iton
##itic
##itous
##velled
##chamber
##chanically
##cel
sheets
heyday
heedless
##uting
##utes
##sellor
##enture
##entiful
forks
forenoon
asunder
aspired
##stery
reap
reel
##ctic
##irable
##terable
##terior
##terborough
##imable
##imity
##imney
##idably
ank
anonymous
sullen
atmos
##aling
##alterable
sob
sobb
##eties
##lier
##licy
##licky
prone
prized
conception
congreg
isle
##rier
##rious
##riers
##rific
##eem
##ammer
##amorous
allud
allude
##abet
##ainable
##urer
##urber
##urities
##urism
##anned
muff
mulberry
demer
myster
mystery
mechanically
stim
stab
stun
straw
stress
stare
store
stains
stumbling
stagg
stammer
##alling
newn
##esty
##estine
##aks
exigence
exagger
external
excel
exterior
frown
fruits
fringe
fronted
doer
doat
dose
doting
##ardy
sand
sauc
cho
choo
chill
chick
chains
chasm
chagr
chimney
comment
comers
comments
orator
enf
enraged
##antity
##antial
##raising
##ravity
##osven
##ulk
##ulance
##ulating
##ulses
##ulously
liqu
livings
unam
unack
unman
unac
unison
unble
unatt
ungent
unlook
unquiet
unvary
unalterable
disper
disarm
disbe
dissemb
##ico
##icisms
spur
thereup
amore
prose
proves
progn
proxy
mock
marries
knight
kneel
knack
knives
knighth
wholesome
alert
alph
aloof
ages
perverse
##quered
##ilable
##ishop
coa
coars
covert
colicky
##usively
abbe
abusive
worrying
worship
##astic
##roar
##roph
##roken
##ropic
seal
sealed
seizing
seventy
##erto
adjust
adverse
missent
##unctions
##ageable
##inket
partake
partially
qui
quantity
intric
##ooked
##oped
acres
levelled
##otes
##oticed
##otiation
shoulder
owners
fewer
feigned
attaining
attainable
compound
compton
complic
comprise
comprehens
uproar
expat
nowhere
##orted
##lac
##laced
##laces
loan
lofty
obsequ
obedient
editor
indust
indigence
##oundrel
afterward
afterpiece
##ags
##agon
jumb
impol
impover
impending
imposition
imposing
implies
implicit
impelled
imputing
implac
canal
reputed
replies
repugn
looker
##olar
##olate
##olved
prey
premeditated
nothings
nothingness
goings
littleness
appertain
appalling
resc
resided
resuming
reseated
##ibilities
consumed
rocks
pleases
##isements
evenness
##inements
outrun
##fuls
ushered
grass
grows
grosven
##action
text
teasing
incite
incaut
incommod
incensed
remote
dears
motherly
twofold
poll
poking
poignant
policy
supporter
supplant
desolate
arbour
arbit
aromatic
overjoy
overbearing
imitation
immin
imitate
retren
retiring
##cian
##cience
believes
assigned
assumed
spell
##igated
##igning
kindred
smir
smell
parsons
##felt
interim
interming
accession
lastly
lastingly
justifying
distracted
disturber
talkers
talkative
prescrib
farmers
farthest
bris
bran
brit
brid
brood
brink
brute
plaint
platform
plentiful
heartfelt
foundations
momentous
regained
##olls
boat
boister
affectedly
ends
endanger
endeared
lust
plaisir
engra
scant
scale
scores
scoundrel
##rison
considerately
uncouth
recal
recurrence
recreation
mindful
##ainted
lessingby
delicious
handy
handwriting
whereabouts
brotherly
hereabouts
commiseration
fathers
comfortless
carving
carries
passive
yearning
straining
strenuously
acquitting
advising
adventure
presentiment
disposing
displace
disprop
disputes
projects
##apside
entang
admission
gloss
glanced
glories
gloried
confidently
resting
peterborough
visions
worded
##retending
seclude
seclusion
surest
instigation
actuated
discomfort
harding
hardest
gentility
concerto
continuation
collation
reasonings
reasonableness
clue
climate
classing
clamorous
tray
troop
trunk
trespass
trinket
invent
invention
invested
elation
eluc
eluded
eloping
elapsed
elbow
eloped
womanly
refuge
refinements
##manship
##ignon
faced
persona
surpass
relish
relished
doubtingly
equival
equivocal
preval
minor
minuteness
##ixed
deprecated
depravity
circulation
circulating
opposing
generality
favoured
purse
childhood
propitious
proposes
pointedly
##ughts
condole
condolence
fearfully
lazy
honiton
determinate
blest
blot
block
blasted
blooming
backgr
backgam
judiciously
career
understands
earl
characteristic
fullness
extinguished
regardless
wavered
infant
sorely
gladden
putrid
admirers
admirably
##istencies
##lpiece
brace
braved
chequered
cheapside
improves
players
playfell
flu
flour
flown
flowed
flowing
flush
flowers
flora
minuter
minutia
effic
inside
insured
insidious
powered
nearness
suffers
esc
esq
honouring
counsellor
behaves
gratulation
draws
drawer
horiz
horribly
possibilities
termed
terrific
oldest
affinity
seriousness
tries
trials
##olding
##issive
satisfactions
satisfactorily
encumber
encumbrance
avignon
finely
importing
nameless
capers
capabilities
##nowingly
##nowledged
exactness
beginner
beginnings
calico
metals
pupil
paling
pales
palisades
forwarder
connoisse
sometime
needful
##iliff
commonly
commonplace
##phen
##phere
produces
equality
profile
proflig
neighbourly
##ouded
drank
scholey
scholar
constru
seconded
menus
sociable
societies
conceived
smilingly
undone
undisc
effecting
surprises
dependant
mac
male
mahog
complimenting
complimentary
cheered
cheerfull
windings
severest
intimid
intimation
intimacies
humouredly
apople
badness
##gyric
altering
fondest
fairest
wrongs
swept
requited
##gging
creditors
harriet
unpre
unpun
unpract
unpretending
desirableness
troubles
##oveable
##rupted
suddenness
contrar
grieves
slightingly
alarmingly
publicity
privy
privations
colder
journeys
summers
summits
indulgences
arrested
joyous
claiming
recommenced
elegancies
varieties
varnish
toleration
tolerate
supercili
superflu
supernumer
teaze
scheming
lightness
detested
speechless
proceeds
observant
observance
observances
denomination
injuring
injurious
injunctions
devise
devised
deviation
##aculous
##aculation
ceiling
unheard
sixpence
negotiation
despicable
buried
buzz
buying
richly
richards
healthy
healthful
postp
posting
lowness
entreating
derision
charmingly
avoidance
paternal
vanish
fellows
##ruded
interruptions
forgets
unfitted
unfounded
flatteries
dominion
embell
embrace
mediation
meditate
medioc
colours
establishing
bedford
bedroom
bedchamber
archness
safeguard
drily
drift
excesses
languages
singled
authors
brightest
pictured
witty
starts
horsemanship
resentfully
regulate
regulars
tempting
temptations
strangely
barnet
barriers
grecian
libertine
leisurely
solidity
define
defied
defended
defending
hundredth
divine
ridge
unknowingly
hunter
##ashed
proofreading
measured
measuring
secretary
explanatory
valueless
embarrassing
##afed
congratulating
rencont
forbade
forbore
strengthening
blameable
shameless
conjectural
existing
displease
instructed
sorrowfully
clearest
slumber
slattern
sloven
wildness
demes
articulate
professional
modestly
modestest
curate
dale
fanciful
fifth
limbs
signal
occupier
triumphing
orderly
orderliness
owen
owes
failure
failures
departing
aylmers
gaze
pencil
wedded
stole
governing
accessory
transient
esteeming
nephews
cautiousness
lays
mutually
necklaces
contrives
submissive
tranquilly
tranquillised
numbers
philipses
couples
practising
practices
practises
practicable
indignantly
associating
##ficiency
hesitations
pauses
innate
innovation
prudently
debar
debated
resulted
resulting
settlement
##attled
rendering
conveniently
conveniences
studious
dissent
crooked
feeble
maidservant
pitch
pitched
assembling
complaisant
unnecessarily
fashions
impertinently
awkwardly
tales
shuts
qualification
obtruded
afflicted
afflicting
correspondents
irrit
irritate
demanding
taxed
reverted
attacking
asserting
distinctions
courtland
courtier
disapproving
indisputable
fastened
figures
rises
shrubs
experiment
contemptible
contemptuously
preservation
preservative
clothed
grandfather
steadier
deservedly
suggestions
destroying
skre
youthful
springing
godmother
commendations
instantaneously
entertains
restraints
foolishness
gayer
xxi
xxii
xxiii
inelig
ineffect
methodical
wearisome
commissioner
conditioned
conditional
conditionally
guessing
undertook
quarrels
unkindly
sporting
lodging
firmest
boasting
forbearing
peculiarity
hotel
wealthy
seasons
argued
exclude
apologised
apologize
cautioning
christoph
loudly
unjustly
dismal
obligingness
uttering
utterly
gallantries
unreasonably
breathe
virtues
virtuous
unsaid
untinct
local
screamed
graciously
possesses
anticipate
anticipations
footmen
disclaimed
discontents
essay
schoolboy
devote
irreconc
ridiculing
economist
economically
bathing
furlong
obstacle
absurdities
tricked
tricking
complacently
basin
boundary
ducks
abominate
inconsistencies
distrusted
proportioned
descript
maintain
mildly
ringing
belles
ensign
unworthily
sprained
marks
market
abhorred
reproofs
subsided
recalling
sufficiency
prosperously
weaknesses
sharpened
casting
dictating
dictator
##ogged
histories
converted
contenting
substitute
substituted
substantial
planting
refreshed
elevate
elevating
errands
university
essentials
blackguard
contradictory
crept
hunted
netting
##uousness
##lets
ascertaining
adopted
consists
darker
farmhouse
deliberating
passionately
strangeness
affronting
harboured
executed
counteraction
bottle
mixed
slyly
slyness
sameness
warmer
ingenuousness
annexed
praising
conquests
chambermaid
lifting
unsubdued
ardently
boldly
reconciling
prettiest
fluttered
inspir
inspiring
philanth
keener
solicitudes
transpired
austerity
fretfully
junction
pathetic
songs
testified
touches
exchanged
unnoticed
unseen
knocking
imperfection
imperfections
scotch
uselessly
insists
billiards
aptitude
doubled
duplicity
janet
rambles
ruled
tidy
inexp
softness
stirred
safest
enabling
unusually
incompet
internet
insulting
undesirable
detestable
correcting
biased
caused
cookery
criminal
diverting
ellisons
fulfil
mounted
mounting
mountains
mouths
narrator
sedateness
shades
rectitude
rectified
sailors
cherish
disregard
spleen
sparks
sparkled
impudent
captains
inconstant
maddison
disrespectfully
perplexed
malicious
naval
packed
packing
packet
romance
showery
predict
predomin
exultingly
fruitless
enforce
enforcing
unbi
unbending
unbounded
unbroken
permanence
coats
intends
intrude
pretension
outwardly
indecorum
indecorous
luxurious
confessedly
survived
needlessly
detaching
ecstacy
cooled
crowded
foli
kissing
linger
mantel
pleaded
roughness
noblest
shedding
stormy
unchanging
uncheer
performer
precision
incurable
incurred
incurring
immovable
immoveable
bridegroom
delivery
surmises
blunders
inflicted
inflicting
prepossessed
prepossessing
treasured
curtailed
awkwardnesses
candidly
tortured
hysterical
inconsiderately
huntingdon
splendour
enthusiastic
grooms
monot
petulance
poured
pouring
slack
turf
##castic
shoe
heirs
conforming
stocks
enumeration
unlock
disordered
repulsed
robbing
contemplating
overthrow
discourage
discouraged
discouragement
guinea
helplessness
corrupted
superintending
##criptions
barbarously
revolt
revolution
revolted
conscientiously
hallooed
crowned
candlelight
inherit
irrepressible
foregoing
transports
diminished
maxims
diversified
flying
miraculous
miller
milliner
nuisance
pulled
pulling
rarely
vigor
vigour
vigorous
nominal
stroll
stamped
combat
combination
uninv
uninformed
uninflu
unassailed
coincide
coincidence
resource
descending
accurate
scrut
disclosing
disclosure
closest
investig
imaginations
insinuating
unprom
augmented
richardson
ceremonies
tormenting
dawdled
unanimity
undeserved
unavoidably
augusta
akin
bailiff
benches
epistol
filial
murmur
murmurs
patterns
salts
inmate
heathen
supers
concessions
conciliate
conciliating
allevi
alleviation
enormous
enormity
unfelt
miseries
miserably
##uncheon
resignation
control
overtures
overtaken
overspreading
distractedly
miniature
insincerity
avowedly
importunity
portrait
exercised
penitence
transcriber
dissipated
##hearted
interpretation
criticise
inexperience
stiffly
precipitance
sanctioned
anecdotes
2015
alighted
dilatory
flavour
gouty
gamester
hoarse
kicked
palliation
slipped
sneer
##ritical
inforced
hamlet
conferring
developement
weighed
evergreen
evergreens
livery
liverpool
unwounded
adequate
accede
recurred
recurring
recognised
chaperon
chaperons
depression
flirting
flirted
awaited
enclosed
simpered
disgraced
disgracing
dancer
dancers
medicines
indiscretion
hypocritical
scratching
administering
dairymaid
toilette
impenetrable
impenetrably
14th
ailment
bandbox
bodily
cambridge
creep
cassino
draughts
diligence
emergence
fascination
garret
gouldings
hedge
hollow
nourishment
ostentation
potent
sarcastic
sashes
ultimate
venison
victory
wrapt
warehouses
inches
inarticulate
nodding
witticisms
italics
forestalled
ashore
relying
recipro
ancles
sustained
sophia
multip
stooping
exuberance
sauntered
enliven
unforgiving
unmerited
uninterrupted
unawares
disobli
spurned
spontaneous
mischie
advertisements
evince
felicitations
compromise
indescribable
impassable
preeminently
appreciate
respons
outdone
arrogance
overflowing
undersized
endurance
scrambling
actresses
turnpike
clarke
deplorable
estranged
laurel
backwardness
extracts
fluctuating
countenances
undisturbed
merchantibility
unprofitable
detecting
tractable
violins
unfrequently
beneficial
treacherous
amazingly
instructress
stupefied
dismounted
unspeakable
irregular
forebodings
salutations
transparencies
achieve
biographer
crimsoned
mantelpiece
precaution
tyrann
vouchsafed
dishonourable
outstripped
jewels
misleads
undeceive
rheumatism
theoretically
bequeathed
relinquished
soliloquy
misrepresented
manoeuvre
birds
balm
bashful
cessation
cultiv
clandestine
cushions
crayons
dessert
davies
ejaculation
emptiness
epicurism
fundraising
fickle
gretna
gilding
jargon
kensington
lurking
lungs
nasty
nicholls
peevish
panegyric
piqued
rooted
ribb
rudeness
senior
sterling
searched
sternness
taylor
tacit
tithes
vessel
voyage
wolsey
##rusiveness
##smith
##erston
thunderbolt
inestimable
inquis
heretofore
haggerston
shifting
wilcox
atmosphere
congregation
alluding
demerits
stunned
straws
staggered
newness
chicken
liquor
unacknowledged
unmanageable
unblemished
unattended
unlooked
unvarying
disperse
disbelie
thereupon
prognost
knighthood
alphabet
coarseness
abbey
##rophe
adjusting
intricate
comprehensive
jumbled
impolitic
grosvenor
incommoded
supplanted
overjoyed
imminent
intermingled
prescribed
endangered
plaisirs
disproportion
elucidation
equivalent
blockhead
background
backgammon
minutiae
efficacy
horizon
encumbered
connoisseur
undiscerning
mahogany
unpractised
supercilious
superfluity
supernumerary
richardsons
mediocrity
rencontre
slovenly
ineligible
ineffectual
quarrelsome
christopher
untinctured
irreconcilable
dictatorial
philanthropic
uncheerful
uninfluenced
epistolary
reciprocal
