#version: 0.2 - Trained by `huggingface/tokenizers`
o u
Y ou
Ġ t
h e
Ġt he
Ġ n
Ġ s
l e
i n
a t
a p
Ġ o
o d
e p
f f
Ġs le
Ġsle ep
Ġo ff
Ġn od
Ġn ap
Ġ d
l i
Ġ f
n d
Ġ e
k e
Ġ li
r in
ou nd
Ġf ound
Ġe at
Ġli ke
rin k
Ġd rink
o n
e r
Ġ c
r e
Ġ p
a r
i on
a n
e n
o r
s t
Ġ b
Ġ m
i t
a l
in g
a c
r o
at ion
i c
i s
en t
l o
Ġ g
a s
Ġ h
r a
c e
o m
Ġ w
e t
i l
e l
a m
r i
a d
Ġ re
o t
u m
c h
g e
Ġ in
s s
u r
o l
Ġs t
c t
s e
t er
m ent
i d
u n
l a
i r
Ġ v
i g
u t
an t
i m
i st
u s
Ġ a
v er
v e
q u
Ġc h
u l
Ġ r
o p
at e
Ġc on
o w
Ġs p
it y
ar d
Ġd e
o c
Ġ l
t y
in e
b o
he r
a nd
Ġ j
i p
t h
a li
Ġs h
as s
r y
an ce
h t
s h
a b
a ge
s p
u b
or t
Ġp ro
e d
a st
Ġc om
a g
e st
e m
en ce
u p
ac k
u re
Ġe x
e ct
lo g
Ġ he
Ġ le
a y
Ġ k
le r
i e
on e
n e
ar t
c k
Ġs c
ke r
i v
p er
ou t
u g
d e
ac t
o s
Ġc o
o g
ou r
i f
i b
or m
Ġ an
i li
Ġs e
Ġb o
Ġ al
n t
ar m
Ġt r
u st
a il
re ss
Ġb e
ke t
il l
a in
ac e
Ġ ra
d er
a re
Ġd is
g er
id e
o od
le t
o log
s c
al l
r ap
it ion
u e
m e
o k
a v
t ion
nd er
ic k
Ġ ac
b er
Ġ lo
Ġt h
ar y
Ġ ro
ct ion
im p
c y
i ve
m an
Ġ ad
t e
lo w
ig ht
c o
Ġt e
b e
s ion
Ġ la
u d
Ġ qu
at or
is e
p e
l ing
i z
as e
Ġp o
as h
Ġcom p
c on
g ht
i re
ic e
ic s
ig n
oc k
Ġc ol
or k
Ġp l
Ġp re
Ġe n
ro w
u it
at h
or d
Ġm e
p h
Ġ y
Ġc r
li c
at t
Ġc ou
Ġc ar
or y
is m
a ke
e e
Ġf o
olog y
a le
ar i
f t
Ġe m
a ir
Ġcon t
ic ation
ne ss
ili ty
Ġm an
Ġg ra
r on
ou se
p o
Ġ ap
ul t
Ġc l
is h
Ġh y
or n
Ġs w
i a
rin g
s er
Ġt o
Ġn e
a k
Ġp ar
ow n
h y
Ġp er
Ġd i
sh ip
el l
ali ty
Ġs ub
i le
o le
st er
in t
am p
c om
Ġp e
Ġc re
it e
ra m
Ġ ar
Ġc he
u ck
at er
p t
ac h
Ġg r
e b
bo ard
Ġm ar
u nder
Ġs n
Ġb l
Ġin ter
c re
m a
u c
c l
f e
Ġs o
re n
Ġh o
a w
Ġr ep
ur n
Ġ imp
in ation
Ġm o
Ġcom m
i al
en cy
Ġw h
ig h
y m
Ġp at
et er
Ġb r
Ġ out
Ġf l
ac y
ro l
Ġp h
am e
ut ion
in d
a u
n er
Ġ z
Ġt ra
i er
at her
um p
p l
r ic
Ġo r
li ght
us h
an k
ali s
i um
Ġm a
Ġin f
Ġt er
Ġtr an
Ġs k
Ġs ur
e f
Ġ ri
ro p
iz ation
g le
Ġ ant
Ġc ap
Ġsh o
r ation
Ġb ar
in k
ad e
i x
an n
Ġw e
Ġa ir
c he
c lo
w ay
an e
Ġm on
ol d
Ġst ep
la y
Ġc lo
Ġp r
Ġm in
Ġg u
e nd
u ff
at ch
rin e
ro om
ect ion
Ġo ver
Ġd ra
Ġp ri
en s
ce ss
g ra
Ġ am
Ġs up
Ġd ep
Ġap p
a ve
it u
on g
Ġc ur
Ġm ot
al k
bo at
d ge
i an
Ġ att
s y
Ġ ass
ar k
Ġre c
Ġa ut
a f
a z
a ker
m ot
o on
Ġ un
is ation
qu e
Ġex p
Ġcou n
c le
s id
re ad
ro c
ir d
a ff
o ver
Ġ under
li p
ent ion
Ġac c
o re
v en
Ġ as
s on
w ork
Ġ arm
ab ility
v al
Ġd iv
on y
a x
Ġre f
Ġsp e
ab le
Ġk n
l ine
u nd
he s
if ication
ou n
Ġa b
i or
i ence
re st
Ġm is
ist er
bo ok
n et
Ġf e
Ġg l
Ġch ar
Ġo b
ke y
Ġc at
ri p
Ġre g
la w
o b
o nd
o se
s uit
ap e
re en
Ġh and
ul ation
b le
g r
i ment
m ate
p ort
s el
Ġo p
Ġf re
Ġp ass
st r
ot t
z ation
Ġ ep
Ġs un
in er
Ġe y
Ġc or
im e
Ġde c
Ġgra nd
b all
Ġm et
is ion
om e
m in
r it
od y
it ch
Ġv e
ut e
Ġcon s
f orm
g u
u ct
ou nt
re at
Ġp ant
e x
or ce
Ġb ro
Ġhy d
k in
ar ch
ul l
os ition
c her
g y
t ing
er n
la nd
ul ar
itu de
j ect
m on
s et
t r
y n
Ġp en
Ġg en
et y
ol l
Ġa g
bo x
rap h
a it
g h
Ġt ri
Ġt em
Ġs m
le n
Ġb ack
ic le
um e
Ġin d
ress ion
ser v
d le
w e
at ter
Ġd o
ar b
al y
il la
Ġcon f
g in
u al
Ġc y
it or
is s
ra y
um ent
c ar
i el
at ive
ber ry
Ġfo ot
g et
h ouse
u ction
Ġw ork
Ġe le
lo y
ir t
olog ist
Ġsn ow
b r
d ing
i o
o ke
p or
u se
Ġs ign
le y
at ure
en se
is on
Ġre t
ow er
g en
Ġs al
on s
Ġp ast
ac le
Ġw ar
Ġad v
a i
h or
m b
p ro
Ġm us
act ion
act or
Ġtran s
b y
r ant
od e
Ġe l
ic t
Ġw ater
am ent
un t
com p
alis m
c ent
l y
n a
it ation
ri m
Ġst and
Ġv er
ver y
sp ect
Ġla b
e s
r or
t her
w are
Ġ im
Ġd et
Ġe ar
Ġb u
Ġin v
li sh
ra w
il li
am b
oc i
Ġj e
sp it
ari um
m er
Ġn ight
Ġs he
Ġe d
Ġc al
an ge
st ro
Ġb al
Ġm em
Ġa f
Ġhe ad
Ġle g
f ish
g on
g an
Ġf orm
Ġe ff
Ġc an
Ġc ir
re e
re t
Ġp art
Ġb ri
Ġg ood
Ġh om
Ġh ard
Ġre s
un ch
Ġem p
c er
m et
Ġ log
Ġs y
Ġe v
ali zation
a ult
d y
g l
i ver
p en
s man
Ġe qu
Ġin c
Ġin s
ter n
id ence
ph one
b ack
c il
o o
p ing
r uit
v el
z e
ou l
Ġt w
Ġn ot
Ġs ch
at in
li er
er y
ing s
as ket
Ġin t
Ġl y
Ġpro p
ib ility
c ur
l ation
t o
x t
Ġf ra
Ġc orn
Ġp op
st one
Ġg e
ri b
i lo
s k
t ain
Ġt ur
le s
Ġd ri
Ġd own
Ġe nd
Ġc op
Ġc art
an g
Ġb i
Ġbl ack
m is
o st
w er
z z
Ġt en
Ġt im
Ġs er
re am
Ġb re
Ġb an
Ġm ac
un k
Ġpro g
Ġdis c
Ġfo re
o ol
s is
u le
Ġ at
Ġ ke
Ġt om
he ad
Ġf le
Ġc ent
Ġc ut
Ġp ur
Ġp ress
ar ter
Ġm or
ac he
ra ge
ub lic
ace ment
gra nd
mot her
a h
c ep
l u
t or
ou gh
Ġs av
in s
ap er
Ġf or
Ġc and
or ation
Ġb lo
lo ad
el f
um b
rap hy
Ġlo c
Ġar ch
b ar
e ss
f ather
g ation
y l
Ġ up
he re
Ġs qu
in o
Ġc a
Ġp an
Ġp la
Ġb ur
ing er
Ġre v
Ġv ol
Ġph ot
a ug
d is
h ood
w el
ou s
Ġt re
Ġs om
Ġb ag
Ġh or
om eter
il d
Ġst e
ag on
ne y
if e
n ut
he n
li d
Ġf ib
Ġc ro
Ġc la
an o
Ġh ar
Ġh ouse
el ine
us ion
ver t
ve st
Ġcon g
Ġcol le
f orce
g age
p le
t en
Ġ art
Ġs em
at ing
er ation
Ġm id
ro ve
il t
un e
Ġr un
Ġse cre
Ġte ch
Ġcomm un
au se
alis ation
sy ch
Ġspe c
h ib
o f
s ign
t le
u ri
z er
Ġo ct
Ġd ist
Ġc le
Ġc amp
Ġp rin
Ġp or
Ġp ot
al f
ac ter
lo p
as p
Ġh arm
om b
ad er
ol ar
Ġbo ok
Ġdis p
po int
Ġso ft
iel d
d own
p re
r um
s ure
w orm
w ood
Ġs l
Ġf la
Ġp il
Ġb ird
Ġm od
Ġm ast
Ġw or
Ġw ind
il k
um ber
Ġa ff
op h
ali st
sc rip
Ġaut hor
Ġaf ter
b i
d i
g g
n ight
ap h
Ġf ort
Ġp ort
Ġp ain
Ġb ra
al og
ac ket
ic tion
as c
Ġw eb
Ġin st
iv ity
Ġra in
Ġte xt
Ġpr od
scrip tion
a ver
c at
c ut
c up
h orn
i ation
m it
n ing
o e
r ate
v ie
y er
Ġd og
Ġf un
Ġe c
Ġc e
ar ation
an s
st ick
Ġm ort
Ġm ed
as m
el li
ri d
ge st
Ġst at
Ġl at
and a
Ġk it
iv al
Ġcre w
az e
serv ation
o y
p r
Ġ act
Ġs on
Ġf ish
er m
Ġc ab
Ġp et
en ing
it h
lo t
Ġg o
el low
am i
Ġin n
ct or
Ġde v
Ġex per
Ġhe art
Ġla nd
Ġpo li
row n
Ġto ot
Ġche ck
Ġho spit
Ġtran sp
Ġmot or
f ace
k a
m o
m ination
o ot
r ep
u ce
Ġ is
er ence
Ġc it
Ġh um
om y
ot e
ge on
id ent
Ġv ib
Ġv ari
im al
ie ce
Ġco nd
Ġbo ot
Ġte le
Ġla w
Ġwh is
b and
n el
v ing
y ard
Ġ her
Ġt ab
Ġs en
Ġs oci
Ġd ol
Ġf il
Ġc er
Ġp up
Ġp ath
or ant
Ġm ag
al low
ad em
ss ion
ur y
ol ution
Ġv is
og raphy
Ġcol l
ma ker
Ġmo on
h ter
Ġ ice
Ġt est
Ġs and
Ġe st
Ġp in
Ġh at
ce d
Ġre d
ur ation
ol a
ir l
Ġv en
ow der
ib le
Ġan g
low er
Ġcol on
Ġme ss
Ġcl ass
Ġtech n
b l
i ke
l l
r ound
s ent
s ide
u ation
v ention
Ġn et
Ġs et
Ġo ri
Ġf ro
Ġc ra
Ġp ick
Ġp lay
an a
Ġb ut
Ġb ug
Ġm er
ent ial
Ġh am
Ġh igh
Ġj our
sh op
sp ir
are nt
ger y
sc reen
imp le
Ġsw e
rol ler
Ġve get
aly st
Ġcir c
Ġemp loy
mis sion
b it
c ast
i ff
j or
r up
x y
Ġs ide
Ġo pt
Ġd ire
Ġd yn
Ġe nt
ar ity
an ger
en ch
Ġb ase
Ġb ott
al th
as on
Ġh ur
Ġin str
id er
Ġv an
Ġr ac
Ġde f
Ġl ad
Ġpro se
con t
Ġem er
Ġcre d
igh ter
Ġsk y
clo sure
Ġchar acter
c ap
c ase
g o
o ff
r us
t ter
ou th
Ġt u
Ġd ip
Ġf lo
nd ant
Ġc od
Ġc as
Ġc ust
Ġc ock
Ġb as
Ġb and
Ġm ic
Ġm ile
ic al
lo pe
Ġg lo
as ure
ri dge
Ġre st
Ġcom b
ag er
ne e
Ġro b
Ġcou nt
ale nt
aw n
Ġant e
Ġacc ord
rit ing
Ġcal c
b id
f it
f ul
i que
s w
u el
Ġ ir
ou p
Ġt ort
Ġt our
Ġs ym
Ġo n
Ġf ol
Ġli p
on ent
Ġc our
re l
Ġp sych
Ġb ul
Ġb att
ic ian
as se
Ġv i
ist ics
Ġj un
Ġj ud
ag ue
os ity
Ġth r
ult im
Ġhy p
Ġper son
lish ment
Ġtoot h
a e
b al
c ker
d o
e k
j ust
n ce
o ice
r at
y pe
Ġ ic
Ġd am
Ġd ig
re d
st and
Ġm en
Ġm ain
it i
it is
ro me
Ġg od
om an
Ġw al
ol y
ver age
ine ss
Ġsh ort
Ġan y
ari an
Ġem b
cl am
Ġma jor
Ġam b
Ġbre ak
Ġprog ram
b re
d om
h at
w ard
z y
Ġ us
Ġ ket
Ġs a
Ġs ail
in a
Ġd oc
Ġf in
Ġe li
on ym
Ġp ig
Ġw ood
Ġre se
ol t
ut y
Ġde m
Ġsh ip
Ġco ok
Ġan n
av a
Ġqu est
Ġcont r
Ġsub sid
Ġsur round
Ġwe ed
Ġey eb
uct or
Ġje wel
Ġsecre t
Ġemer g
asse s
c ra
d ay
i ent
l ace
m un
n ow
p at
s ation
Ġt ro
Ġt ub
Ġt urn
Ġs uc
Ġs ens
le x
in ter
Ġo at
li fe
nd ing
Ġc li
Ġc am
an cy
Ġb id
Ġb ank
Ġh on
ri st
ur ance
Ġde fe
th ing
Ġpro v
ast e
est er
Ġex t
if t
Ġbe h
Ġpl an
Ġpre m
Ġme at
ult ure
Ġsw im
ell y
Ġmar k
uc er
Ġor gan
over n
Ġeff ect
Ġbri ef
Ġce le
b on
c ing
c ip
c ake
f ri
m en
w atch
Ġ key
Ġt ar
Ġt op
Ġt ax
in i
li f
Ġli ght
Ġc ub
Ġp al
Ġp ad
st orm
Ġb ake
Ġm ail
is ing
Ġg reat
Ġh un
un g
op e
ab it
one y
Ġsc reen
Ġen c
Ġne w
ak ing
ink ing
Ġcoun sel
lip per
gr ound
Ġstand ard
illi on
hib ition
Ġharm on
b as
f la
f ruit
g th
g rim
i ler
m ail
p ar
t ure
Ġ ing
Ġs or
Ġs elf
in der
ff ic
Ġd ou
Ġd er
Ġd ay
Ġf am
Ġli c
er al
Ġp oll
Ġp ublic
st ep
Ġb ow
ro b
Ġg re
Ġw he
Ġw ing
Ġw arm
et te
el ling
um per
ch ar
Ġst ri
Ġst ock
Ġv al
ig ration
us al
Ġch ap
Ġr ub
Ġde ve
Ġl ap
if ic
Ġbo x
Ġbo y
Ġtr ack
Ġbe an
ain ment
Ġth under
Ġad min
co very
Ġpo st
Ġto ler
Ġdra gon
Ġcoun ter
Ġlab or
Ġim m
met ry
aug hter
Ġopt im
a unt
e en
g ing
g ine
m ar
m ary
s he
s un
t hes
v y
Ġn ut
Ġn est
Ġn orm
Ġs um
le d
le ction
at o
at ism
Ġd ress
Ġf en
Ġli e
Ġc ler
Ġp ine
Ġp ump
an sion
Ġb ud
Ġb ath
Ġm y
Ġm ou
it er
ro be
ic h
ic ip
Ġg ar
Ġw il
Ġw id
ri pt
Ġin te
Ġst y
im um
Ġch air
Ġr h
and e
ed ia
ast er
if er
Ġbo at
Ġal b
Ġra d
lic ation
ron t
Ġsw ord
rol y
Ġter r
Ġsk ull
gra de
Ġop p
Ġey e
Ġleg is
cep tion
Ġquest ion
b ro
b ed
b ird
f o
g ar
h ow
i ety
p et
s ing
s ity
t op
t ail
v it
Ġs li
Ġs ent
Ġs ust
Ġd on
li ft
Ġli t
er k
Ġc ass
Ġc ry
re w
Ġp le
Ġp ay
Ġp hy
an gle
Ġb ed
Ġm ant
Ġm ix
it ution
is er
Ġg overn
Ġw alk
Ġst ory
la in
Ġv el
ig ation
ut h
ist ry
us k
Ġa li
Ġch op
Ġr at
Ġcon st
Ġcon sc
and er
Ġsh op
est y
Ġle n
Ġse ed
imp an
iz e
Ġpo ss
ire ment
Ġcont in
Ġne u
Ġgr ass
Ġfl y
Ġcap it
Ġass ist
Ġrec ip
Ġcoun cil
Ġacc ount
oun ce
ait er
Ġdo or
Ġele ct
Ġpast or
Ġcop y
ream er
Ġpil grim
vie w
Ġphy s
e c
g i
g ment
h ing
l ane
m ing
o id
p s
p it
s up
s ister
t ra
u la
v a
w h
w ife
Ġt ent
Ġt ype
le ment
in c
in ction
Ġd r
Ġd oll
Ġf ri
Ġf ig
Ġf av
Ġc ow
Ġc ali
Ġc up
Ġc ase
Ġp ack
an y
Ġb ron
Ġm ap
Ġm el
ro m
ic ke
ic ket
is her
Ġg li
Ġh alf
Ġw ash
Ġw ee
am a
ad ow
Ġre m
Ġre sp
Ġre lation
ur g
Ġst op
Ġv it
Ġv ac
Ġv est
Ġch ron
Ġsp ir
Ġex am
Ġhe l
Ġk ing
ie s
Ġsc al
ug gle
our se
Ġse x
Ġse qu
ick ness
ive s
Ġy e
com e
Ġmar ket
Ġho st
igh b
Ġsho e
ann y
Ġexp ansion
Ġdiv ide
rit er
aly sis
Ġadv oc
Ġear th
alog ue
fri end
a ist
b ow
b one
d og
e y
f ort
f ly
g ie
h o
h al
m eter
p ut
r m
s o
s ub
Ġ ut
Ġt reat
Ġthe rm
Ġn ur
Ġs an
Ġs ilk
Ġo w
li um
li ance
Ġf ir
Ġf arm
Ġe sp
Ġc ant
Ġc ash
Ġc uri
Ġp it
or a
st al
Ġb ass
Ġb urn
ic ity
lo qu
Ġg el
ce l
Ġw ast
il ing
Ġre li
ot her
um er
Ġin vest
ut ch
Ġr an
ow nt
Ġsp ect
Ġde b
ag ram
Ġk nee
sc ape
Ġac adem
Ġro w
Ġqu art
Ġen gine
Ġfo rest
po st
Ġche m
Ġwh ole
clo th
Ġpri v
Ġsup er
az el
Ġcor por
Ġmet h
Ġhyd roly
ror ism
gl ass
Ġke ep
Ġdyn am
clam ation
Ġpump kin
a ign
b ag
b urn
c a
c r
c as
c ol
d rop
e ring
h unt
i ring
i ous
o ir
w he
w ind
Ġ id
Ġ ill
Ġt on
he nt
Ġn ood
Ġs ong
in ing
in oc
Ġo per
Ġd ust
li t
Ġf ed
re ction
Ġp un
Ġp ub
Ġp lier
ar ification
or row
st em
st air
Ġb at
Ġm ut
ac ker
ro t
ic ide
lo c
Ġg un
Ġg ig
Ġh ub
ra it
ce ler
Ġw et
el t
Ġre sid
ch ange
id ity
ir cle
Ġv illa
im ate
ul pt
ard en
Ġde d
Ġl ink
Ġj elly
Ġsc en
Ġsc rew
per son
og raph
Ġal m
ain t
av en
Ġme an
Ġgra d
po se
Ġgr an
Ġmo b
Ġor d
Ġma x
old ing
Ġdra w
Ġmis sion
ose x
form ation
ount ain
Ġtem por
stro m
Ġfra me
grand mother
aph one
Ġpoli ce
Ġtransp ort
Ġori gin
Ġswe at
Ġveget arian
fla ke
loqu y
d ress
d aughter
i od
m us
m ia
n ast
n ament
p y
p iece
r out
t on
v ation
he mer
Ġs ug
le ss
Ġo c
ep aration
ep hal
Ġd ie
Ġd ownt
li e
li on
Ġf r
Ġf at
Ġe ss
Ġc ri
Ġc ott
re sp
Ġp aper
ar l
ar ist
or gan
Ġb it
Ġb ab
Ġb ill
Ġm os
Ġm atch
al a
al ou
Ġg ym
as el
Ġh ip
Ġh ome
Ġh oney
ra g
om er
Ġw ren
Ġw aist
ad ing
ad am
Ġre in
ot ation
um in
ol ation
Ġst ate
se ed
ter y
la st
ir th
Ġa stro
qu ir
Ġch a
Ġch ain
ul um
Ġr he
Ġsp read
Ġsp oke
Ġde cl
oc ation
Ġl as
Ġj ack
ali ce
sp here
Ġpro fe
ect or
Ġk i
iv ation
os it
Ġbe e
Ġro om
te in
co nd
iz en
Ġcont rib
ish ment
ser t
Ġpar am
aw l
Ġrep ort
Ġimp ort
Ġpat rol
Ġbr ush
Ġdep end
Ġapp et
hes is
Ġfre e
Ġpant y
we ar
Ġmus ic
Ġfra ud
Ġcro ss
Ġsem ic
asc ular
Ġinn oc
Ġbug gy
Ġjour n
Ġrob ot
Ġbatt le
Ġeyeb row
char ge
Ġlegis l
a rine
b ath
e se
g un
i ary
m ation
n ection
p ression
s n
t t
t om
u li
w alk
Ġ ring
ou ch
ou ght
Ġt ail
Ġt alk
Ġt amb
Ġs in
Ġs at
Ġs ili
Ġs uit
Ġs ection
in y
in et
od erm
ep lace
Ġd ict
Ġd une
Ġf er
Ġf ac
Ġf ront
on i
er c
Ġc ann
re et
Ġp od
Ġp ag
Ġp ill
en ef
Ġb atter
Ġm at
Ġm ater
ro spect
lo on
Ġg um
Ġw est
Ġw rap
il ler
Ġre cess
Ġin iti
ur ge
un ction
la ve
Ġv ir
Ġv ine
ut or
us band
ve ment
Ġsp ot
ty pe
Ġj ump
Ġpro t
Ġpro st
ast rop
ay er
art ment
iv ili
Ġco ff
Ġco st
ib ody
Ġal co
Ġal pen
arm ac
ition er
Ġac celer
Ġcomp et
Ġcomp lex
Ġy ellow
lic ity
Ġne ck
Ġne ighb
Ġdi ff
Ġph r
Ġinf lu
Ġair f
uff in
ens us
ave s
Ġaut hent
read er
Ġgl ut
Ġgrand p
min al
we ight
ons or
zz le
Ġat te
grand father
aug uration
Ġcong ress
Ġcamp aign
gest ion
rup tion
Ġinstr ument
just ice
Ġdoc ument
Ġcry stal
stair s
quir y
a bo
a ler
b et
b ut
b bit
d rink
d ition
e er
e ce
f erence
h ol
i ing
i our
i let
k ing
m y
o int
p ur
p ant
u k
u ke
u ity
v ision
w riting
ou d
he w
Ġs u
Ġs us
Ġs ill
Ġs imp
Ġs ock
Ġs und
le ague
Ġo x
ep per
Ġd ark
Ġf ur
Ġf all
Ġe gg
Ġli ter
Ġc ard
Ġc ast
Ġc ause
re sh
re me
Ġp ul
Ġp ail
Ġp ome
Ġp oly
ar f
ar n
an ker
Ġb ou
Ġb us
Ġb ull
Ġm il
al m
al ty
lo ck
lo per
Ġg aff
Ġg irl
as is
Ġw itch
am ber
ad der
Ġre b
Ġre ce
Ġin auguration
Ġst r
Ġst ud
Ġst raw
la b
ant age
im er
ist ic
ul f
Ġr um
Ġr ite
Ġcon spir
oc ol
Ġl amb
Ġl unch
sh ine
sh irt
ed ge
ed iment
Ġhe ir
Ġle ver
Ġk ick
Ġsc ulpt
og en
Ġal t
Ġal umin
Ġra y
sc ence
Ġcol or
Ġpl ate
ake over
Ġap pe
Ġsw itch
Ġper iod
ell ation
Ġsub con
eb asket
Ġmar sh
cre am
cre ase
ym ph
pl ace
Ġter m
Ġmin or
Ġgu id
Ġmot her
Ġfe ed
port un
Ġep hemer
Ġcand id
Ġfun ction
Ġcit izen
Ġwhis ker
Ġsen ior
sent ation
Ġfro st
Ġbott om
Ġcount ry
Ġadmin ist
ho spit
Ġgym nast
b ell
c orn
d en
f ix
g ger
g ling
i at
o ise
p art
r al
s op
u ter
u ality
y me
Ġ it
Ġt own
he lium
Ġn ation
in ner
at cher
od a
od uction
Ġf an
Ġf act
Ġf ood
Ġf ix
nd ic
Ġe very
Ġe aves
Ġli st
rin t
Ġc raw
re g
Ġp arent
en ne
en ger
st ra
st ance
st acle
Ġb on
Ġb low
Ġb row
Ġb read
Ġb rown
Ġb enef
Ġm as
Ġm and
Ġm ust
Ġm all
Ġm ach
it o
it le
al s
al t
ing u
ic ker
is k
Ġg reen
Ġg raph
as ant
as her
Ġh all
Ġh air
Ġw o
Ġw ave
et ry
ri ght
ad v
Ġre ven
ge e
Ġin justice
ss el
ol f
Ġst air
Ġst reet
ct iv
se ct
ig an
ant ation
Ġa ge
ver sion
Ġch ild
ul us
Ġr hy
Ġr ape
Ġsp y
Ġsp onsor
Ġde ad
oc key
Ġl un
Ġl ong
Ġl ingu
Ġj ust
Ġj ail
Ġj oint
ali er
ort ion
em aker
log ram
Ġhe ar
Ġhe dge
ie f
Ġsc r
os ite
ib ble
Ġbo nd
Ġtr uck
Ġad vert
Ġte en
Ġla y
Ġcont act
ron omy
Ġper f
Ġcre ation
ram p
Ġche ese
uck le
uc ation
Ġso y
Ġrep ublic
Ġpat ty
Ġph armac
Ġpri or
Ġpri est
Ġrec ep
roc arb
Ġkn ow
sel ler
Ġhyd ro
arch y
iss ue
Ġear ring
Ġshe l
Ġbal loon
Ġmem ber
Ġcorn er
Ġdri ve
Ġmac ar
Ġfle ece
Ġrev it
ano id
lop s
Ġbra nd
cut or
pr ise
xy gen
Ġdire ct
Ġdip lo
Ġmic ro
ultim edia
dom en
Ġket ch
cra ft
Ġnew s
Ġwast ebasket
lie ver
resp ond
c ot
d raw
f er
f ire
g ot
i ology
l d
p ri
p ass
p ack
s m
t ry
t rap
Ġ ide
Ġ ash
Ġt ow
he d
Ġn it
Ġs yn
Ġs lipper
in ar
at on
Ġo re
od orant
ff e
Ġd ash
Ġd uck
Ġd reamer
Ġf ill
Ġf ather
Ġf und
Ġf actor
nd om
Ġe ag
Ġli qu
Ġc ivili
Ġp ap
Ġp ard
Ġp low
Ġp ray
Ġp epper
or der
Ġb er
Ġb ay
Ġb uff
Ġb roc
Ġb omb
Ġm ay
Ġm att
Ġm ultimedia
Ġg am
Ġg ate
Ġh ug
Ġh abit
Ġw ait
il der
el ler
ri ent
ri age
ch air
ss er
ur t
ur st
ol li
Ġst ation
Ġst am
Ġst orm
ct ure
se ud
id en
un te
Ġv ent
Ġv et
ist le
us age
ve s
qu at
Ġch in
Ġch ip
Ġr ation
Ġr ating
Ġcon cent
Ġcon vert
oc ket
ip e
ass is
ab et
ub arb
Ġpro b
Ġpro of
ne aker
os is
os ling
ust ration
Ġbe ast
ue ss
me al
Ġlo af
Ġro se
cy cle
Ġte am
Ġcomp ass
Ġpl atter
Ġme et
Ġme asure
Ġcr iter
ult iv
Ġcl oud
Ġne on
Ġne ed
hy d
Ġdi ver
com mun
ach ing
eb ra
Ġbl ue
cl usion
Ġtra ffic
Ġpr ison
uff s
Ġdra g
Ġun iver
lip se
Ġspe ed
Ġkn ife
Ġab domen
Ġob stacle
Ġreg ion
Ġop portun
iner y
Ġdec ision
ait h
loy ment
Ġret rospect
Ġbu y
Ġed ucation
Ġsch olar
ilo sop
lop ment
Ġafter sh
Ġpain t
cup ation
Ġexper iment
Ġcirc um
Ġcour t
Ġtooth p
bal ance
Ġemerg ency
Ġtro op
Ġfam ili
bro ther
Ġfav or
Ġesp alier
osex ual
A T
a o
a ust
b an
b ab
b ody
b rid
c oun
d ri
f act
f all
g ression
h aust
j acket
l at
m p
p op
r ise
s or
s ch
t ic
u ra
u ary
z ee
Ġt ap
Ġt ug
Ġt ank
Ġt usk
Ġs id
Ġs ight
Ġs af
le g
le nd
ap p
od rome
ep ee
ep end
Ġd an
Ġd en
Ġd ame
Ġd uel
Ġf inger
Ġe sc
Ġc el
Ġc row
Ġc roc
re m
Ġp ound
Ġp ra
Ġp olar
Ġp owder
Ġb all
Ġm ir
Ġm ill
Ġm ole
Ġm ilk
it ar
it ect
it one
Ġg uit
Ġg arb
Ġg arden
Ġg osling
Ġg uess
as ht
Ġh ot
Ġh azel
om ach
Ġw it
il ant
el ing
ri er
ri ft
ri ef
Ġre qu
ot ion
um n
ch o
ch id
Ġin tr
Ġin sect
Ġst one
ct angle
Ġch assis
op y
Ġsp ort
Ġde li
Ġde ath
Ġde odorant
Ġl an
bo y
ip ment
ip lane
Ġpro x
Ġpro cess
Ġcom fort
Ġhe ro
Ġhe alth
Ġk id
de er
os c
Ġan k
Ġan alog
ili ate
Ġbo b
Ġtr ou
rap er
me g
Ġac cess
co se
Ġte aching
Ġla ug
pe er
Ġpo ison
Ġpl at
Ġpre ced
Ġen ter
Ġcou gar
air y
Ġhy pe
board ing
ren al
ren gth
Ġwh ack
ym metry
pl acement
Ġor der
rop ri
Ġsho ot
Ġbar rage
che t
Ġass oci
Ġaut o
ven ing
Ġas se
Ġcor respond
gu ish
Ġpant ology
Ġbro ther
Ġhyd rocarb
Ġtri ad
len ty
by e
Ġlab our
Ġje ans
ree ment
Ġpart ner
Ġsy stem
oul try
Ġge ar
Ġser v
Ġcut over
Ġarch ae
hen ation
Ġcolle ctiv
gage ment
Ġmod ern
Ġmast er
Ġauthor ization
Ġprod uct
Ġboot ee
Ġtab let
Ġcoll ar
Ġpick ax
Ġprogram ming
Ġrese arch
Ġdem oc
Ġbeh av
Ġdou b
Ġtoler ance
Ġrh ubarb
Ġeye lid
impan zee
Ġpack age
Ġwee ke
Ġsequ el
Ġexpansion ism
Ġtempor ary
Ġastro log
Ġprofe ssion
AT M
Ġintr oduction
b ler
c ourse
e ed
f a
g ist
g own
h ie
m em
m are
m ob
n ation
p an
p ill
p owder
s and
s ence
s aw
t ip
v is
w id
Ġ ATM
Ġt in
Ġt un
Ġt act
Ġt og
Ġt able
Ġs ke
Ġs ad
Ġs neaker
le ry
in ion
at um
od il
Ġd om
Ġd il
li s
li mb
Ġf ace
Ġf urn
Ġf aith
nd a
Ġe r
Ġe th
er a
er o
Ġc oc
Ġc ultiv
Ġp y
Ġp est
Ġp int
Ġp itch
Ġp seud
Ġp lenty
Ġp oultry
en a
en ance
or er
Ġb est
Ġb log
Ġb iplane
Ġm ist
Ġm ass
it ter
al ai
ro g
ic ant
ic ator
is sion
lo ss
Ġg low
Ġg old
as les
Ġh ist
Ġh our
Ġh orn
Ġh arb
ra il
Ġw riting
et us
il lo
ad o
Ġre l
Ġre ctangle
um a
um atism
um my
Ġst ar
Ġst omach
Ġst rength
Ġv ict
Ġv ault
ig ue
Ġa ware
Ġch impanzee
ul ing
op ause
Ġsp an
Ġde sk
Ġde sign
bo ose
Ġj ar
Ġj ug
Ġj unk
th inking
Ġsh are
Ġsh irt
Ġsh ield
ub ble
est hes
em p
ack le
Ġex pl
Ġle mon
Ġk ill
ler gist
art en
iv ory
os a
os er
our th
if y
orm orant
Ġan guish
Ġse nder
Ġal ph
Ġtr ap
Ġbe ar
Ġra ndom
rap es
av age
Ġac comp
Ġac hie
Ġlo an
Ġlo ok
Ġth rift
Ġro ck
co at
be am
ash ion
con f
ign er
ord ing
Ġto que
Ġpe er
Ġgr ace
Ġso lic
Ġmo at
Ġpat ent
Ġbr ick
Ġph ilosop
Ġz ebra
ier y
ric tion
ric ulture
Ġri b
Ġsho re
Ġbar be
ink le
Ġmon ast
atch ling
Ġpri mate
gra d
Ġapp ro
Ġaut om
Ġexp ect
aff odil
ven ience
Ġmis s
Ġfe ast
tr actor
Ġtem pt
Ġwork shop
ower ment
Ġim balance
Ġdet our
Ġshe ar
Ġmem o
Ġpart icip
Ġhom icide
gl asses
Ġequ ipment
tern ative
oul der
Ġmac ro
yl on
Ġup per
Ġca usal
Ġvol unte
Ġbook case
point ment
Ġsoft drink
Ġbird bath
Ġaff iliate
Ġlat te
Ġcab ana
Ġhospit alisation
Ġmotor cycle
Ġvib ration
Ġher b
Ġhat chet
Ġbut ter
Ġjour ney
Ġflo od
Ġfol k
ultim atum
Ġhyp henation
Ġsa usage
Ġcontr act
Ġsens it
Ġcub e
Ġbake ware
bas in
Ġing rate
Ġdeve lopment
sun ami
Ġlen s
ounce ment
Ġcase ment
Ġcash ier
Ġforest ry
Ġmeth od
Ġmean ing
Ġroom mate
Ġbatter y
Ġwest ern
Ġcost ume
alai ka
Ġaware ness
a ring
b age
c an
c one
c ution
c iation
e v
f lower
g at
g li
g ree
g rove
g itis
h on
h rop
i us
i est
j erk
m ic
m ock
m ath
m aking
n ant
n gitis
o at
o is
p ion
p age
p ect
p ark
s led
t ie
t ics
u ate
u fact
v ari
w here
y wood
z el
Ġ ivory
Ġ ultimatum
Ġt am
Ġt ide
Ġt ummy
Ġt inkle
Ġt sunami
Ġn ick
Ġn umer
Ġn ylon
Ġs ing
Ġs im
Ġs ash
Ġs amp
Ġs au
Ġs ister
Ġs ome
Ġs oul
le e
le ot
in ce
in ition
Ġd at
Ġd ing
Ġd ram
Ġd rum
Ġd rapes
Ġd affodil
li o
Ġf ut
Ġf isher
Ġf etus
Ġf ashion
nd ment
nd ance
Ġe con
Ġe val
Ġe vening
Ġli f
on t
Ġc ormorant
re y
Ġp ing
Ġp ir
Ġp osition
Ġp hen
Ġp ocket
Ġp uma
ar ism
an et
an ter
an che
an alyst
or se
or ney
Ġb asket
Ġb ubble
Ġm ouse
Ġm eter
Ġm igration
Ġm arten
it an
al len
ro ss
ic he
ic ism
ic key
Ġg i
Ġg al
Ġg all
Ġh op
Ġh ow
Ġh atchling
ra in
Ġw ild
ri e
ad ence
ad rant
ad dy
Ġre ad
Ġre nt
Ġre ason
Ġre organ
ch an
ch ild
ge ois
Ġin j
ur al
Ġst atin
se qu
un geon
ir mation
ig ma
ig rant
qu arter
Ġch amp
Ġch au
op per
Ġsp ine
Ġde al
Ġl ard
her it
her ry
Ġpro m
Ġpro ject
Ġex haust
Ġhe ater
Ġle ather
Ġle ader
art icle
de sign
act ment
Ġco b
Ġco ver
Ġco ord
og ging
our geois
if act
if orm
Ġbo om
Ġal der
Ġal lergist
Ġal ternative
Ġbe gin
sc ript
me at
av y
av an
ary ngitis
Ġad renal
Ġqu arter
Ġpo le
ign ment
ath let
Ġme asles
ph ology
Ġcr u
Ġfo x
Ġcl an
Ġcl ank
Ġhy brid
Ġhy ena
ak ness
Ġar rest
Ġbl ank
Ġinter vention
uc leot
cl in
Ġho of
Ġcomm it
Ġcomm and
Ġwh irl
Ġbr ass
Ġbr ace
Ġout fit
Ġfl at
ame ndment
ump tion
ix en
Ġclo ck
Ġgu est
end um
Ġdra ke
Ġas ymmetry
Ġkn ock
und ry
Ġcat alyst
Ġreg istry
ble m
Ġop inion
Ġey el
Ġcons ist
Ġcons ensus
gu y
Ġbro ad
Ġbro ker
gy man
ject ive
Ġpen cil
Ġgen er
Ġag gression
Ġag riculture
raph one
Ġback bone
Ġind ust
Ġind ication
Ġind icator
Ġdo ctor
ual ty
Ġsign ify
ons ense
ict ure
illi ant
Ġbal alaika
Ġemp owerment
ilo meter
Ġdri ving
Ġdown force
zz ard
Ġfore igner
Ġfle sh
Ġmor bid
Ġfor ager
elf ry
Ġarch itect
Ġca boose
Ġtre nd
hen sion
Ġfib er
Ġfib re
Ġcla v
Ġhouse boat
Ġrun ner
Ġcommun icant
Ġdist inction
Ġprin cip
Ġprod ucer
ival ry
aze bo
oy o
Ġson ar
rep re
Ġvari ety
Ġwhis per
Ġest imate
Ġred uction
Ġang ora
Ġori ent
Ġmer ch
sw oman
Ġjud ge
Ġmen opause
Ġann ouncement
Ġsurround ings
Ġweed er
Ġprov ider
Ġmeat ball
Ġmark sman
aunt let
Ġfen nel
fo lio
tail ment
Ġsust enance
Ġcontin ent
Ġneu rop
gi arism
icke l
Ġgli der
Ġdivide nd
Ġsilk worm
Ġow ner
ious ness
whe el
Ġid i
Ġlink age
Ġmax imum
Ġcott on
Ġrein deer
Ġrhe umatism
Ġfraud ster
Ġiniti ali
Ġyellow jacket
Ġauthent icity
Ġrece iver
ulf ur
Ġspeed boat
Ġhazel nut
ourth s
iest a
Ġding hy
orse ment
allen ge
ourgeois ie
c uit
d t
d ict
e or
f l
f le
f ord
f ication
f unction
h and
h ose
i ac
j ud
m or
m om
m ire
m ark
n is
n ial
n esty
o ce
o analyst
p low
p aper
r ison
s ur
s im
s ard
s ary
s ight
s ault
u v
u ring
v as
v et
w riter
y s
z ard
Ġ ident
Ġ amendment
ou gat
Ġt att
he ard
Ġn on
Ġn ibble
Ġs ep
Ġs ound
Ġs atin
Ġs ickness
Ġs ulfur
in n
in ary
Ġo ce
od on
ff le
Ġd art
Ġd ump
Ġd airy
Ġd ickey
Ġd ungeon
li g
Ġf ate
Ġf ail
Ġf ire
Ġf ee
Ġf ield
Ġf anny
Ġf ourths
Ġf iesta
Ġe ct
Ġfound er
Ġdrink ing
er os
er endum
Ġc ord
re gation
re hension
Ġp he
Ġp ic
Ġp age
Ġp ian
ar row
an op
an ket
en g
en nial
or illa
or pion
st y
st ay
Ġb li
Ġb one
Ġb out
Ġb olt
Ġb irth
Ġb elfry
Ġb ourgeoisie
Ġm am
Ġm ood
Ġm ister
ac qu
ro gation
ro bi
ic arium
lo ver
Ġg inger
Ġg lee
Ġg azebo
Ġg auntlet
Ġh ide
Ġh iring
Ġh usband
om etry
Ġw ard
et own
et hing
el lishment
ri a
Ġre spect
Ġre ader
Ġre servation
Ġre hospit
Ġre thinking
ss om
ss ment
ur ate
Ġst alk
ter osexual
un er
Ġv ie
Ġv ixen
ig ator
ant y
im on
ist ence
Ġa qu
Ġa ler
Ġa ud
Ġa val
Ġch ance
Ġch ives
Ġch ivalry
Ġch allenge
Ġr u
Ġr out
op oe
Ġsp at
Ġsp ank
Ġde s
Ġde st
Ġde crease
Ġde gree
Ġl in
Ġl aryngitis
bo ot
Ġj ogging
th r
th rob
ali fication
Ġsh ow
Ġsh out
Ġsh ame
Ġsh rine
Ġsh aker
Ġsh adow
sh oe
sp ace
sp rey
Ġpro blem
ast y
ag raph
est ro
Ġex e
Ġhe el
Ġhe avy
Ġle ash
Ġk o
Ġk ind
Ġk ilometer
ne ck
Ġsc orn
Ġsc ope
Ġsc ript
act ant
og loss
ib al
Ġan agram
Ġan esthes
arm ament
Ġbe et
Ġra iment
der berry
Ġdis h
rap in
Ġlo tter
Ġth ing
man ac
Ġad ap
Ġla undry
Ġqu adrant
ator y
iz ing
iz oph
Ġpl ug
Ġpl ace
Ġpl ywood
Ġen igma
Ġen actment
ph asis
Ġy am
Ġy oyo
Ġcr umb
Ġcar p
Ġcar avan
air ment
Ġgra m
Ġcl amp
Ġcl utch
Ġsw an
Ġsw amp
Ġto ast
Ġpar king
Ġper cent
Ġdi am
Ġpe arl
Ġche st
Ġinter change
cre as
cl one
Ġso lid
ren ic
ren zy
Ġho bbit
aw eed
Ġpat ri
Ġbr an
Ġbr illiant
acy clin
Ġtra iner
ric ulum
Ġinf ant
Ġter rorism
Ġri ght
Ġcap ability
Ġwe asel
Ġwe akness
clo thes
Ġclo thes
Ġover view
ens or
ens ity
Ġam ber
ave ment
ong ation
Ġcur tailment
Ġmot h
Ġatt orney
Ġass urance
sid eration
roc ity
aff ron
ore e
Ġas cent
Ġdiv ision
Ġdiv alent
ax is
Ġref erendum
oun g
Ġab ility
Ġchar ger
Ġreg ulation
law s
Ġhand le
Ġfre ak
Ġpass age
str uction
Ġsun beam
Ġdec adence
len ce
serv ant
Ġconf usion
Ġconf irmation
Ġfoot ball
Ġele v
br ity
br ush
io sphere
ons kin
Ġadv ance
Ġmus cat
comp et
Ġinv ent
Ġnight gown
Ġnight mare
ange rine
Ġmem ory
gon ia
Ġeff acement
Ġhard board
iver sary
phone s
Ġtur tle
Ġdri ver
Ġend orsement
Ġblack ness
Ġmor phology
Ġcand le
Ġblo ssom
Ġup grade
Ġpla giarism
Ġhor st
lid ay
Ġcla ve
Ġart ifact
Ġmid dle
ilt ration
Ġspec ial
Ġoct agon
Ġcle avage
Ġsl ash
Ġfla ir
Ġmod ification
Ġwor ker
Ġwor ship
Ġaff air
di ent
Ġport folio
cup ine
pr od
Ġpet al
ith draw
Ġexper ience
Ġvib raphone
Ġcond uctor
Ġtele phone
Ġdol or
Ġcoll ard
Ġtechn ician
Ġham mock
Ġhigh way
iff y
Ġvan ity
Ġdef inition
Ġprose cution
Ġcas ualty
Ġcock pit
Ġrob in
bid o
Ġir on
Ġtour ism
Ġon line
Ġjun ior
Ġjud o
Ġthr ust
Ġdig ger
Ġket tle
Ġsecret ary
Ġoat s
lif ication
Ġharmon ise
Ġwing tip
Ġwarm th
Ġcler gyman
Ġmy th
ich ord
Ġsty le
ande scence
Ġcass ava
Ġconsc ience
Ġconsc iousness
Ġseed er
ps ichord
Ġwash basin
Ġadvoc acy
Ġtreat ment
cel lence
Ġran cher
Ġspect acle
Ġacadem y
Ġnood les
Ġgun powder
Ġvilla ge
Ġgrad uate
Ġpolice man
Ġsug ar
less ness
Ġdie sel
Ġfat igue
alou pe
Ġspoke swoman
Ġlas hes
osit ory
Ġbee ch
Ġcontrib utor
Ġdepend ency
Ġdict aphone
Ġspot light
Ġalco ve
Ġalpen horn
Ġatte ndance
Ġgirl friend
Ġconspir acy
Ġperiod ical
Ġfunction ality
Ġit em
Ġmand ate
Ġlingu istics
Ġrevit alization
commun ication
Ġsid ing
Ġsport sman
Ġmodern ist
pill ar
wid th
grad ation
sequ ence
quarter s
herit ance
rison ment
Ġect oderm
anop article
robi ologist
Ġward robe
Ġaler t
Ġaval anche
opoe ia
Ġlotter y
izoph renic
ithdraw al
' -
a ut
b read
c or
c ano
d ad
d ain
e ment
g n
g lo
g ument
h old
h abit
i ode
i alism
i geon
j ou
j am
m od
m el
n ity
o ch
o ster
p ath
r ick
s al
s ail
s ia
s wer
t itle
u ge
u lic
v ary
v ale
v io
w ill
w eb
w ave
x ibility
y e
y ser
z a
z ing
Ġ athlet
ou per
Ġt oll
Ġt angerine
he t
he ist
Ġthe ater
Ġn ect
Ġn ucleot
Ġn ougat
Ġn anoparticle
Ġs am
Ġs ale
Ġs ediment
Ġs affron
le gation
in f
ap oration
Ġo ther
Ġo sprey
od ile
od iode
ep hy
Ġd are
Ġd ough
Ġf uck
Ġf old
Ġf ruit
Ġf renzy
Ġe ther
Ġli m
Ġli zard
Ġli bido
rin ket
er tion
er sault
Ġc ell
Ġc lay
Ġp uffin
Ġp icture
Ġp avement
ar ket
ar ning
an ile
en ail
en ess
en cing
or th
or ie
st or
st ate
st itch
st ream
st ool
Ġb ad
Ġb ust
Ġb ough
Ġb ench
Ġb iosphere
Ġm om
Ġm olding
Ġm alice
al d
ing ern
ro tein
ic odon
is cuit
lo re
lo sion
lo af
Ġg as
Ġg rap
Ġg rip
Ġg orilla
as al
Ġh aven
ra gon
ra ulic
ce ed
om in
om ore
Ġw orm
Ġw ire
Ġw atch
Ġw inner
Ġw ithdrawal
et or
et able
il y
el strom
ri or
ri val
Ġre actant
ot ive
ch a
ch uck
ch ond
Ġin put
Ġin clusion
Ġin heritance
ss e
ss le
ss on
ur isation
ur rection
ol in
ol ve
ol ine
Ġst im
Ġst ance
Ġst ack
Ġst ability
ter ior
ment s
id ual
la use
Ġv ot
ig er
Ġa ide
ver se
ve ster
ve lope
Ġch arm
Ġch uck
ul ator
Ġr ap
Ġr ug
Ġr anger
op od
op us
op tion
op rotein
Ġcon vention
Ġsp ark
Ġsp ider
Ġsp elling
Ġde ed
oc us
oc cupation
and em
Ġj iffy
th ur
th ole
Ġsh ower
Ġsh anty
ass ock
ry o
ry er
sh anter
age ment
ed ic
Ġcom ment
ag ger
est ation
est ible
em b
ack now
Ġex istence
Ġex cellence
log s
log raphy
Ġhe ifer
Ġhe terosexual
Ġle nder
Ġle sson
Ġsc arification
Ġsc orpion
iv o
iv el
iv eness
iv idual
ug gling
Ġco onskin
if i
if ix
if estation
Ġan imal
Ġan swer
Ġse arch
Ġse aweed
Ġal manac
Ġtr ape
Ġbe ad
Ġbe gonia
Ġra il
Ġra ffle
ger ator
Ġac qu
Ġth ump
Ġth ought
Ġro ad
Ġad mire
te xt
ight s
co on
co lo
be an
Ġqu ail
Ġqu alification
Ġpo em
Ġcomp ost
con venience
ign ette
Ġpl ane
Ġpl umber
Ġen closure
Ġme chan
ph in
Ġy in
Ġcr is
Ġcr oup
lic a
att le
Ġcar port
ari at
Ġem phasis
Ġcont roller
Ġman ner
Ġman gle
Ġman grove
Ġman ufact
Ġman iac
po le
po ol
po chond
Ġap e
ult an
Ġpar agraph
Ġper ennial
Ġdi adem
ell um
ell ini
ole an
ole nce
com otive
Ġpe ac
Ġar tery
Ġche f
ater pillar
ach ute
Ġgr ound
Ġbl ade
Ġbl anket
ma rine
uc ifix
ren ch
ren ade
Ġho liday
Ġrep ository
Ġimp ala
Ġimp airment
Ġimp risonment
Ġcomm uter
Ġwh ip
igh ty
Ġout set
Ġfl int
rol l
ier e
pl us
ric ity
Ġor nament
ush room
Ġinf iltration
Ġter rapin
Ġsur v
Ġsur face
Ġbar bit
ann el
ann ah
Ġmon ument
Ġstep ping
Ġpr ice
Ġpr eparation
Ġpr uner
Ġmin i
Ġover heard
Ġdra in
ens ation
Ġam nesty
Ġdep uty
itu al
Ġcur sor
Ġcur riculum
Ġatt itude
mot h
mot axis
Ġun iform
Ġexp ression
sid ian
Ġarm chair
Ġdiv orce
ax oph
Ġspe aker
oun ge
Ġab rogation
ior ity
Ġcat alysis
Ġreg ister
Ġreg ret
gr ance
Ġop ium
Ġsun flower
Ġdec ency
form ance
Ġpant suit
Ġind epend
aly tics
gin al
Ġcy st
iss ant
car a
br ary
por ter
Ġret irement
Ġmus ician
Ġtrans action
Ġel derberry
Ġel ongation
Ġwater wheel
Ġstand point
Ġbu yer
Ġinv oice
Ġhead phones
Ġhead quarters
Ġform icarium
Ġbri de
Ġhom onym
Ġhom etown
Ġlog ic
Ġinc andescence
Ġnot ice
Ġsch izophrenic
Ġcorn et
sk irt
tain ty
Ġtur f
Ġcart el
Ġten nis
Ġser ver
Ġprog ress
Ġfore cast
Ġfore limb
Ġke bab
Ġfle xibility
Ġcent er
Ġpur pose
cep tor
Ġloc al
bar r
Ġsqu ash
Ġpan creas
Ġpla in
Ġbur row
wel ling
ous ing
Ġsom ething
Ġsom ersault
Ġbag gie
Ġhor ror
Ġste am
ano ia
Ġhar psichord
Ġcong regation
Ġart icle
Ġmid night
Ġcommun ication
Ġpor cupine
Ġpot ty
Ġsoft ening
pre ter
oph omore
Ġafter math
Ġpain ting
asc ia
Ġweb page
Ġdog sled
Ġmort al
Ġmort ality
Ġstat us
Ġkit ty
Ġcrew mate
erm arket
Ġcab inet
Ġdev iation
Ġcheck room
mo val
Ġis ogloss
Ġhum an
Ġboot y
Ġlaw yer
Ġtab by
Ġsoci alism
Ġfil th
Ġtest ing
Ġcolon ialism
Ġmess enger
Ġnet work
Ġemploy ee
Ġdire ction
Ġdyn asty
Ġdef ault
Ġcharacter ization
Ġcas ino
Ġcust om
Ġglo om
Ġcomb ine
Ġante lope
Ġcalc ulus
uel ty
Ġsym metry
Ġpsych oanalyst
Ġbul let
do or
Ġshort age
Ġemb ellishment
Ġus age
Ġann iversary
Ġtub e
Ġsuc ker
Ġcam era
Ġhon or
Ġhon oree
Ġdefe nder
Ġswim suit
Ġorgan izing
Ġcele brity
Ġkey stone
Ġlight screen
Ġdou ble
Ġlic ence
Ġpublic ation
rob last
Ġstock ings
ific ance
Ġtrack ing
Ġtoler ant
Ġimm igration
Ġoptim ist
she et
led gment
Ġdress er
Ġdress ing
Ġpine cone
Ġbud dy
Ġgar ment
Ġinte ger
Ġinte gr
Ġalb um
Ġterr arium
vit as
Ġsust ainment
Ġlit igation
Ġvel dt
Ġconst ellation
Ġcontin uity
Ġneu robiologist
Ġfly trap
Ġrecip rocity
aiter s
Ġpastor alist
Ġcali co
Ġmel on
Ġrelation ship
urg ence
Ġvac ation
Ġchron ograph
Ġspir it
Ġsex uality
Ġhost ess
Ġadvoc ate
Ġut ili
Ġcant een
Ġcant aloupe
Ġcuri o
Ġcuri osity
Ġbass oon
other mia
Ġinvest igator
Ġknee jerk
inoc eros
Ġgig gle
Ġhub cap
Ġresid ue
Ġalm ond
Ġord inary
Ġmission ary
Ġtransport ation
Ġvegetarian ism
flake s
Ġbab e
Ġmos que
Ġwaist band
Ġparam eter
Ġsemic ircle
Ġinnoc ent
Ġrobot ics
Ġbattle ship
Ġlegisl ator
uli enne
Ġtalk ing
erc ise
Ġcann ibal
Ġpag an
Ġprost acyclin
astrop he
Ġneighb our
Ġinflu ence
Ġgrandp a
Ġsimp lification
Ġsock s
Ġcast anet
resh ments
Ġpome lo
Ġbus iness
lab oration
Ġalt itude
Ġalumin ium
Ġcolor lessness
Ġsubcon tractor
Ġguid eline
Ġfan light
icker s
Ġrhy me
Ġcheese cake
Ġpharmac opoeia
cot ash
Ġgate way
Ġhabit at
Ġstam ina
Ġdrag ster
Ġfamili ar
dri ver
Ġtug boat
rem ist
Ġrequ irement
Ġpreced ence
Ġasse ssment
Ġcollectiv ization
uv re
vale nce
Ġether net
ingern ail
raulic s
ceed ings
acknow ledgment
Ġtrape z
pochond ria
ucifix ion
Ġbarbit urate
axoph one
N A
R NA
S U
a ine
a jam
b us
c ket
c row
c ott
c imer
d ep
d ate
d dle
e qu
e uvre
g ence
g ibility
h ate
h pur
i et
j ection
k ind
k iller
l or
l ink
l acement
l inder
m ine
m unk
m allow
n it
n cy
n ame
n ium
n itude
n otation
o a
o z
p ayer
p ipe
r ator
r ics
r acy
r uce
s ack
s ame
s ley
t te
u a
u is
u um
u ition
u ice
u rine
u zzle
v in
w i
w ord
w agon
y te
y ak
y ster
y day
z or
± o
Ã ±o
Ġ ign
Ġ acknowledgment
ou rine
ou rage
Ġt ag
Ġt ile
Ġt ram
Ġt rip
Ġt ape
Ġt ime
Ġt rove
Ġt ensor
Ġt rinket
Ġt iger
Ġt andem
Ġt ights
he sion
he ring
Ġn oun
Ġn asal
Ġs ake
Ġs uck
Ġs igh
Ġs lip
Ġs ilo
Ġs outh
Ġs aint
Ġs ultan
Ġs ophomore
Ġs axophone
le ro
le nding
in ic
in ity
in ite
in ach
at itude
at ross
ap id
ap board
ap stick
Ġo ld
Ġo vary
Ġo euvre
Ġo yster
od hpur
ep ad
Ġsle uth
Ġoff ic
Ġnod e
Ġd ot
Ġd imple
Ġd ryer
Ġd welling
li loquy
Ġf ry
Ġf ight
Ġf ork
Ġf ord
Ġf ountain
Ġf ocus
Ġf ascia
Ġf ingernail
Ġe rection
Ġli d
Ġli ft
Ġli fe
Ġli mb
Ġli ving
Ġli brary
ound ary
er gy
er ware
Ġc ure
Ġc are
Ġc law
Ġc ray
Ġc asket
Ġc ephal
Ġc logs
Ġc aterpillar
Ġp ate
Ġp lot
Ġp iece
Ġp imple
Ġp lover
Ġp igeon
ar r
ar an
ar cher
ar va
en ot
en ant
or ak
or ian
st itution
Ġb rink
Ġb et
Ġb ell
Ġb iscuit
Ġm ate
Ġm ine
Ġm ime
Ġm ower
Ġm illion
Ġm ushroom
it ing
it ute
al ator
al ape
ac c
ac ott
ac ular
ro ver
ic ill
ic ory
lo om
lo ok
Ġg arter
Ġg ins
Ġg rief
Ġg renade
Ġg aiters
as ing
Ġh ut
Ġh ate
Ġh ack
Ġh ill
Ġh ousing
ra st
ra ffe
om ber
Ġw ine
Ġw ish
Ġw ell
Ġw ool
Ġw ifi
et ime
il ver
el ony
el ting
el ini
am aran
ri al
ri gger
ri etor
ri gerator
Ġre lay
Ġre alization
Ġre covery
Ġre clamation
Ġre moval
ot a
ot al
Ġin k
Ġin lay
Ġin hibition
ss ey
ol k
ol ver
Ġst ab
Ġst age
Ġst art
Ġst all
Ġst uff
se ction
ter rorism
la int
Ġv int
Ġv ivo
Ġv ignette
Ġv ellum
ig en
ig ence
ig are
ut ation
ut ter
ut ab
ut down
ut rient
ut enant
im osa
ist a
ist ol
ist ance
ve al
qu ake
qu ito
Ġch annel
ul cimer
Ġr isk
op ard
op her
op oly
ate e
ate au
Ġcon servation
Ġcon sequence
Ġsp ike
Ġsp rout
ard rum
Ġde sert
oc ephal
oc yte
Ġl ine
Ġl out
Ġl umber
Ġl ounge
her kin
Ġj ade
Ġj umper
Ġj ulienne
Ġsh ine
Ġsh ift
ass y
ass ment
ance stor
ht ub
ht ray
sh ift
ab ass
ab ao
Ġpro be
Ġpro ceedings
ed ary
ed ience
ast ation
Ġcom estible
ag a
ag ull
est ine
em ony
up hon
Ġex clamation
Ġex ercise
Ġhe mp
Ġle ap
Ġle aker
Ġle aver
Ġle ek
Ġle verage
ay ment
ne ath
Ġsc ale
Ġsc rim
ug out
ug gage
de w
de be
os al
Ġco re
Ġco il
our ishment
Ġan alysis
Ġan alytics
Ġse cond
Ġbo ss
Ġbo ost
Ġbo nding
Ġbo olean
Ġal legation
Ġbe ing
Ġra g
Ġra id
Ġra ft
are ncy
Ġdis closure
Ġdis armament
Ġdis dain
ber ation
Ġlo op
Ġlo ading
Ġlo comotive
Ġth ong
Ġth read
Ġth reat
Ġro cket
Ġad ult
co li
be e
Ġla g
Ġpo lish
Ġcomp osition
Ġcomp licity
Ġcomp rehension
Ġcomp ensation
con gest
con nection
Ġcol ony
Ġcol loquy
Ġcol laboration
Ġpl acement
Ġpre valence
Ġen velope
row el
ath on
Ġy urt
Ġy oung
Ġcr uelty
Ġcr ucifixion
lic an
lic ker
Ġcou rage
Ġcar ter
Ġcar load
Ġcar ving
ake down
ee k
Ġcont our
Ġman hunt
Ġman sard
Ġman servant
Ġman agement
Ġman ifestation
Ġgra vitas
ron g
ron utrient
Ġap se
ult ing
Ġcl inic
Ġhy pochondria
Ġsw ivel
Ġto enail
Ġpar achute
Ġpar anoia
Ġper formance
amp one
Ġcre am
Ġar gument
Ġar thur
Ġche motaxis
uck oo
pt ocephal
Ġgr ant
Ġgr ouper
eb ack
eb ody
under stand
Ġsn ake
Ġsn uck
Ġbl ind
Ġinter net
Ġinter ject
Ġinter loper
Ġinter preter
cre te
ma ine
ren a
Ġrep aration
Ġrep lica
Ġimp act
Ġmo ai
Ġcomm ander
Ġpat ina
Ġbr ule
Ġout lay
Ġout side
Ġfl u
Ġfl an
rol ley
Ġtra iler
ank s
Ġma elstrom
Ġinf lation
Ġter mination
Ġter minal
Ġtran script
Ġsk ate
Ġsur gery
Ġsur plus
Ġri p
Ġri ddle
Ġant icodon
Ġcap p
Ġcap er
Ġcap tion
Ġsho vel
Ġbar rel
ann ing
Ġwe ird
Ġair port
Ġair space
clo ck
Ġmon ster
Ġmon itor
lay ing
Ġclo ak
Ġmin ion
Ġmin imum
uff ocation
Ġpri ze
Ġsup port
Ġsup reme
Ġsup ermarket
Ġdep ot
Ġcur tain
Ġatt acker
mot ion
oon er
Ġexp losion
Ġunder clothes
Ġacc ent
ore ceptor
Ġas htray
Ġarm rest
Ġdiv ine
Ġref usal
Ġref uge
Ġref reshments
Ġref rigerator
Ġspe ar
Ġkn ickers
und ance
Ġmis communication
Ġfe ather
Ġgl ance
Ġchar set
Ġob i
Ġob sidian
Ġcat alogue
Ġcat astrophe
gr an
port ion
sel f
Ġpass ing
Ġpass book
Ġpass port
Ġep ic
Ġcor ps
Ġmet eor
uct ure
orce lain
Ġhyd raulics
ular s
Ġgen e
Ġgen eration
Ġag ency
Ġsm uggling
len nium
Ġback drop
Ġind ividual
Ġcy clone
Ġfoot age
Ġfoot step
Ġwork out
Ġsign et
Ġsign ificance
gen itor
Ġsal on
Ġwar ren
Ġwar rior
mb one
Ġtrans it
Ġtrans ition
Ġel k
comp onent
na ire
rim p
Ġver anda
Ġlab el
Ġed dy
Ġcal orie
Ġhead ache
Ġcan opy
Ġcan vas
Ġcir cle
Ġcir rus
Ġres ume
Ġres olve
Ġlog o
Ġlog in
Ġev aporation
Ġequ ality
Ġinc idence
Ġins urrection
Ġins urgence
Ġtw ig
Ġnot hing
Ġsch ool
Ġint ention
Ġprop osition
Ġprop het
Ġprop rietor
cur sion
Ġfra grance
Ġcorn flakes
Ġpop corn
Ġge yser
ilo t
sk iing
tain ment
Ġtur ret
Ġdown grade
Ġend ive
Ġbi ke
Ġbi jou
Ġblack board
Ġten ement
Ġtim etable
Ġdisc ount
ule le
Ġat heist
Ġtom orrow
Ġcut let
Ġcut ting
Ġpress urisation
Ġmor on
ache lor
cep t
Ġsav annah
ins urance
Ġfor ay
Ġloc ket
Ġsqu id
ino a
Ġpla ster
Ġphot odiode
Ġfib roblast
Ġcro issant
Ġhar vester
rove ment
Ġoct opus
Ġcamp anile
Ġpor thole
Ġpot ato
asp berry
Ġharm ony
Ġbook let
Ġsoft ware
Ġfla g
Ġpil af
Ġmast ication
Ġauthor isation
Ġfort night
Ġport ion
Ġport rait
aver n
Ġmort ise
rid ine
anda rin
Ġact ivity
Ġfish net
Ġexper t
Ġpoli cy
Ġhospit ality
oot er
Ġcit ron
Ġsen ator
Ġsoci alist
Ġdol phin
Ġcer t
allow een
Ġmoon scape
ced ent
Ġven eer
Ġtechn ology
spir ation
Ġhur t
Ġrac coon
Ġlad le
cont rol
Ġsky line
Ġcharacter istic
outh ouse
Ġtu ssle
Ġdip stick
Ġband width
Ġaccord ance
Ġtort ellini
Ġlip oprotein
Ġbul b
Ġbul k
Ġhyp othermia
Ġperson al
Ġperson nel
just ment
Ġic y
Ġdam n
Ġany thing
Ġemb ryo
Ġsa fe
Ġsail boat
Ġfin al
Ġeli gibility
Ġcook ie
Ġsubsid ence
Ġsubsid iary
Ġsecret ariat
Ġsuc cotash
Ġbid ding
Ġdefe at
Ġext remist
Ġplan et
Ġeffect iveness
bon net
Ġtar o
Ġtar get
Ġpal ate
Ġmail ing
Ġhun ger
Ġscreen writing
Ġnew sp
Ġcounsel ing
Ġsor bet
Ġder rick
Ġfam ily
Ġpoll ution
Ġgre ase
Ġstri pe
Ġval ance
Ġdragon fruit
Ġlabor er
Ġoptim isation
Ġbath house
Ġmou sse
icip ation
Ġwil low
Ġwid th
Ġrh inoceros
Ġopp osition
Ġopp osite
Ġsent iment
Ġmix ture
Ġali en
Ġchop stick
Ġlen gth
Ġposs ible
Ġcapit alism
Ġelect ricity
Ġphys ics
inc idence
Ġfri es
rom edary
Ġresp ite
Ġscal lops
Ġye ast
Ġmarket ing
Ġsan ct
Ġgel ding
Ġran ch
Ġdeb tor
Ġacadem ics
Ġwhole s
Ġsuper iority
Ġcorpor atism
Ġpumpkin seed
cas ion
Ġill ness
Ġsong bird
inoc ulars
loc ation
Ġalm ighty
Ġgran ola
Ġord ination
Ġdownt own
Ġdownt urn
Ġfr action
Ġfr ustration
Ġbit ten
adam ia
Ġcha os
Ġchain stay
Ġimport ance
Ġfree zer
Ġfree zing
Ġpanty hose
Ġring worm
Ġtamb our
Ġsili ca
Ġmater ial
Ġvir ginal
Ġcoff in
Ġacceler ator
Ġphr ase
Ġairf are
Ġcrystal lography
hol der
pant s
uk ulele
Ġox ford
Ġliter ate
Ġpoly ester
Ġreb el
Ġstud y
Ġlever et
Ġplate let
ymph ocyte
Ġephemer a
Ġcandid acy
Ġcitizen ship
Ġcountry side
ndic ate
Ġbrown ie
Ġbenef it
Ġmas cara
Ġgreen house
Ġgraph ic
Ġhair cut
Ġwo nder
adv antage
Ġlun ge
Ġjust ification
Ġjail house
Ġhear th
Ġadvert ising
Ġteen ager
Ġrecep tion
Ġearring s
Ġshel ter
Ġmember ship
Ġcorner stone
Ġmacar oon
Ġdirect ory
Ġdiplo ma
Ġtow el
Ġpap a
Ġber ry
Ġmay be
Ġmatt ress
Ġration ale
Ġbeast ie
Ġrose mary
Ġneed le
Ġuniver sity
Ġopportun ist
Ġaftersh ock
Ġcroc odile
Ġpra ise
Ġguit arist
asht ag
Ġank le
mob iling
Ġske an
Ġsad dle
Ġface lift
Ġfaith ful
Ġcultiv ator
Ġsolic itation
Ġparticip ant
Ġherb s
Ġfolk lore
Ġsensit ive
gli gee
Ġreorgan isation
Ġcover all
Ġhybrid ization
Ġbrass iere
Ġclav ier
Ġinitiali ze
oce ll
Ġpic colo
acqu erware
compet ence
vio li
ephy r
state ment
roll ment
barr assment
SU V
aine e
ajam as
uis ine
apid ation
Ġold ie
odhpur s
Ġcephal opod
enot aph
alape Ã±o
acott a
rover sy
icill in
Ġgins eng
igare tte
utab aga
uphon ium
debe est
congest ant
ptocephal us
Ġbrule e
a is
a uty
b ug
b ale
b ite
c ology
c ision
c ule
d iv
d ock
d ometer
d rum
d iction
f u
f re
f ar
f ore
f iel
f actor
f oot
g low
h an
h olding
i ance
i og
i yak
j o
j oy
k han
l ler
l antation
m at
m ur
n orm
n ob
o x
o sp
o ok
o vation
p on
p ret
p arent
p lain
p rint
p odrome
r un
r ition
r illa
r action
s a
s ell
s alis
s que
t ation
t ler
u let
u ssion
u osity
u ssel
v or
v ium
v iction
v ulet
w ater
w atcher
w asher
w right
x agon
x iety
y alty
z en
Ġ ounce
Ġ ancestor
Ġ outhouse
Ġ ukulele
Ġ SUV
ou rist
Ġt or
Ġt ick
Ġt ake
Ġt anker
Ġt eller
Ġt ackle
Ġt rench
Ġt otal
Ġt rowel
Ġt rolley
Ġt avern
Ġthe rap
Ġn un
Ġn ail
Ġn oon
Ġn oise
Ġn orth
Ġn ourishment
Ġs ac
Ġs ole
Ġs aw
Ġs imple
Ġs lave
Ġs ilver
Ġs uffocation
le ct
in cloth
at ist
at ami
at urge
at hering
ap ot
Ġo dy
Ġo xygen
Ġo dometer
od er
ep e
ep ayer
Ġsleep ing
Ġd ime
Ġd iction
Ġd awn
Ġd how
Ġd ys
Ġd ulcimer
Ġd ugout
Ġd romedary
li ck
li te
li pt
li ef
li ography
Ġf it
Ġf ull
Ġf ang
Ġf rown
Ġf ighter
Ġf elony
Ġf licker
nd o
nd ix
Ġe ra
Ġe ardrum
Ġe uphonium
rink les
er ity
er ential
er rilla
Ġc ot
Ġc ork
Ġc ake
Ġc ave
Ġc ulture
Ġc uckoo
Ġc uisine
Ġc enotaph
Ġc igarette
re s
Ġp air
Ġp ron
Ġp ush
Ġp ink
Ġp iss
Ġp anda
Ġp uzzle
Ġp istol
Ġp orcelain
Ġp ilot
Ġp ajamas
an ut
an ist
en ist
en ity
en na
en cil
st alk
st uffs
Ġb un
Ġb ather
Ġb aker
Ġb ait
Ġb umper
Ġb other
Ġb oundary
Ġb omber
Ġb achelor
Ġb inoculars
Ġm al
Ġm are
Ġm int
Ġm ule
Ġm iter
Ġm ountain
Ġm adam
Ġm akeover
Ġm RNA
Ġm imosa
Ġm andarin
it ulation
it cher
it helium
ac o
ac on
ac her
ac ht
ro ad
ro ck
ro sis
ic ad
ic ety
is in
is closure
ent agon
lo th
Ġg n
Ġg est
Ġg rove
Ġg utter
Ġg opher
Ġg herkin
Ġg athering
as er
as per
as ide
Ġh are
Ġh old
Ġh aze
Ġh ockey
Ġh assock
Ġh alloween
Ġh ashtag
ce nd
om it
Ġw ill
Ġw oman
Ġw inter
Ġw rist
Ġw riter
Ġw rong
et ate
et ics
et ah
el ance
el ab
el ace
am in
am el
am ate
am bo
am ination
ri um
ri gg
ad pole
Ġre al
Ġre ward
Ġre design
ot any
um bo
um ism
um enist
ch ard
ch amber
ge nd
Ġin ability
Ġin box
Ġin quiry
Ġin convenience
Ġin spiration
ss et
ur ion
Ġst aff
Ġst rait
se mination
ter ation
id ian
Ġv end
Ġv ern
Ġv ista
ut ant
ut ney
ut iny
ant ity
Ġa id
Ġa rena
ve y
Ġch alk
Ġch oice
Ġch icory
Ġch ateau
Ġr ate
Ġr ice
Ġr aspberry
Ġr utabaga
op eration
Ġcon nection
Ġcon crete
Ġsp it
Ġsp ork
Ġsp ell
Ġsp asm
Ġsp elt
Ġsp ruce
Ġsp inach
ard iog
Ġde scription
Ġde congestant
oc ode
oc cer
Ġl ust
Ġl arva
Ġl uggage
Ġl ymphocyte
Ġl acquerware
her al
Ġj acket
Ġj ury
Ġj uice
Ġj odhpurs
Ġj alapeÃ±o
ip heral
Ġsh ot
Ġsh awl
Ġsh utdown
Ġsh akedown
Ġsh rimp
ass ination
ry salis
sp ection
sp erity
ub ation
ort al
Ġpro portion
Ġpro genitor
ed ition
ed ding
ast ronomy
Ġcom ics
Ġcom eback
ag na
em ale
em pt
ure au
Ġex hibition
Ġex cursion
Ġhe lo
Ġhe ll
Ġhe yday
Ġle arning
Ġle opard
Ġle ptocephalus
Ġk iller
ie ge
Ġsc he
Ġsc out
Ġsc ooter
iv ist
ug ato
de ss
act us
Ġco ke
Ġco hesion
if th
ib liography
Ġan orak
Ġse ep
Ġse wer
Ġse same
Ġse abass
Ġse agull
Ġbo ard
Ġbo lero
Ġal loy
Ġal lu
Ġal liance
arm igan
Ġtr ust
Ġtr illion
ress ive
ain s
Ġra wh
Ġra zor
Ġra violi
are l
are st
Ġdis co
Ġdis charge
let ion
sc ent
sc ue
ok ing
av el
av oc
ick sand
ber g
ber ty
Ġlo b
Ġlo tion
Ġlo yalty
Ġth orn
Ġth igh
Ġth umb
Ġth ickness
Ġth anks
Ġro ar
Ġro pe
Ġro maine
Ġro ller
Ġad option
Ġad justment
low ing
be ing
be liever
Ġla st
ud iment
Ġqu ery
Ġqu otation
Ġqu iet
Ġqu ota
Ġqu inoa
iz ure
con s
ire ty
Ġcol d
Ġpl anning
Ġpre occupation
Ġen vy
Ġen ergy
Ġen rollment
row th
ph alt
Ġy awl
Ġcr ush
Ġcr icket
Ġcr epe
lic it
Ġcar go
Ġcar rot
Ġcar abao
ee ch
ale ct
Ġem barrassment
Ġcont rast
Ġcont roversy
Ġman atee
ron ome
Ġcl apboard
Ġne gligee
Ġpar ade
Ġpar sley
Ġper ch
Ġdi gestion
Ġsub title
Ġsub marine
ster y
amp um
Ġpe w
Ġpe ach
Ġpe asant
Ġpe lican
Ġcre me
Ġar ray
Ġche ek
ach ometer
Ġgr atitude
Ġmar gin
Ġmar athon
Ġsn ob
Ġsn uggle
Ġbl ame
Ġinter val
Ġinter face
cre ation
uc umber
cl ub
Ġso liloquy
Ġho se
Ġho ok
Ġrep lacement
urn ame
Ġimp rovement
Ġpat ient
eter mination
Ġbr unch
Ġbr acket
Ġout law
Ġout back
Ġout rage
Ġz oo
Ġz oot
Ġz ampone
Ġz ephyr
Ġtra il
ump et
pl ant
ush ka
Ġma rine
Ġma iden
Ġma estro
Ġinf inite
Ġsur prise
Ġri de
Ġant igen
Ġcap tain
Ġsho far
Ġair craft
che n
che mia
Ġmon ger
Ġmon opoly
old ier
Ġgu ide
Ġgu ilt
Ġgu ava
end ing
ection ery
Ġover weight
Ġover sight
cess ity
Ġam ount
Ġsup pression
Ġsup porter
Ġdep artment
Ġapp lause
Ġcur l
Ġmot ive
Ġmot ivation
Ġatt ic
az oo
Ġun ion
Ġun ity
Ġun ibody
roc ardiog
aff le
Ġunder neath
Ġarm or
Ġref und
Ġkn uckle
Ġab undance
Ġfe ature
Ġfe eling
Ġgl ory
Ġchar ge
Ġob jection
Ġob edience
Ġcat sup
Ġcat amaran
ob bler
ond isclosure
Ġhand ful
Ġpass ive
str ate
Ġep ee
Ġcor ruption
Ġcor ral
Ġdec ade
Ġdec oration
Ġgrand child
Ġgrand mom
Ġcons ent
Ġcons ul
Ġcons ulting
gu ard
gu ise
ex pression
Ġhyd rant
kin i
mon ger
yn x
Ġpen icillin
Ġag reement
gh um
Ġtri al
Ġtem p
Ġtem per
Ġtem po
Ġsm elting
len ook
Ġback ground
Ġback burn
Ġind igence
Ġconf erence
gin a
Ġcy linder
Ġele ction
irt ue
Ġsnow man
Ġsnow storm
Ġsnow flake
Ġsnow plow
Ġsnow mobiling
oke nd
use ment
ons ai
ons ibility
Ġpast ure
pro sy
Ġver dict
es is
Ġdet ection
Ġdet ainee
Ġbu rial
Ġinv itation
lish ing
Ġnight life
Ġed iting
Ġform er
Ġeff ic
Ġcan al
Ġpart icle
Ġbri dge
Ġhard ening
Ġres ult
unch back
cer t
met ic
Ġsy ndicate
Ġev olution
Ġev ocation
gl ar
Ġinc ision
tern oon
Ġtw ist
Ġnot epad
Ġsch ooner
atin um
Ġint estine
Ġly rics
Ġly ocell
Ġtur ban
les que
Ġdown stairs
Ġend point
Ġcart oon
Ġcart ridge
Ġtim er
Ġbre ath
Ġmac adamia
Ġdisc ourse
Ġtom ography
head ing
Ġfor gery
Ġcand y
Ġblo cker
Ġarch ives
ess ion
Ġca fe
Ġpan el
Ġrev ascular
Ġrev olver
Ġvol cano
Ġphot oreceptor
dis covery
Ġsom eplace
Ġsom ebody
Ġbag gy
Ġbag gage
Ġcro ok
vest ock
ten sion
Ġsem ester
Ġcommun ist
sych iat
Ġspec ies
tle neck
uri an
Ġdist rib
Ġdist ortion
Ġpor ter
omb ie
Ġdisp osition
Ġdisp oser
Ġsl apstick
Ġwind age
aph rag
Ġinst ance
Ġinst itute
Ġrain y
Ġrain bow
Ġtext book
Ġtext ual
aver sack
Ġdog wood
Ġdog gie
Ġfun eral
elli on
elli te
elli gence
gest ive
Ġstat ute
Ġlat ency
Ġcrew men
Ġson net
ith metic
ellow s
Ġdev astation
Ġhospit alization
Ġtransp arency
Ġmotor boat
Ġis land
Ġis olation
Ġcit rus
Ġtele screen
Ġtele vision
Ġher ring
Ġfil ter
Ġcer emony
Ġpup il
Ġpup py
Ġmag nitude
Ġvis a
Ġmoon shine
Ġest ate
ced ure
Ġred head
Ġang strom
Ġcolon ization
bl inking
bl adder
Ġset ting
Ġfro ck
Ġcra ft
Ġcirc uit
Ġemploy ment
Ġside board
Ġbase board
Ġbott ling
ason ry
Ġinstr uctor
Ġlad y
Ġcred it
Ġcred itor
Ġtu ition
Ġtu lip
Ġcas hew
Ġcust ody
Ġbas ics
Ġbas eline
Ġmic ronutrient
Ġmile post
Ġglo ve
Ġcomb ination
awn shop
Ġaccord ion
Ġlip id
Ġvi olation
Ġic on
Ġmain stream
Ġwal rus
Ġemb assy
Ġamb ition
Ġwood chuck
Ġdem and
Ġship per
Ġcontr ary
Ġsubsid y
Ġsurround s
Ġeyeb all
Ġjewel ler
Ġemerg ent
ient ist
pat itis
Ġtro mbone
Ġcam per
Ġprem ier
Ġcele ry
Ġtax payer
Ġpal m
Ġhun ting
Ġharmon ize
inder box
Ġday bed
Ġgre ed
Ġstri ke
Ġchap ter
Ġrub y
Ġbox er
Ġthunder storm
Ġpost box
Ġdragon fly
Ġnest ling
Ġlie u
Ġlie utenant
Ġwil debeest
Ġboat load
Ġboat yard
Ġalb atross
Ġrad ish
Ġterr acotta
Ġquestion er
Ġquestion naire
Ġsli ce
Ġsent encing
Ġple dge
Ġmant el
Ġmant ua
Ġgovern or
Ġgovern ment
impan i
Ġassist ance
Ġcouncil or
Ġphys ical
ec ution
Ġtype face
Ġdoll ar
Ġfig urine
Ġcow bell
Ġcow boy
Ġcup ola
Ġmap ping
Ġrem ark
Ġstop watch
Ġvac uum
Ġvest ment
Ġexam iner
Ġhel lo
Ġearth quake
Ġow l
Ġengine er
Ġchem istry
Ġhydroly sis
Ġkeep er
Ġdynam ite
drop per
Ġnood le
Ġfed elini
Ġpun ishment
Ġplier s
Ġbat htub
Ġwet land
Ġded uce
Ġscen ery
Ġscrew driver
Ġgrad uation
Ġframe work
Ġorigin ality
Ġoc casion
Ġess ay
Ġbill ing
Ġmos quito
Ġstate ment
Ġspread sheet
Ġdecl ination
Ġki wi
Ġparam edic
Ġpatrol ling
Ġinnoc ence
Ġlegisl ature
Ġtamb ourine
Ġsili con
Ġfront ier
Ġmater nity
Ġrecess ion
Ġvir us
Ġvine yard
Ġprot ocol
Ġcoff ee
Ġacceler ant
Ġphr asing
Ġairf ield
abo on
ilet to
Ġsill y
Ġpul se
Ġpul ley
Ġmil let
Ġmil lennium
Ġgaff e
Ġgaff er
Ġlamb kin
ogen ate
ogen esis
Ġray on
Ġmarsh mallow
Ġadminist ration
Ġadminist rator
Ġcraw dad
Ġmust ache
Ġmach inery
Ġsponsor ship
Ġlong boat
Ġscr atch
Ġperf ection
Ġdrive way
Ġmicro phone
Ġketch up
Ġsyn od
Ġduck ling
Ġpard on
Ġpepper oni
sser t
Ġchip munk
abet es
Ġteam mate
Ġcompass ion
Ġcriter ia
Ġneon ate
Ġexperiment ation
Ġtoothp ick
Ġtroop er
lat an
Ġsaf ari
Ġesc alator
Ġcel lo
Ġcrow d
Ġball park
chid na
Ġinsect arium
Ġdeli beration
Ġbob cat
Ġtrou ble
Ġpoison ing
Ġplat form
Ġenter tainment
Ġassoci ation
Ġcorrespond ence
Ġhydrocarb on
Ġlabour er
Ġpartner ship
Ġarchae ologist
Ġmaster piece
Ġdemoc racy
Ġbehav iour
Ġweeke nder
Ġastrolog y
mem ber
vis or
Ġdil apidation
Ġcoc oa
Ġpy ridine
Ġhist orian
Ġrel ative
Ġvault ing
Ġshirt dress
Ġrandom ization
Ġachie ver
Ġbrick laying
Ġphilosop hy
Ġtempt ation
Ġvolunte ering
Ġbutter fly
Ġdevelopment al
Ġnumer ic
Ġfisher y
Ġlif etime
Ġpir ate
Ġgi raffe
Ġhop s
Ġlard er
Ġcoord ination
Ġgener osity
Ġindust ri
Ġprincip al
Ġidi ot
jud ice
Ġident ity
lig ator
Ġmam moth
Ġru in
Ġanesthes iology
Ġsolid arity
prod ucer
gn ancy
glo ve
habit ant
mel on
Ġpeac ock
oz ie
vin ist
ourage ment
arr ative
ais y
fiel der
iyak i
osp hate
sell or
Ġtor so
Ġody ssey
Ġdys function
lipt ic
enna e
icad a
Ġgest ure
asper ation
elab ra
rigg ler
umism atist
Ġvend or
Ġvern acular
Ġallu vium
Ġrawh ide
Ġmarine s
rocardiog ram
aphrag m
C D
a em
a ob
b ra
b ol
b ish
b ian
b bi
b ana
b ench
b irth
b urst
c ul
c op
c are
c ue
c ino
d ar
d et
d ler
e o
e at
e ar
e al
e nder
e ign
f ighter
g ory
g board
g net
h ort
h og
h icle
h ost
h opper
i ar
i ol
i asm
j oke
k art
k aze
l ac
l as
l ord
m acy
n s
n iv
n ition
n ings
n ival
n ote
n nel
n icity
o ve
o xy
o xygen
p om
p us
p lier
s in
s ay
s ench
s now
t w
t ap
t im
t elling
t armigan
u ro
u able
u cose
v ol
v iation
w ich
w urst
x us
y ond
y ote
Ġ urn
Ġ actor
Ġ urge
Ġ issue
ou st
ou ter
Ġt an
Ġt ie
Ġt ower
Ġt une
Ġt ourist
Ġt atami
Ġt aco
Ġt adpole
Ġt achometer
Ġt inderbox
Ġt impani
he st
he ast
Ġthe ory
Ġthe ism
Ġn icety
Ġn ondisclosure
Ġn arrative
Ġn umismatist
Ġs ip
Ġs ick
Ġs ink
Ġs ense
Ġs lope
Ġs ector
Ġs itar
Ġs loth
Ġs occer
Ġs iege
Ġs urname
Ġs oldier
le o
le v
le dge
le logram
in th
at ivity
at ura
at wurst
ap on
ap se
ap pointment
Ġo ak
Ġo mission
Ġo leo
od iment
od ka
ep hew
ff ee
ff iti
Ġd ate
Ġd rop
Ġd arn
Ġd etermination
Ġd urian
Ġd aisy
li hood
li sation
Ġf ile
Ġf ax
Ġf orce
Ġf lower
Ġf iery
Ġf emale
Ġf ugato
Ġf ifth
nd l
nd ar
nd ency
nd rome
nd ulum
Ġe ase
Ġe tern
Ġe licit
Ġe chidna
ke ter
Ġli berty
Ġli vestock
Ġeat ing
on ia
on eline
on ette
Ġc ation
Ġc age
Ġc em
Ġc ue
Ġc rop
Ġc able
Ġc rib
Ġc rown
Ġc lipper
Ġc attle
Ġc actus
Ġc ucumber
Ġc icada
re a
Ġp ud
Ġp light
Ġp ause
Ġp entagon
Ġp awnshop
Ġp tarmigan
ar ate
ar ance
ar ction
ar ison
ar osc
an er
an ner
en on
en ic
en sion
en uation
or us
or ice
st e
st ri
st ronomy
Ġb uck
Ġb ush
Ġb ower
Ġb arium
Ġb acon
Ġb otany
Ġb ureau
Ġb ibliography
Ġb onsai
Ġb ellows
Ġb aboon
Ġm ale
Ġm atter
Ġm ode
Ġm illi
Ġm ussel
Ġm asonry
it her
it ting
al lot
al lelogram
ing le
ac ing
ac us
ac emaker
ac inth
ic ab
ic os
ic let
ic ular
ic ama
ic iary
ent ist
lo phone
Ġg er
Ġg em
Ġg ather
Ġg ong
Ġg len
Ġg olf
Ġg avel
Ġg rowth
Ġg obbler
Ġh ood
Ġh ash
Ġh ire
Ġh aste
Ġh utch
Ġh unchback
Ġh aversack
ra ut
om enon
Ġw age
Ġw ake
Ġw atcher
Ġw asher
Ġw edding
Ġw ampum
Ġw affle
Ġw riggler
il arity
am on
am us
am ph
ri x
ri de
ad ise
ad ium
ad iol
Ġre ality
Ġre ef
Ġre veal
Ġre scue
ot ch
ot hesis
ot amus
um quat
um onia
ch ure
ch illa
ch itis
Ġin scription
Ġin come
Ġin sert
Ġin competence
Ġin spection
Ġin habitant
ss ip
ur acy
Ġst em
Ġst ay
Ġst ore
Ġst able
Ġst arter
Ġst encil
Ġst itcher
Ġst iletto
un cture
la by
ir ndl
Ġv ane
Ġv ascular
Ġv omit
Ġv irtue
ig uration
ant ime
im ity
im ony
im ension
us arium
us iasm
Ġa v
Ġa unt
Ġa stra
Ġa rea
Ġa stronomy
ve ler
qu ency
Ġch art
Ġch ill
Ġch ick
Ġch asm
Ġch amber
Ġch utney
Ġch rysalis
ul se
ul ty
Ġr ace
Ġr ye
Ġr udiment
op le
op sy
ate gory
Ġcon version
Ġcon notation
Ġcon cept
Ġcon viction
ow l
Ġsp ice
Ġsp ouse
Ġsp ade
Ġsp oon
Ġsp ree
Ġsp awn
Ġsp lit
Ġsp rinkles
Ġsp eech
Ġsp ending
Ġde ck
Ġde mon
Ġde stro
Ġde formation
Ġde aler
Ġde arest
Ġde ssert
oc rine
oc cas
Ġl ack
Ġl ark
Ġl ode
Ġl ament
Ġl ynx
Ġj et
Ġj ot
Ġj oke
Ġj umbo
th ouse
th ought
ali tion
Ġsh ade
Ġsh oulder
ass el
ry lic
sh ake
ab e
ab ase
ab lishment
sp in
sp ring
sp erm
Ġpro tein
Ġpro sperity
Ġpro cedure
ed e
ed itation
ast ity
ag us
ag ination
ag rant
ag anda
est ival
est imate
up uncture
Ġex c
Ġex it
Ġex ception
Ġex pose
Ġex ecution
Ġex asperation
Ġhe xagon
Ġhe patitis
Ġle ad
Ġle af
Ġle vel
Ġle gend
Ġle prosy
ay ak
Ġk azoo
ne umonia
art ender
Ġsc rip
Ġsc ientist
out heast
de x
Ġco aster
Ġco insurance
Ġco incidence
Ġco sset
og rap
og ue
og nition
our ce
Ġan archy
Ġan xiety
Ġan gina
ili on
Ġse ason
Ġse izure
Ġbo okend
Ġal arm
Ġal to
Ġal location
Ġal teration
Ġal ligator
Ġtr out
Ġtr umpet
ail y
Ġbe verage
Ġbe liever
Ġbe auty
Ġbe heading
Ġra m
Ġra ke
Ġra ven
Ġra di
Ġra isin
are crow
Ġdis ruption
Ġdis advantage
Ġdis semination
Ġdis guise
ger na
sc ious
sc raper
av ilion
Ġac re
Ġac etate
ber y
Ġlo t
Ġlo ss
Ġlo ver
Ġlo ve
Ġlo quat
Ġlo incloth
Ġth yme
Ġth ief
Ġro of
Ġad dition
Ġte nder
Ġte apot
Ġte acher
Ġqu antity
Ġqu icksand
ise ment
iz on
Ġpo ol
Ġcomp onent
Ġcomp any
Ġcomp laint
Ġcomp letion
con y
ign ity
Ġcol t
Ġcol umn
ork nob
Ġpl atinum
Ġpre sid
Ġpre servation
Ġpre sent
Ġpre fix
Ġpre judice
Ġpre gnancy
Ġen quiry
Ġen gagement
Ġme adow
ph ant
Ġy ak
Ġy ang
Ġy acht
Ġcr it
Ġcr ust
Ġcr acker
Ġcou gh
Ġcou pon
Ġcar ol
Ġcar ry
Ġcar bon
Ġcar pet
Ġcar rier
Ġfo al
ale ndar
Ġem ission
Ġcont ention
Ġman go
Ġap ology
Ġap artment
Ġcl ue
Ġcl asp
Ġcl arification
orn ing
Ġsw ath
ser ve
ser ves
Ġto ilet
Ġto fu
Ġne cessity
Ġpar rot
own er
Ġper ception
Ġper ipheral
Ġdi aper
Ġdi agram
Ġdi arist
Ġdi alect
Ġdi gestive
Ġdi abetes
Ġdi aphragm
Ġsub ject
Ġsub component
ile ge
ile nce
ole ster
ole ns
Ġpe ony
Ġpe ndant
Ġpe anut
Ġcre ature
Ġar ithmetic
Ġche etah
pt om
ach ment
Ġgr anny
eb ird
Ġmar ch
Ġmar ker
Ġsn ail
Ġbl adder
Ġinter est
Ġinter action
Ġinter view
uc ket
uc co
uc cino
cl amp
Ġso ap
Ġso il
Ġso fa
Ġrep air
Ġrep utation
Ġrep ayment
Ġimp lement
Ġmo ose
Ġcomm erc
Ġwh istle
Ġpat tern
Ġpat roller
eter y
eter an
Ġout put
Ġout rigger
Ġout fielder
Ġfl uke
Ġph osphate
ame o
ind ing
au lif
Ġz o
Ġz en
Ġz ero
Ġz ombie
Ġtra y
ier archy
pl ug
pl ane
ric ide
Ġor ator
Ġma ize
Ġinf o
Ġinf ix
Ġter iyaki
Ġsk iing
Ġsur ge
Ġsur vey
Ġri der
Ġri fle
Ġri vulet
Ġant ibody
Ġant icipation
Ġant ennae
Ġcap tor
Ġsho emaker
Ġsho elace
Ġbar itone
ann a
ann abe
Ġwe ar
Ġwe ight
Ġwe ather
Ġwe alth
Ġair ship
Ġair line
che e
che onette
Ġmon k
Ġclo se
Ġclo th
Ġclo sure
Ġclo thing
Ġpr act
Ġgu y
Ġgu errilla
uff le
uff el
Ġover charge
Ġover coat
Ġdra wer
Ġpri mary
cess or
Ġam enity
Ġam usement
Ġdep ressive
ong o
Ġass assination
az z
az on
Ġun ique
Ġun blinking
Ġexp ort
Ġexp ense
Ġcoun sellor
roc ery
aff old
Ġunder pants
Ġunder statement
Ġacc uracy
ven ue
Ġas cend
Ġas phalt
Ġarm our
Ġdiv an
Ġkn itting
Ġmis understand
Ġfe w
Ġgl ass
Ġgl ue
Ġgl asses
Ġchar latan
Ġreg ard
Ġhand gun
Ġfre on
Ġfre elance
Ġpass word
str um
Ġep onym
Ġep ithelium
Ġsun set
Ġsun bonnet
Ġdec oder
Ġgrand son
Ġgrand father
Ġmet ric
Ġmet ronome
rit ter
Ġve in
Ġve il
gu in
Ġpant ies
ular ity
ject or
tr uck
tr ans
Ġgen etics
Ġag let
Ġag ony
Ġtri m
Ġtri be
Ġsm ock
Ġsm ile
Ġsm olt
we et
Ġconf idence
Ġconf ectionery
Ġcy cle
iss ance
iel bas
Ġfoot wear
Ġwork force
Ġwork place
Ġele ment
io sperm
ley ball
Ġsal t
Ġsal mon
Ġpast ry
Ġwar rant
Ġwar ning
Ġadv ent
Ġadv iser
Ġadv antage
ai ler
Ġtrans lation
Ġwater skiing
Ġver b
Ġver se
spect or
Ġear nings
Ġshe et
Ġcal f
Ġbal ance
Ġaf ternoon
Ġhead light
Ġgood ie
Ġgood night
Ġgood will
Ġhom ogenate
Ġhard ship
Ġhard hat
Ġemp ire
cer pt
cer tainty
Ġlog istics
Ġev ent
pen sion
Ġinc ident
Ġinc ubation
Ġtw ine
Ġnot e
Ġint uition
Ġint elligence
Ġly e
cur d
cur ren
Ġpop ulation
Ġge ology
tain er
Ġdri zzle
Ġdown load
Ġbi ology
Ġbi kini
Ġblack berry
ost at
ost or
Ġten et
Ġten ant
Ġtim ing
Ġtim bale
Ġser mon
Ġban gle
Ġban jo
Ġprog ression
Ġdisc ussion
Ġke ndo
Ġcent urion
Ġpress room
Ġmor ale
ah oo
lu k
tor ic
Ġsav ory
Ġsav ior
Ġfor age
Ġcand elabra
Ġblo od
Ġloc ation
Ġup stairs
ino x
Ġbur st
Ġbur glar
Ġbur lesque
Ġphot ography
ous aphone
Ġtre k
Ġtre asure
Ġste el
Ġfib rosis
Ġhouse work
Ġhouse wife
Ġhouse hold
Ġcong a
Ġcolle ction
Ġcolle ague
force ment
ple ment
Ġsem inar
hib itor
uri zation
Ġcle at
Ġcamp us
Ġprin ce
Ġpot ential
omb at
Ġbook mark
Ġdisp ute
Ġsl ate
Ġfla vor
Ġbird house
Ġmod em
Ġmast oid
Ġwind screen
Ġafter life
gg ar
Ġfort e
Ġfort ress
Ġbra in
asc ade
Ġweb mail
Ġinst itution
Ġrain maker
Ġprod uce
mit ter
Ġec umenist
Ġec liptic
Ġmed al
Ġstat istics
Ġlat he
Ġlat itude
Ġkit chen
aze ment
Ġact ress
Ġact ivist
Ġfish ing
Ġgo ing
ami kaze
Ġinn ovation
Ġdev iance
Ġheart ache
Ġland form
Ġcheck ing
Ġtransp lantation
Ġmotor car
Ġis chemia
Ġhum or
Ġhum idity
Ġvari ant
Ġvari able
Ġboot ie
Ġlaw maker
Ġsen ate
Ġsoci ety
Ġdol lop
Ġpath ology
Ġpath ogenesis
Ġmag ic
Ġmag got
allow s
Ġvis it
Ġmoon light
Ġice cream
Ġice berg
Ġsand paper
Ġhat box
Ġmess y
Ġclass ification
Ġtechn ique
ike bana
Ġset tler
Ġcra zy
Ġplay ground
Ġplay wright
Ġmer it
Ġmer idian
Ġhigh light
Ġswe ater
Ġveget ation
Ġemploy er
xy lophone
Ġside walk
Ġent irety
Ġbase ment
Ġbase ball
Ġlad der
Ġprose cutor
cont amination
Ġflo ozie
Ġcod piece
Ġrest oration
nee ze
Ġcount ess
Ġante cedent
Ġcalc ulation
Ġtort e
Ġtour nament
Ġfol lowing
Ġcour thouse
Ġpsych iat
Ġjun ket
Ġthr ill
Ġtooth brush
do ir
rat ricide
Ġdig ging
Ġgod dess
Ġshort wave
Ġany one
Ġany body
Ġmajor ity
zy me
Ġus her
Ġsail ing
Ġpig pen
Ġpig sty
Ġrese archer
Ġship ping
Ġcook book
Ġweed killer
Ġturn ip
Ġoat meal
Ġcli mb
Ġcam el
Ġbid et
Ġprov idence
Ġext inction
Ġmeat loaf
Ġorgan ising
Ġbrief s
Ġbrief ing
Ġbrief ly
cip itation
Ġkey boarding
Ġpal ace
Ġpad dle
Ġhun ter
Ġenc ouragement
Ġing lenook
Ġsor ghum
Ġday light
Ġpoll utant
Ġwhe y
Ġlap dog
ific ate
Ġcounter part
Ġcounter terrorism
Ġimm igrant
Ġnest mate
Ġnorm alization
Ġsum mit
Ġbath room
Ġmy stery
Ġmou ser
Ġwid ow
ande lier
Ġrad ar
Ġrad io
vit able
Ġsli de
Ġdon ation
Ġlit tleneck
erk raut
Ġmix er
Ġwalk ing
Ġwalk way
Ġstory board
Ġvel vet
Ġchop s
Ġrat epayer
Ġshop ping
Ġposs ession
Ġgrass land
Ġcapit al
Ġaccount ing
Ġdoor way
Ġelect rocardiogram
Ġpilgrim age
gi enic
tra de
Ġtent acle
Ġbron co
Ġbron ze
Ġwee k
Ġrem ains
Ġresp onsibility
Ġvit ality
Ġvit amin
Ġchron ometer
Ġhel p
Ġking fish
Ġsequ ence
Ġshoe horn
Ġtherm als
Ġsan ity
Ġfir eplace
Ġfarm ing
Ġpit a
Ġreli ef
Ġreli ability
Ġchem ical
Ġpriv ate
Ġcorpor ation
Ġmeth ane
Ġhydroly se
burn s
Ġpub lishing
Ġmut ton
ircle ment
Ġjelly fish
aint ance
Ġdraw ing
rout ine
Ġsug gestion
Ġess ential
Ġbab ushka
Ġmatch maker
alou sy
Ġhip podrome
Ġhome work
Ġhoney dew
Ġspoke sman
Ġlas agna
Ġki logram
Ġcontrib ution
Ġreport ing
Ġdepend ent
Ġappet ite
Ġappet iser
Ġjourn alist
uli st
Ġsin uosity
Ġsat ellite
Ġcann on
Ġpod cast
Ġpag oda
Ġgum shoe
Ġprost anoid
astrop od
Ġcompet itor
Ġcomplex ity
Ġneighb or
Ġdiff use
Ġdiff erential
Ġinflu x
Ġglut amate
Ġgrandp arent
Ġcampaign ing
Ġinstrument ation
abo lite
uk luk
Ġliter ature
Ġpoly p
Ġreb ellion
Ġrum or
ocol ate
Ġheir loom
Ġsculpt ing
Ġappe ndix
Ġswitch board
Ġfeed back
Ġephemer is
Ġcandid ate
Ġfrost ing
Ġnation ality
Ġfood stuffs
Ġeaves dropper
Ġlist ening
reg ard
Ġbrow ser
Ġmust ard
Ġmach ine
Ġwave form
Ġlong itude
Ġscr utiny
Ġperf ume
Ġbrand y
Ġmicro lending
Ġslipper s
aton in
Ġeag le
Ġeag let
Ġcivili sation
Ġplow man
Ġbroc olli
Ġbroc coli
Ġbomb ing
Ġwait ing
Ġvent i
Ġvent ure
Ġvet o
Ġconcent ration
Ġconcent rate
Ġprob ation
Ġprob ability
Ġloaf er
Ġmeasure ment
Ġregion alism
Ġretrospect ivity
Ġbuy ing
Ġscholar ship
Ġcircum ference
Ġcircum stance
pop otamus
tic aem
Ġtank ful
leg al
lend or
app iness
Ġdan cing
Ġpolar isation
Ġmir acle
Ġmole cule
Ġhot dog
ilant hrop
cho vy
Ġstone work
Ġdeath watch
Ġprox imal
Ġhero ine
Ġanalog y
Ġaccess ory
Ġlaug hter
Ġgear shift
Ġserv itude
Ġtablet op
Ġdoub ter
Ġeyelid s
Ġtact ile
Ġdom ination
Ġfurn ace
Ġer aser
Ġpseud ocode
Ġblog ger
Ġmist ake
Ġmass age
rog ance
Ġdesign er
Ġshare holder
emp loyment
Ġalph a
Ġaccomp anist
conf idence
Ġbarbe que
Ġappro val
vari ate
Ġnick name
Ġdram aturge
Ġecon omy
Ġeval uation
Ġchamp ion
Ġchau vinist
Ġbegin ner
Ġbrace let
Ġflat boat
Ġconsist ency
Ġbroad cast
Ġdoctor ate
Ġorient ation
inn amon
Ġoce an
Ġdest iny
thr ough
Ġpatri ot
Ġelev ator
Ġspecial ty
Ġpicture sque
Ġgrip per
Ġvot er
Ġrug by
emb odiment
Ġspeaker phone
Ġutili zation
Ġneighbour hood
Ġoffic ial
Ġthong s
clock ing
gran ate
joy ment
pret ation
ambo o
sychiat ry
aob ab
eign ty
niv ore
sench yme
uro y
atura lisation
Ġetern ity
oneline ss
Ġcem etery
arosc ope
icos anoid
amph let
adiol us
Ġastra khan
Ġdestro yer
occas ins
ograp her
gerna ut
olester ol
Ġcommerc ial
aulif lower
ielbas a
Ġpsychiat rist
ticaem ia
ilanthrop y
a ur
a ire
a ft
b a
b u
b ud
b ridge
b olt
c am
c ir
c age
c ern
d ity
d ug
d dar
e rin
e vitable
f ight
f light
f action
g or
g ate
g and
g ood
g ia
h om
h ard
h ole
h usband
i ality
i ency
j e
k on
l p
l ance
l lip
l lis
m ac
m id
m nivore
n y
n sp
n ia
n ighter
o vel
o lier
p rop
p edia
r il
r ange
s en
s ine
s bo
s ite
s icle
s itation
s ius
s bian
u x
v ity
v ast
v ency
v ark
w og
w ire
x ism
y pus
Ġ use
Ġ CD
Ġ ikebana
Ġ xylophone
Ġt ic
Ġt ough
Ġt ilt
Ġt ote
Ġt ouch
Ġt akeover
Ġt issue
Ġt epee
Ġt assel
he it
he ism
Ġn ob
Ġn ose
Ġn umber
Ġn oir
Ġn ymph
Ġn ickel
Ġn ephew
Ġn aturalisation
Ġs ir
Ġs ard
Ġs ari
Ġs law
Ġs lot
Ġs eparation
Ġs oda
Ġs herry
Ġs outheast
Ġs ilence
Ġs ousaphone
Ġs neeze
le en
in j
in ct
in ase
at us
at omy
at illo
at ural
ap ple
ap lane
ap itulation
Ġo ar
Ġo ven
Ġo val
Ġo sm
Ġo meg
Ġo mnivore
ep age
Ġsle et
Ġoff ense
Ġd ad
Ġd ue
Ġd ud
Ġd ock
Ġd ose
Ġd ream
Ġd uration
Ġd uty
Ġd entist
Ġd irndl
Ġd imension
Ġd aily
Ġd ignity
Ġd uffel
li ct
li ment
Ġf iction
Ġf ellow
Ġf lick
Ġf iclet
Ġf usarium
Ġf estival
Ġf inding
Ġf ritter
Ġf ratricide
nd ue
Ġe el
Ġe jector
Ġe icosanoid
ke nsp
Ġli ar
Ġli ly
Ġli mo
Ġli tter
Ġli lac
Ġli gand
rin et
rin ge
rin ter
Ġlike lihood
on ut
on ics
on ier
er ib
er ole
er eo
Ġc ym
Ġc uff
Ġc lip
Ġc ilant
Ġc addy
Ġc ategory
Ġc alendar
Ġc ameo
Ġc ascade
Ġc innamon
Ġc auliflower
re f
re ciation
Ġp ence
Ġp ower
Ġp ike
Ġp iety
Ġp uggle
Ġp acemaker
Ġp neumonia
Ġp avilion
Ġp amphlet
ar ant
ar oo
ar erib
ion berry
an berry
en gagement
or s
or iety
st ache
Ġb in
Ġb ail
Ġb light
Ġb orrow
Ġb less
Ġb order
Ġb lend
Ġb artender
Ġb ucket
Ġb ongo
Ġb amboo
Ġb aobab
Ġm ound
Ġm ur
Ġm ug
Ġm aking
Ġm ama
Ġm orning
Ġm ukluk
Ġm occasins
it ure
it if
it zer
al o
al ow
ac ity
ac co
ac ier
ac ode
ro ach
ro gen
ic a
ic cup
is ode
is faction
ent h
ent r
ent er
lo ping
Ġg ain
Ġg land
Ġg asket
Ġg ift
Ġg ander
Ġg astronomy
Ġg rocery
Ġg astropod
as ab
Ġh it
Ġh og
Ġh ive
Ġh avoc
Ġh ierarchy
Ġh appiness
ra de
ra me
ra ising
ce ndant
om nia
Ġw ound
Ġw ok
Ġw ick
Ġw aiter
Ġw iring
Ġw olf
Ġw annabe
Ġw ombat
il legal
el horn
am er
am ics
ri gation
ad illo
ad ril
Ġre ar
Ġre ject
Ġre set
Ġre na
Ġre boot
Ġre discovery
Ġre serve
Ġre amer
ot ype
ot helium
ch ime
ge ance
Ġin dex
Ġin spector
Ġin hibitor
Ġin evitable
ur ch
ur ger
ol asses
ol lection
ol vency
Ġst ing
Ġst ot
Ġst ress
Ġst ill
Ġst rap
Ġst ick
Ġst ring
Ġst ump
Ġst itch
Ġst inger
Ġst rate
Ġst robe
Ġst ove
Ġst adium
Ġst ucco
Ġst ereo
ct rine
ct uation
se e
ter acy
id ase
un a
un ion
un ger
la va
la imer
Ġv ali
Ġv ase
Ġv ision
Ġv oice
Ġv odka
Ġv agrant
Ġv eteran
ut an
ant ics
im eter
im ba
ist ing
us ader
Ġa im
Ġa we
Ġa ward
ver b
ver ity
ver sation
ver eignty
qu et
qu ette
Ġch o
Ġch ow
Ġch ord
Ġch ime
Ġch ino
Ġch alice
Ġch ief
Ġch orus
Ġch astity
Ġch andelier
Ġch ocolate
Ġch olesterol
ul ke
ul ance
Ġr uling
Ġr outer
Ġr uffle
op ter
ate x
Ġsp ill
Ġsp ume
Ġsp ray
Ġsp here
Ġsp rag
Ġsp lendor
ard vark
Ġde ep
Ġde er
Ġde scent
oc ide
oc als
Ġl ord
Ġl amp
Ġl iner
Ġl arch
Ġl ining
Ġl oneliness
and ise
Ġj ob
Ġj oy
Ġj icama
Ġj azz
ip per
ip line
ip ulation
th m
th alm
th usiasm
ali on
ali but
Ġsh in
Ġsh ack
Ġsh ark
Ġsh allot
Ġsh ingle
Ġsh allows
sh oot
sh aft
ab re
sp ec
Ġpro w
Ġpro spect
Ġpro ctor
Ġpro motion
Ġpro strate
ag ion
ag ing
est one
est ring
up idity
Ġex tension
Ġex ocrine
Ġex cerpt
ect ive
ect ory
ect onics
Ġhe at
Ġhe aven
Ġhe sitation
Ġle tter
Ġle nding
Ġle tt
Ġle cture
Ġle mur
Ġle sbian
ay a
Ġk ale
Ġk arate
Ġk umquat
Ġk ayak
Ġk amikaze
Ġk ielbasa
Ġk inase
ne ur
art ure
ck le
Ġsc arf
Ġsc hed
Ġsc raper
Ġsc anner
Ġsc otch
Ġsc arecrow
Ġsc affold
iv ative
ug elhorn
de c
de cessor
os hes
Ġco al
Ġco ach
Ġco factor
Ġco operation
Ġco hort
Ġco yote
Ġco alition
Ġco variate
og gle
if ocals
ib ou
ib us
orm one
Ġan ise
Ġan alyst
Ġan chovy
Ġse lection
Ġse aside
Ġbo ar
nt a
nt il
nt hesis
arm uffs
arm ulke
Ġtr ick
Ġtr actor
Ġtr uth
ust er
Ġbe ak
Ġbe ef
Ġbe aver
Ġbe lief
Ġbe yond
Ġbe hest
Ġbe ggar
Ġra ise
Ġra men
Ġra bbi
are es
Ġdis embodiment
ide o
all y
av o
Ġac id
Ġac orn
Ġac rylic
Ġac upuncture
Ġro ster
Ġro cker
Ġro oster
Ġro strum
cy clo
te e
co ver
Ġte a
Ġte ndency
be ans
ud ge
ud ence
Ġqu ality
Ġqu ilt
Ġqu ote
Ġqu iche
pe ndic
Ġpo nd
Ġpo ster
ash ore
Ġcomp arison
con sideration
ign ance
Ġpl antation
Ġpre y
Ġpre serves
Ġpre cipitation
Ġen forcement
Ġen zyme
Ġen joyment
Ġen thusiasm
row ave
ath ologist
Ġme antime
Ġme senchyme
Ġy outh
Ġy arn
Ġy olk
Ġy ahoo
Ġcr ate
Ġcr ack
Ġcr ane
Ġcr usader
lic opter
Ġcar amel
Ġcar nival
ee gee
Ġfo ndue
ari ach
Ġem u
Ġcont est
Ġcont rol
Ġman acle
Ġman kind
Ġgra b
Ġgra ffiti
ron ics
Ġcl ub
Ġhy acinth
Ġhy gienic
orn ado
ser s
Ġto ad
Ġto aster
Ġne xus
Ġpar ser
Ġpar cel
Ġpar allelogram
Ġpar adise
Ġper mit
Ġper mission
Ġdi ary
Ġdi ox
Ġsub scription
Ġsub stitution
Ġsub section
Ġsub expression
Ġsub mitter
int iff
amp ire
Ġpe gboard
Ġpe ndulum
Ġpe ople
Ġcre che
Ġcre ativity
Ġar cher
Ġar rogance
Ġche ss
Ġgr it
Ġgr ub
Ġgr asp
Ġgr oup
Ġsn orer
Ġinter pretation
cre tion
ma iden
Ġso vereignty
ren heit
aw ay
Ġrep re
Ġrep ly
Ġimp ression
Ġimp ostor
Ġmo st
Ġmo vie
Ġcomm otion
Ġwh ale
Ġpat ch
Ġbr atwurst
Ġout come
Ġout look
Ġfl ash
Ġfl ute
Ġfl ung
Ġph ase
Ġph ilanthropy
ner gy
Ġz inc
Ġz ither
Ġtra in
Ġtra de
Ġtra dition
Ġtra veler
ric h
ric t
ric ing
Ġor chard
ush ion
Ġinf arction
Ġter ror
Ġsk in
Ġsur geon
ef ruit
Ġri ot
Ġcap on
Ġsho es
Ġbar n
ann ier
Ġwe apon
che stra
Ġstep daughter
Ġclo sing
Ġclo ves
Ġmin eral
Ġgu ilder
Ġover load
Ġover clocking
Ġover nighter
Ġpri de
ens il
Ġam azon
Ġam azement
Ġsup plement
Ġdep osition
Ġdep ression
Ġdep osit
Ġdep loyment
Ġapp lication
Ġapp reciation
itu ation
itu ality
Ġcur ve
Ġcur ler
Ġatt ack
Ġatt ention
Ġatt ainment
Ġatt raction
Ġatt enuation
Ġatt achment
Ġass ignment
Ġrec ord
Ġrec ruit
Ġrec ognition
Ġrec apitulation
Ġrec ollection
af er
af ood
af ore
Ġexp edition
Ġcoun ty
cle sia
ird le
aff lement
Ġunder weight
ven or
Ġas par
Ġarm ament
Ġkn ot
und red
Ġab acus
Ġmis fit
ister ia
Ġgl ucose
Ġgl adiolus
Ġchar ity
ond ola
Ġhand over
Ġhand ball
Ġhand saw
Ġop tion
Ġfre ighter
Ġfre quency
Ġep oxy
Ġsun glasses
Ġdec imal
Ġgrand ma
Ġmet ro
Ġmet abolite
min der
Ġve ssel
Ġve hicle
Ġcons umption
Ġpant ry
ex p
Ġbro od
Ġbro iler
Ġbro chure
ern atural
Ġpen sion
Ġpen alty
Ġpen guin
Ġgen eral
Ġtri gger
Ġtem ple
Ġsm og
Ġsm oking
Ġdo zen
Ġdo orknob
Ġconf iguration
Ġcy gnet
iss ors
car nation
Ġfoot rest
Ġfoot print
Ġele phant
Ġsnow suit
Ġsign up
Ġsign ature
Ġret reat
Ġret ailer
Ġsal ary
Ġsal oon
Ġpast a
Ġpast e
Ġwar lord
ai kon
mb lance
Ġtrans mission
Ġel lipse
Ġwater bed
Ġwater melon
cent ive
Ġstand ing
Ġver ve
Ġver ification
spect ive
Ġim itation
Ġim agination
Ġdet ention
Ġinv ite
Ġinv ention
illi teracy
amb urger
Ġje alousy
mer ic
Ġnight club
Ġbal cony
Ġaf oul
Ġhead line
Ġform ation
Ġform ula
Ġcan cer
ree ze
Ġpart icular
Ġbri bery
Ġhard ware
Ġres istance
Ġsy rup
Ġsy ndrome
Ġev il
Ġev idence
Ġequ inox
Ġinc ense
Ġins ide
Ġtw itter
Ġint ent
Ġly re
Ġly chee
Ġprop aganda
cur ity
Ġpop py
Ġpop ularity
Ġpop ulist
Ġge ography
Ġcop e
ang aroo
ang utan
Ġbi as
Ġbi opsy
Ġblack bird
Ġten or
Ġtim ber
Ġtim eline
Ġban ker
Ġdisc ipline
Ġat rium
Ġke nnel
Ġpur r
Ġpur se
Ġpress urization
ah renheit
Ġsav iour
Ġfor um
Ġblo omer
elf are
umb ler
Ġloc ust
Ġloc ality
yl us
Ġsqu are
Ġpan ic
Ġpla intiff
Ġrev olution
Ġvol leyball
Ġphot o
Ġphot ographer
dis p
Ġtre llis
Ġbag el
Ġhor izon
Ġcla im
Ġcolle ge
Ġmid den
Ġrun way
Ġsecre tion
Ġsecre cy
hib it
Ġoct et
Ġoct ave
Ġcle aner
Ġprin ting
Ġpor ch
Ġpot tery
Ġsoft ball
Ġpil low
Ġwind ow
Ġauthor ity
Ġfort une
Ġpain ter
Ġweb inar
Ġtext ure
oe y
vie wer
Ġec ology
Ġec lipse
Ġmort gage
Ġmed ia
Ġkit ten
Ġkit sch
Ġfish monger
Ġcab bage
Ġpet itioner
ith m
Ġgo al
Ġgo ose
Ġgo ssip
Ġdev il
Ġland mine
Ġcheck book
mo sphere
rep ancy
ident iality
Ġtele type
Ġsoci ology
Ġcer eal
Ġpup a
Ġmag net
Ġtest imony
Ġsand al
Ġsand wich
Ġest ablishment
Ġpin worm
Ġhat red
Ġven ison
Ġang iosperm
Ġmess age
Ġnet ball
Ġfro g
Ġplay er
Ġbug le
Ġham ster
iff onier
Ġside burns
Ġopt imal
Ġent ry
Ġhur ry
Ġhur dler
Ġvan illa
Ġrac er
Ġcod ling
Ġband anna
Ġmile stone
alent ine
Ġante chamber
Ġcalc ification
Ġir is
Ġtort illa
Ġsym bol
Ġsym ptom
Ġon ion
Ġon cology
Ġcour se
Ġvi ability
Ġthr ush
Ġhyp othesis
Ġic ing
Ġdam age
stand ing
Ġmain land
Ġwal nut
Ġwal laby
clam en
Ġbreak through
Ġprogram me
bre viation
Ġus er
Ġsail or
Ġfin isher
Ġeli te
Ġeli mination
Ġpig let
Ġship yard
Ġjewel lery
Ġsuc cess
Ġsens or
Ġsens ibility
Ġcli ff
Ġbank book
Ġdefe ndant
ester day
Ġbeh alf
Ġprem ise
Ġprem editation
Ġtar ragon
Ġtax icab
Ġlight ing
Ġlight ning
Ġpad dock
ung alow
ung arees
Ġenc lave
Ġenc irclement
Ġstandard ization
Ġstandard isation
Ġder by
Ġlic ense
Ġlic orice
Ġbow ler
Ġwhe at
Ġwing man
Ġstri fe
Ġval ley
Ġval uable
Ġrub bish
Ġlap aroscope
ific er
Ġboy hood
Ġboy friend
Ġboy cott
Ġbean stalk
Ġimm ortal
she d
Ġnut meg
Ġnorm alisation
Ġcler k
Ġmou stache
Ġgar age
Ġgar lic
Ġwid get
Ġsty ling
Ġsword fish
Ġdon or
Ġpay off
Ġali as
Ġali bi
Ġgrass hopper
Ġrecip e
Ġtent h
Ġdr unk
Ġfig ure
Ġbron chitis
Ġmap le
Ġmel atonin
rom one
Ġgli ding
urg ency
Ġvit ro
Ġexam ination
Ġscal lion
Ġye w
Ġtherm ometer
Ġtherm ostat
Ġgel atin
Ġdeb ate
Ġrow ing
Ġrow boat
Ġquart et
Ġengine ering
Ġpriv acy
Ġpriv ilege
Ġsuper visor
Ġdynam ics
Ġill usion
Ġoper ation
lit aire
Ġfed ora
Ġmut t
Ġded uction
Ġscen e
Ġmob ster
Ġcri a
Ġcri minal
Ġcott age
Ġpaper work
Ġpaper back
Ġhip popotamus
Ġhoney bee
Ġwren ch
Ġrein scription
Ġrhe toric
Ġdecl aration
Ġjack al
Ġjack fruit
Ġeyebrow s
arine ss
sn ip
ouch ing
Ġtail spin
Ġsuit e
Ġdict ator
Ġfer ry
Ġfer ret
Ġfac et
Ġpill box
Ġmat rix
Ġjump suit
Ġalco hol
Ġalpen glow
Ġneck lace
Ġatte ndant
Ġdocument ation
Ġsu ede
Ġsus pect
Ġsimp licity
Ġsund ay
Ġfur ry
Ġegg plant
Ġcard igan
Ġcause way
resh old
Ġpome granate
Ġbou doir
Ġstraw berry
Ġalt ar
Ġalumin um
Ġappe al
Ġsubcon scious
Ġterm ite
Ġguid ance
Ġfact ory
Ġfix ture
Ġevery one
Ġblow gun
Ġbenef iciary
Ġmas k
ito ring
Ġwo olens
Ġreven ge
Ġstair case
Ġage nda
Ġdead line
Ġlun cheonette
Ġjust ice
Ġhear say
Ġadvert isement
Ġcreation ist
Ġpriest hood
Ġrecep tor
Ġhydro gen
Ġshel f
Ġballoon ist
Ġmacar oni
Ġdirect ive
Ġdiplo macy
got iation
Ġide al
Ġash ram
hed ral
Ġsyn onym
Ġliqu or
Ġgam ebird
olli wog
Ġchin chilla
Ġcriter ion
Ġblue berry
Ġpaint work
Ġcourt room
Ġtoothp aste
Ġfavor ite
ura i
Ġdan cer
Ġfinger ling
Ġpolar ization
Ġmir ror
Ġmilk shake
Ġhot el
Ġlan tern
Ġprox imity
Ġkid ney
osc ience
Ġlaug h
ropri ation
ropri ety
Ġshoot down
Ġpickax e
Ġtin type
Ġtun a
Ġtable cloth
Ġeth nicity
Ġpint o
Ġpitch ing
Ġhorn et
Ġharb or
Ġharb our
Ġvict im
Ġvict ory
Ġjug gernaut
Ġlemon ade
Ġpatent ee
Ġzebra fish
Ġmonast ery
Ġmonast icism
Ġautom ation
Ġautom aton
Ġexpect ation
Ġexpect ancy
Ġflood plain
ev olution
Ġsing ular
Ġsim ilarity
Ġsamp le
Ġsau erkraut
Ġsome where
Ġdat abase
Ġfut ure
Ġphen omenon
Ġhow ard
Ġwild life
Ġreason ing
Ġinj ury
Ġprom ise
Ġadrenal ine
Ġcru ise
Ġfox glove
Ġcommit ment
Ġwhirl wind
Ġeyel iner
Ġmorbid ity
Ġfiber glass
Ġmerch ant
Ġneurop sychiatry
Ġnon believer
Ġsep ticaemia
Ġsound ness
Ġcord uroy
Ġpian ist
Ġbli ster
Ġbirth day
Ġmood y
Ġginger bread
Ġrehospit alisation
Ġaqu ifer
Ġexe cutor
Ġko ala
Ġscript ure
Ġdish washer
Ġadap ter
Ġplace bo
Ġgram mar
Ġadvance ment
Ġmuscat el
Ġinvent ory
Ġworship er
Ġectoderm al
path y
Ġwatch maker
Ġstim ulation
Ġacqu aintance
Ġcris p
Ġflint lock
Ġtrapez oid
nit zel
Ġsnake bite
Ġcapp uccino
Ġschool house
Ġintention ality
Ġcert ificate
Ġsafe guard
Ġnewsp rint
Ġchopstick s
Ġsanct uary
Ġwholes aler
cul ature
oxygen ase
oust ics
Ġram ie
owner ship
Ġnote book
curren ce
aur ant
dug gery
erin arian
gor ithm
llip op
sbo k
vast atin
Ġnob ody
Ġsard ine
Ġosm osis
Ġomeg a
kensp iel
Ġcym bal
Ġcilant ro
arant ee
Ġbless ing
Ġmur der
iccup s
asab i
rade ship
adril le
Ġrena issance
Ġstrate gy
thalm ologist
Ġlett uce
oggle s
pendic ular
ariach i
Ġdiox ide
Ġaspar agus
b ur
b ration
b acco
c ure
c art
c ress
c ium
c kenspiel
e ff
e way
f ro
f ry
f ast
f low
f board
f ront
f lops
g ion
g ur
g ust
h l
h ar
h um
i ge
i qu
i rie
i ride
k n
k rat
l asm
l ama
n x
n osis
n ickel
o v
o ire
p ac
p ic
p ast
p tion
p ick
p here
r iss
s le
s av
s ume
t ur
t est
t em
t ili
t ok
t ary
t cy
t aker
u de
u ator
u roc
v at
w all
w aiter
w arf
x ation
x ir
x yl
Ġ action
Ġ illegal
Ġ illiteracy
Ġ urgency
Ġt ire
Ġt ale
Ġt ell
Ġt icket
Ġt itle
Ġt weet
Ġt ectonics
Ġt ornado
Ġt umbler
he tt
he mat
Ġthe me
Ġthe sis
Ġn ame
Ġn ative
Ġn iece
Ġn onsense
Ġn udge
Ġs ort
Ġs ite
Ġs inger
Ġs elling
Ġs eller
Ġs olvency
Ġs abre
Ġs ituation
le ase
in v
ap pen
Ġo st
Ġo il
Ġo ph
Ġo tt
ep le
Ġsle d
Ġoff er
Ġoff ence
Ġd ill
Ġd ory
Ġd ome
Ġd anger
Ġd aughter
Ġd usk
Ġd agger
Ġd aikon
Ġd ungarees
li a
li ve
li sion
li ament
Ġf ine
Ġf ame
Ġf ridge
Ġf riction
Ġf owl
Ġf ringe
Ġf isting
Ġf ahrenheit
nd ation
Ġe ast
Ġe dge
Ġe asel
Ġe armuffs
Ġli ver
Ġli me
Ġfound ation
on er
on ge
on se
er itif
Ġc rap
Ġc atch
Ġc ode
Ġc inder
Ġc ushion
re c
re nt
re cker
Ġp ion
Ġp om
Ġp ie
Ġp ile
Ġp ier
Ġp ony
Ġp icket
Ġp ipe
Ġp ricing
Ġp annier
Ġp olliwog
ar ound
ar ong
an ation
an ine
or l
or ance
or age
or ial
or ah
st ic
st ile
Ġb os
Ġb ite
Ġb ody
Ġb last
Ġb uckle
Ġb ifocals
Ġb afflement
Ġb reeze
Ġb ungalow
Ġm op
Ġm ight
Ġm olar
Ġm uffin
Ġm olasses
Ġm ariachi
al lion
ing ale
ing ness
ing ency
ac am
ac ie
ac omb
ac lava
ro id
ic ap
ic ure
is ure
is ket
ent or
Ġg ap
Ġg ator
Ġg own
Ġg ang
Ġg rid
Ġg irdle
Ġg ondola
Ġg oggles
as y
Ġh ail
Ġh ole
Ġh unt
Ġh ike
Ġh anger
Ġh aunt
Ġh alibut
Ġh ormone
Ġh undred
Ġh amburger
Ġh iccups
ra bi
om ics
Ġw ay
Ġw all
Ġw ording
Ġw ont
Ġw afer
Ġw isteria
Ġw elfare
Ġw asabi
il ty
il age
el lect
am ide
am mation
ad yl
Ġre ach
Ġre action
Ġre alm
Ġre minder
ot heism
um ph
um mer
ch i
ch at
ch ment
ch ini
ge dy
Ġin ch
Ġin version
Ġin centive
ss or
ur er
Ġst ag
Ġst ole
Ġst ool
Ġst upidity
Ġst ylus
ct are
se um
id av
la be
la very
la zer
la xation
ir st
ir ch
ir rel
Ġv io
Ġv ogue
Ġv ideo
Ġv ampire
Ġv alentine
ig uity
ig gur
ant ism
ant asy
im mun
im itar
us ation
Ġa venue
Ġa ardvark
ver ty
Ġch ub
Ġch atter
Ġch rome
Ġch oir
Ġch urch
Ġch iffonier
ul th
Ġr ack
Ġr ise
Ġr ush
Ġr itual
Ġr ally
Ġcon text
Ġcon cert
Ġcon cern
Ġcon versation
Ġsp ace
Ġsp ring
Ġsp ool
Ġsp arrow
Ġsp acing
Ġsp leen
Ġsp arerib
Ġde gradation
oc le
Ġl ouse
Ġl uck
Ġl ane
Ġl ute
Ġl ux
Ġl atex
Ġl lama
bo hyd
her bet
Ġj aw
Ġj ockey
Ġj oey
ip t
ip eline
Ġsh ock
Ġsh aw
Ġsh ape
ry ption
sp out
Ġpro fit
Ġcom ma
Ġcom radeship
ag ne
ag reement
ag nosis
ag hett
em y
up lex
Ġex ile
Ġex change
Ġex terior
Ġex hibit
Ġhe ight
Ġhe aring
Ġhe licopter
Ġle ft
Ġle ntil
Ġle eway
ay enne
Ġk ite
Ġk angaroo
Ġsc ent
Ġsc am
Ġsc ience
Ġsc issors
iv or
iv alent
os ure
Ġco ast
our self
ib ling
Ġan gle
Ġan ime
Ġan atomy
Ġse aplane
Ġse verity
Ġse ashore
Ġse afood
Ġse curity
Ġbo re
Ġal ley
Ġal gorithm
Ġtr act
Ġtr ace
Ġtr itone
Ġbe ating
ill ment
ain er
Ġra mb
der ness
Ġdis ability
Ġdis covery
Ġdis placement
Ġdis appointment
Ġdis regard
ger ency
let ter
olog ism
me ndation
av igation
av iar
nder s
Ġac oustics
Ġlo ft
Ġlo llipop
Ġth istle
Ġth reshold
Ġro ot
Ġro ast
Ġad mission
Ġad dress
Ġad jective
Ġad diction
Ġte ar
be at
be sity
Ġla yer
Ġla va
ud gery
Ġqu ill
Ġqu iver
Ġqu ince
pe nders
Ġpo lo
Ġpo int
Ġpo ignance
Ġcomp lement
Ġcomp liance
Ġcomp liment
con form
Ġpl acode
Ġpre vention
Ġpre ference
Ġpre sentation
Ġpre sence
Ġpre cision
Ġpre decessor
Ġen cyclo
Ġme ans
ph ot
Ġy og
Ġy armulke
Ġy esterday
Ġcr unch
Ġcr icke
Ġcr anberry
Ġcou ple
Ġcou sin
Ġcar ibou
ake up
ee zer
Ġfo ol
ari o
Ġem ail
Ġem ery
Ġem otion
air ness
Ġcont agion
Ġcont ingency
Ġcont ainer
Ġman or
Ġman ager
Ġman ipulation
Ġgra y
Ġgra vy
Ġgra dient
Ġgra vity
po ss
po ise
po oner
Ġap pointment
Ġap eritif
Ġsw ell
Ġsw allow
Ġto e
Ġto sser
Ġto ffee
Ġto bacco
Ġne gotiation
Ġpar k
Ġpar ty
Ġpar ka
Ġpar snip
Ġpar chment
hy nx
Ġper spective
Ġper pendicular
Ġdi alogue
Ġsub set
Ġsub routine
com mendation
Ġpe ar
Ġpe can
Ġcre ek
ram id
Ġar range
Ġche ddar
Ġgr ill
Ġmar keter
Ġmar xism
Ġmar ionberry
Ġmar imba
Ġsn ap
Ġbl ouse
Ġinter ior
Ġinter venor
uc chini
cl ad
Ġso ot
Ġso litaire
Ġho e
aw k
Ġrep eat
Ġimp ress
Ġimp ediment
Ġimp ulse
Ġimp udence
Ġimp ropriety
Ġmo ver
Ġmo vement
Ġmo cha
Ġcomm on
Ġcomm onsense
Ġwh orl
Ġout let
Ġfl anker
Ġfl ugelhorn
ame cium
au ce
au ge
Ġz ipper
Ġtra ding
Ġtra vel
Ġtra ining
Ġtra gedy
pl ate
ric ane
Ġor ange
Ġor chestra
Ġor angutan
Ġma id
Ġma iler
Ġinf usion
Ġsk i
Ġsk irt
Ġsk ating
Ġri dge
Ġri ding
Ġcap acity
Ġsho estring
Ġair bag
Ġair bus
Ġair plane
clo oxygenase
Ġmon itoring
Ġstep mother
Ġclo ve
Ġmin now
Ġmin ibus
Ġgu arantee
Ġover head
cess ing
Ġsup ernatural
Ġdep arture
Ġapp ropriation
ong ue
Ġcur d
Ġcur rant
Ġatt empt
Ġass ault
Ġrec order
Ġrec ording
Ġun cle
Ġun certainty
Ġun employment
Ġexp osition
read ing
aff e
Ġunder ground
Ġunder wear
Ġunder pass
Ġunder estimate
Ġunder standing
Ġacc ident
son ant
Ġarm pit
Ġarm adillo
Ġdiv ing
Ġref erence
Ġref lection
Ġref ectory
Ġspe aking
Ġkn ight
Ġab sence
Ġab breviation
Ġmis placement
Ġfe el
Ġgl acier
Ġob ject
Ġcat hedral
ond uctor
Ġop ening
Ġfre ckle
Ġep isode
Ġsun shine
iner ary
Ġey rie
Ġgrand mother
Ġmet al
rit ory
Ġve al
Ġcons umer
uct ance
ex ertion
Ġbro ok
Ġpen ny
Ġgen re
Ġgen ocide
Ġtri angle
Ġtri umph
Ġback yard
serv oir
serv atory
Ġdo ing
Ġdo ctrine
Ġconf lict
Ġconf identiality
Ġcy clamen
Ġcy clooxygenase
Ġwork ing
Ġwork bench
br ero
Ġsign al
Ġret ention
Ġret ina
Ġret ouching
Ġsal ad
Ġsal ami
Ġwar lock
ai ver
Ġmus cle
Ġmus culature
Ġmus krat
Ġtrans fer
Ġel ver
Ġel bow
Ġbu zz
Ġbu ilder
Ġbu zzard
Ġinv ader
Ġje ep
Ġshe ep
Ġed itor
Ġed ible
Ġcal m
Ġleg al
Ġleg acy
gon ometry
gan o
Ġform at
Ġeff ort
Ġpart ridge
Ġgood ness
Ġgood bye
Ġres ort
Ġlog gia
Ġsy nthesis
Ġsy nergy
Ġequ al
Ġequ ation
Ġins ight
Ġins omnia
tern al
Ġtw ins
Ġnot ation
Ġnot oriety
Ġsch nitzel
Ġly cra
Ġly sine
Ġprop ane
Ġprop onent
cur y
Ġpop sicle
Ġge nder
Ġtur meric
Ġend othelium
Ġcart load
mis phere
zz anine
Ġser val
Ġban ner
Ġban quette
unk house
Ġdisc laimer
Ġdisc repancy
Ġfore ver
Ġat om
Ġat mosphere
Ġtom b
Ġtom atillo
Ġcent re
Ġcent ury
Ġcent imeter
Ġpur ity
Ġpur itan
ah lia
lu de
Ġblo ck
umb rel
Ġup date
Ġsqu atter
Ġsqu eegee
Ġsqu irrel
Ġca ution
Ġpan cake
Ġpla stic
Ġtre mor
Ġhor de
Ġste w
Ġste alth
Ġste ward
nut rition
Ġcla use
Ġcla rinet
Ġhar p
Ġhar vest
Ġhar ald
Ġcong o
Ġcolle ctor
ten ance
Ġart ist
Ġart ificer
Ġsem antics
Ġrun away
Ġcommun ion
Ġspec ification
Ġspec ulation
tle ment
Ġoct avo
Ġdist rict
Ġprin t
Ġprin cess
alf a
acter ium
Ġdisp atch
Ġsl ump
Ġsl ang
Ġfla x
Ġwor th
Ġwor ry
oph ole
Ġafter thought
Ġbra ke
Ġinst inct
cut ive
Ġec clesia
Ġce iling
asm ine
elli gerency
rid or
Ġstat istic
Ġcrew member
oy age
Ġfish bone
Ġcab in
Ġheart wood
Ġland ing
Ġvib e
Ġcond uct
Ġlaw suit
Ġwhis key
Ġdol man
Ġfil m
Ġfil ing
Ġvis ual
Ġvis cose
Ġcoll apse
Ġest uary
Ġpin afore
Ġven om
Ġven ue
Ġven geance
Ġang el
Ġcolon ial
Ġclass ic
Ġclass room
Ġclass mate
bl ack
Ġnet book
Ġset back
Ġcra b
Ġcra dle
Ġpick le
Ġpick up
Ġbut ane
Ġbut ton
iff le
rup tcy
Ġbott le
Ġrac ing
Ġdef ense
Ġcred ential
Ġsky walk
Ġsky scraper
Ġflo ck
Ġcod epage
Ġcust ard
Ġcust omer
Ġcock tail
Ġcock roach
Ġband olier
Ġmic rowave
Ġglo be
Ġglo ckenspiel
Ġrest riction
Ġrest aurant
Ġante ater
Ġcalc ulator
Ġir ony
Ġir rigation
Ġtort oise
Ġsym pathy
Ġpsych ology
Ġpsych ologist
Ġbatt alion
Ġvi ola
Ġjun ker
Ġjud gment
Ġmen u
Ġmain tainer
Ġgod father
Ġshort s
Ġamb ience
Ġamb ulance
Ġbreak down
bre aker
Ġwood wind
Ġrese mblance
Ġcontr actor
mun ition
pat rol
Ġtub a
Ġtub er
Ġcli ent
Ġbid der
Ġhon esty
Ġext reme
Ġbeh old
Ġswim ming
men ade
Ġtop sail
Ġbake ry
Ġgreat ness
Ġharmon ica
ffic ulty
Ġder ivative
Ġbow ling
Ġwhe el
Ġchap el
Ġrub ric
Ġdeve loper
Ġdeve loping
Ġbox spring
Ġbean curd
Ġnorm al
Ġcler ic
Ġwil derness
Ġchair man
Ġchair lift
Ġskull cap
Ġskull duggery
fo il
top lasm
Ġdon ut
Ġcass ock
Ġcass erole
Ġple a
Ġpay ment
Ġpay ee
Ġbed room
Ġbed rock
Ġmant le
Ġgovern ance
Ġrat io
Ġconst itution
Ġposs ibility
Ġcapit ulation
Ġassist ant
Ġrecip ient
Ġcouncil person
Ġdoor post
Ġelect ronics
Ġcopy ing
Ġcopy right
Ġtype writer
Ġdr ill
Ġcali ber
Ġcali bre
Ġcup cake
Ġpack aging
Ġrem nant
Ġstop sign
Ġspir ituality
Ġhel met
Ġscal p
Ġye ar
Ġmarket place
Ġearth worm
Ġut ensil
Ġnur se
Ġnur ture
Ġnur sing
Ġfir m
Ġfarm er
Ġesp adrille
Ġbass inet
Ġreli gion
Ġspect rum
Ġdynam o
whe at
Ġoper a
Ġoper ating
Ġdust er
Ġpun ctuation
Ġmut ation
loc ity
Ġresid ence
Ġjelly beans
Ġmob ility
Ġtempor ariness
Ġsweat shop
Ġoc currence
Ġcri me
Ġbrush fire
Ġjourn al
Ġjourn alism
Ġsat isfaction
Ġsuit case
Ġfac ility
Ġpill ar
Ġiniti ative
Ġprot ection
Ġcompet ition
Ġneck tie
Ġauthent ication
Ġsu et
Ġsus pension
Ġsund ial
Ġbou quet
Ġstraw man
Ġconspir ator
Ġlunch room
Ġmarsh land
Ġgymnast ics
Ġtown ship
Ġevery thing
Ġparent ing
Ġbon us
Ġbon net
Ġbrow sing
Ġhall way
Ġreven ant
Ġstreet car
Ġrhy thm
Ġspy glass
Ġhedge hog
Ġbond sman
Ġcreation ism
Ġsoy bean
Ġpatty pan
Ġpharmac ist
Ġprior ity
Ġknow ledge
Ġnews stand
ffe ur
Ġfund raising
Ġpap aya
Ġber et
Ġbay ou
Ġbuff alo
Ġmatt ock
Ġhug ger
Ġvet erinarian
Ġration s
Ġmeet ing
Ġcloud burst
Ġdiver sity
Ġuniver se
Ġopportun ity
Ġaftersh ave
tic oat
Ġsaf ety
Ġden im
Ġduel ing
Ġesc ort
Ġcel sius
Ġwit ness
Ġdeli very
Ġprocess or
Ġtrou sers
Ġplat ypus
Ġenter prise
Ġassoci ate
Ġcorrespond ent
Ġarchae ology
Ġproduct ivity
Ġdemoc rat
Ġbehav ior
Ġweeke nd
Ġastrolog er
Ġprofession al
fa una
Ġtact ics
Ġtog a
Ġdom ain
lis her
Ġfurn iture
Ġer ror
Ġpseud oscience
Ġbest seller
Ġalph abet
Ġtrap door
Ġaccomp lishment
Ġlook out
Ġrib bon
Ġbarbe cue
Ġappro ach
Ġmiss ile
Ġshear ling
mic elli
Ġsing ing
Ġsim vastatin
Ġsamp an
Ġsau ce
Ġsome one
Ġdat a
Ġfut on
Ġphen otype
itan ium
Ġgal oshes
Ġgall on
Ġhow itzer
Ġinj unction
Ġdeal ing
Ġprom pt
Ġexhaust ion
Ġadrenal in
Ġpole nta
Ġcru de
Ġcommit tee
Ġwhirl pool
Ġclock work
repre sentation
repre neur
Ġmerch andise
Ġneurop athologist
sim ile
Ġtatt ler
Ġtatt oo
Ġfail ure
Ġphe asant
Ġphe romone
Ġbout ique
Ġvie w
Ġvie wer
imon o
imon ial
Ġaud ience
Ġrout e
Ġrout ine
Ġdes ire
Ġdes cendant
Ġlin en
Ġlin seed
Ġshadow box
Ġplug in
Ġchest nut
Ġbran ch
Ġmiddle man
Ġkettle drum
Ġfatigue s
Ġathlet ics
Ġnect arine
Ġnucleot idase
Ġsam urai
Ġlim estone
Ġcell ar
Ġbad ger
Ġgrap efruit
omin ium
Ġspider ling
Ġrail road
Ġmechan ic
Ġmanufact uring
Ġsurv ival
Ġindepend ence
Ġhuman ity
Ġintegr al
Ġbusiness man
Ġcare er
Ġcray on
Ġmine shaft
Ġhack work
Ġvint ner
Ġhearth side
Ġgn u
Ġeffic iency
cop las
lev ard
stri pe
Ġmilli meter
Ġgem sbok
entr ism
see ing
Ġvali dity
fro st
hl rabi
iqu ity
iride scence
ov ar
pac a
riss ae
tili zer
tok ine
uroc entrism
hemat ics
appen ing
Ġost rich
Ġoph thalmologist
Ġott oman
Ġpion eer
Ġpom pom
Ġbos om
acam ole
acie nda
idav it
Ġvio let
iggur at
immun ity
ulth ood
Ġlux ury
bohyd rate
aghett i
uplex er
Ġramb ler
conform ist
Ġencyclo pedia
Ġcricke ter
eezer s
Ġarrange ment
umbrel la
coplas ma
T V
b il
b und
c al
c and
c amp
c ade
c ount
c ca
d ist
d em
d gling
e em
e ase
f in
f ib
f ile
f alfa
g od
g ain
g ram
g arine
h arm
h igh
k it
l ammation
m ed
m ag
m ain
o ct
p in
p rin
p ot
p up
p ress
p lay
r ance
r ano
s l
s om
s qu
s oon
s we
s uke
t he
t ch
t ance
t ab
t urn
t roller
t ician
t zel
v i
w ar
w or
w al
w ell
x is
y an
z one
Ġ iridescence
Ġ umbrella
ou ven
Ġt ry
Ġt ill
Ġt alent
Ġt ongue
Ġt itanium
he art
Ġthe ology
Ġthe ft
Ġn er
Ġn ovel
Ġn avigation
Ġs ack
Ġs olution
Ġs oup
Ġs arong
Ġs lavery
Ġs herbet
Ġs ibling
in ker
in ator
in yl
at a
ap hor
Ġo tter
Ġo asis
Ġo live
Ġo besity
od ay
ep tance
Ġoff ice
Ġoff set
Ġd ance
Ġd ick
Ġd irt
Ġd ining
Ġd ensity
Ġd ahlia
Ġd uplexer
li seum
Ġf og
Ġf light
Ġf lip
Ġf iner
Ġf ault
Ġf ava
Ġf ulf
Ġf ont
Ġf antasy
Ġf airness
nd roid
Ġe ve
Ġe stro
Ġe go
Ġe urocentrism
Ġli on
rin oline
Ġfound ing
Ġlike ness
on na
Ġc ul
Ġc ity
Ġc herry
Ġc ayenne
Ġc aviar
re v
re dient
Ġp ug
Ġp imp
Ġp aw
Ġp acket
Ġp ith
Ġp ipeline
ar atus
an ium
an cing
en e
en za
or ter
st ige
Ġb og
Ġb unch
Ġb illion
Ġb elt
Ġb lazer
Ġb irch
Ġb unkhouse
Ġb acterium
Ġb elligerency
Ġm ud
Ġm ind
Ġm ention
Ġm entor
Ġm akeup
it im
al ge
ac ao
ro at
ro cessing
ic y
ic it
is ition
lo o
Ġg rin
Ġg it
Ġg ale
Ġg ame
Ġg asp
Ġg eek
Ġg host
Ġg auge
as k
as hes
Ġh ake
Ġh alt
Ġh awk
Ġh appening
Ġh acienda
ra nd
ce meat
Ġw in
Ġw el
Ġw ad
Ġw ink
Ġw ax
Ġw asp
Ġw aste
Ġw arden
Ġw edge
Ġw inery
Ġw recker
Ġw aiver
et s
il ding
el and
el ay
am po
ad or
ad et
ad ish
ad ian
Ġre lish
Ġre creation
Ġre union
Ġre consideration
Ġre lease
Ġre laxation
Ġre commendation
Ġre servoir
Ġin ner
Ġin carnation
ur b
ur geon
ol on
ol vement
Ġst ake
Ġst ench
Ġst icker
Ġst orage
Ġst allion
Ġst rand
se ssion
id dle
un cle
un ciation
la gen
Ġv ise
Ġv oid
Ġv ector
Ġv oyage
Ġv inyl
ig loo
im alism
im uth
ist ration
Ġa ster
Ġa xis
Ġa ndroid
qu est
Ġch it
Ġch ug
Ġch ili
Ġch owder
ul sion
Ġr od
Ġr ound
Ġr ust
Ġr ange
Ġr ule
Ġr iser
Ġcon ception
Ġcon sideration
Ġcon struction
Ġcon sonant
Ġsp rinter
Ġsp onge
Ġsp hynx
Ġsp aghetti
Ġde w
Ġde struction
oc ado
Ġl atter
ine ma
Ġj am
Ġj asmine
Ġsh it
Ġsh red
ass ador
sh ield
ab ric
sp ice
ort ment
Ġpro hibition
Ġpro cure
Ġpro menade
ed o
ed om
Ġcom ic
est rain
est eem
Ġex ternal
Ġhe n
Ġhe lium
Ġhe ctare
Ġhe misphere
Ġle ague
Ġle ading
Ġle isure
Ġk iss
Ġk imono
ne w
ne z
Ġsc ore
Ġsc reamer
Ġsc imitar
per ty
out on
os ing
os iery
Ġco at
Ġco verage
Ġco evolution
Ġco liseum
orm ation
Ġan ger
Ġan alogue
ili ght
ili tary
Ġse a
Ġse at
Ġse al
Ġse ssion
Ġbo on
Ġal paca
Ġal falfa
Ġtr ance
Ġtr ash
Ġbe nd
Ġbe ach
Ġra bbit
Ġdis engagement
Ġdis cretion
Ġdis gust
let t
let on
all urg
Ġlo ophole
Ġth ug
Ġth aw
Ġro le
Ġro be
Ġro ll
Ġad verb
Ġad ulthood
te ch
Ġte epee
be ar
Ġla ke
ud el
iz er
iz za
Ġpo or
Ġpo et
Ġpo ker
Ġpo verty
Ġcomp lication
Ġcomp rom
Ġcomp osite
Ġcomp troller
Ġcomp ortment
con g
ire ct
Ġcol lision
Ġpl um
Ġpl unger
Ġpre sume
Ġpre lude
Ġpre tzel
Ġpre stige
Ġen emy
Ġme al
Ġme zzanine
Ġy ourself
Ġcou ch
Ġcar riage
Ġcar nation
Ġcar bohydrate
Ġfo am
ft an
Ġem itter
Ġman icure
Ġgra de
Ġcl am
Ġcl uster
ser y
ser adish
Ġto ol
Ġne ologism
Ġpar liament
Ġpar amecium
Ġdi agnosis
Ġdi fficulty
Ġsub stance
com mod
Ġpe ak
Ġpe cker
Ġcre st
Ġcre ator
ite ment
ram ble
Ġar k
Ġar row
Ġche que
Ġgr ouse
Ġmar ble
Ġmar riage
Ġsn ack
Ġsn ug
Ġsn arl
Ġsn iffle
Ġinter viewer
cre w
cl ass
cl iner
Ġho vel
Ġimp lication
Ġmo chi
Ġwh ite
Ġpat io
Ġbr isket
Ġout line
Ġfl ame
Ġfl ume
au lier
Ġz one
Ġz ucchini
Ġz iggurat
Ġtra it
Ġtra der
pl y
ric ot
Ġor chid
ush i
Ġinf lammation
Ġinf ormation
Ġter ritory
Ġsur fboard
Ġri m
gle ct
Ġant ique
Ġant iquity
Ġsho at
Ġbar k
Ġbar ber
Ġbar ley
Ġbar rier
Ġair man
Ġair mail
che ck
Ġmon th
Ġmon key
Ġmon otheism
Ġmon ocle
Ġclo set
Ġmin ister
Ġgu ilty
Ġgu acamole
Ġover flight
Ġover exertion
Ġam munition
Ġsup per
Ġsup plier
Ġdep th
Ġapp le
Ġapp ellation
Ġapp aratus
Ġcur se
Ġmot ion
Ġrec all
af ter
az ine
mot e
Ġexp osure
Ġunder writing
Ġunder taker
Ġacc usation
Ġacc eptance
Ġas ide
son ance
Ġarm y
Ġarm oire
Ġdiv ider
oun ter
Ġab use
Ġab ortion
Ġfe nder
Ġob servation
Ġob jective
Ġob servatory
Ġcat acomb
Ġhand rail
Ġhand maiden
Ġhand icap
gr oup
str ucture
Ġsun light
Ġsun room
Ġsun rise
Ġcor al
Ġcor ridor
Ġdec ryption
Ġve locity
Ġcons ignment
uct uring
Ġpant ologist
ex per
Ġbro och
arch ist
ern acle
tr an
Ġpen is
Ġpen nant
Ġgen ie
Ġgen ius
Ġag ent
box yl
Ġtri but
Ġtri gonometry
Ġsm oke
Ġback pack
Ġdo e
Ġcy toplasm
Ġcy tokine
car riage
Ġfoot note
Ġsnow boarding
br is
use um
Ġsal ute
Ġsal sa
hor se
mb ly
Ġtrans om
Ġel m
Ġwater fall
Ġwater cress
Ġwater spout
rim ony
Ġstand off
Ġver micelli
Ġdet ainment
Ġdet ector
Ġdet ective
Ġear plug
Ġinv olvement
Ġnight light
Ġnight ingale
Ġed ger
Ġbal aclava
Ġmem e
Ġmem orial
Ġleg ume
Ġform amide
Ġcan on
Ġcan oe
ret ch
Ġres olution
Ġequ ity
Ġequ ivalent
Ġins ulation
Ġins urance
vel ation
Ġtw eezers
Ġint ensity
Ġint ellect
to ot
Ġcorn meal
Ġge ometry
rib ute
sk y
Ġdown fall
Ġcart ilage
Ġten sion
Ġbre ast
Ġbre wer
Ġban yan
Ġmac aw
Ġfle dgling
Ġcut icle
Ġpur suit
Ġpress ure
Ġmor sel
Ġsav ing
Ġsav ings
ins ula
Ġblo om
umb waiter
Ġpan sy
Ġbur ro
Ġphot ograph
Ġsom brero
Ġhor se
Ġste eple
Ġcro tch
Ġhar pooner
Ġrun ning
Ġdist ance
Ġcle aring
Ġpor poise
Ġdisp osal
Ġfla re
Ġbird cage
Ġwor ld
Ġaff ect
Ġaff inity
Ġaff idavit
Ġweb site
Ġinst ant
Ġrain storm
Ġce ment
Ġmed ication
Ġmed ium
Ġmed ian
Ġstat ue
Ġact ivation
Ġpet ition
Ġpet ticoat
Ġland scape
Ġpoli tician
Ġhospit al
Ġhum our
Ġhum mus
Ġvib rissae
Ġvari ation
Ġcond or
Ġcond itioner
Ġcond ominium
Ġlaw n
Ġher on
Ġcer amics
Ġpup pet
Ġpath way
Ġvis or
Ġice breaker
Ġtest imonial
Ġsand bar
Ġcolon isation
Ġtechn ologist
Ġset tlement
Ġcra vat
Ġplay room
Ġbut ler
Ġmer cury
Ġswe ets
Ġveget able
Ġcirc ulation
Ġdire ctor
Ġent repreneur
Ġent rance
Ġhur ricane
Ġinstr uction
Ġvan adyl
Ġrac ist
Ġrac ism
Ġcred enza
Ġcod on
Ġbas in
Ġbas il
Ġband ana
Ġmile age
Ġcomb at
Ġon set
Ġfol lower
Ġbatt ing
Ġvi olence
Ġjun gle
do zer
Ġdig it
red ger
Ġmen orah
Ġmain tenance
Ġwal let
Ġamb iguity
Ġbreak fast
bre ak
Ġsa ucer
Ġfin ance
Ġeli xir
Ġwood shed
Ġdem ur
Ġann ual
Ġjewel ry
Ġturn stile
Ġcli ck
Ġbank ruptcy
Ġplan ter
Ġprem ium
Ġcele bration
Ġtax i
lif eration
Ġmail man
Ġscreen ing
Ġenc ounter
Ġcounsel or
Ġsor row
Ġpublic ity
Ġbow l
Ġwhe lp
Ġwarm ing
umper nickel
Ġtrack suit
Ġbean ie
Ġthunder head
Ġthunder bolt
Ġpost age
Ġlabor atory
Ġoptim ization
Ġnut rient
Ġsum mer
Ġsum mary
Ġmy coplasma
ich oke
ande lion
Ġsword fight
Ġterr ace
Ġopp onent
Ġlegis lation
Ġsent ence
Ġlit mus
Ġple at
Ġvel odrome
Ġshop per
esty le
Ġaccount ant
Ġaccount ability
Ġdoor bell
Ġphys iology
Ġdr ug
Ġdr udgery
Ġfri ght
Ġmel ody
Ġresp onse
Ġking dom
Ġhost el
Ġut ility
Ġpit cher
Ġwast ing
Ġinvest igation
Ġdeb t
Ġquart z
Ġsuper vision
azel le
Ġhydroly ze
Ġton ight
Ġfed eration
Ġpub lisher
Ġgig antism
Ġded ication
Ġscen ario
Ġmob ile
Ġdraw bridge
osex uality
Ġorigin al
Ġoc cupation
Ġbill board
Ġhome ownership
Ġastro labe
Ġcha let
Ġprofe ssor
Ġbrush ing
Ġsemic onductor
Ġsat ire
Ġfer tilizer
Ġfac simile
Ġmat hematics
Ġwrap per
Ġwrap around
Ġcompet ence
Ġcongress man
Ġsu icide
Ġsus penders
Ġsund ae
Ġdark ness
Ġfall acy
Ġegg head
Ġbou levard
Ġrece ipt
Ġstr anger
Ġstr ucture
Ġsculpt ure
Ġsculpt ural
Ġit inerary
Ġlist ing
Ġbon fire
Ġblow hole
Ġbread fruit
Ġmand olin
Ġmall ard
Ġchild birth
Ġlingu ist
Ġlay out
Ġrepublic an
Ġhydro xyl
Ġhydro foil
Ġrevit alisation
pri me
Ġide ology
Ġnit rogen
Ġore gano
Ġdash board
Ġfill y
Ġliqu id
Ġcivili zation
Ġpray er
Ġbuff er
Ġbuff et
Ġgam ing
Ġstam en
Ġconvert ible
Ġtraffic ker
Ġfamili arity
coun ter
Ġsight seeing
Ġcroc us
Ġpound ing
Ġpra irie
Ġmill stone
Ġguit ar
Ġgarb age
Ġlan ai
Ġprocess ing
Ġcomfort able
Ġank let
Ġauto immunity
Ġtun ic
Ġdil ution
Ġeth ics
Ġcoc onut
Ġpy ramid
rog raph
Ġgold fish
Ġhist ory
Ġhour glass
Ġrel uctance
Ġstar board
Ġdesign ation
Ġexpl oration
Ġexpl anation
Ġrandom isation
Ġachie vement
Ġphilosop her
Ġshore line
Ġtempt ress
Ġmacro fauna
Ġvolunte er
Ġmethod ology
hrop ology
Ġsoul mate
Ġdram a
Ġdrum mer
Ġecon omics
Ġeval uator
Ġbasket ball
Ġchamp agne
Ġchau ffeur
Ġleader ship
Ġcob web
Ġbegin ning
Ġcommand ment
Ġguest book
Ġarchitect ure
Ġnon conformist
Ġsep al
Ġpian o
Ġbli zzard
Ġrehospit alization
Ġaqu arium
Ġspat ula
Ġexe cutive
Ġko hlrabi
Ġkind ness
Ġadap tation
Ġpercent age
Ġinvent or
Ġiron clad
Ġmyth ology
Ġathlet e
Ġnect ar
Ġnucleot ide
Ġsam ovar
Ġsale sman
Ġdough nut
Ġlim itation
Ġbad ge
Ġmom ent
Ġgas oline
Ġgrap e
omin ator
Ġwire tap
Ġstack ing
Ġmechan ism
Ġmanufact urer
Ġsurv ivor
Ġuniform ity
Ġindepend ent
Ġsteam roller
Ġnetwork ing
Ġintegr ity
Ġign orant
Ġign orance
Ġtime out
Ġcloak room
Ġmeteor ology
Ġexpert ise
norm ality
Ġtherap ist
Ġpron oun
Ġmal let
Ġwill ingness
Ġsche ma
Ġconsul ate
Ġtemper ature
Ġrevascular isation
Ġdistrib utor
Ġlady bug
Ġindustri alisation
Ġpud dle
Ġav ocado
Ġradi ator
Ġcolumn ist
Ġpresid ent
Ġneighbor hood
Ġchampion ship
cam ore
inj a
Ġsched uling
Ġrepre sentation
ummer bund
auce t
affe ine
ouven ir
Ġner ve
Ġfulf illment
Ġestro gen
onna ise
Ġcul vert
itim acy
Ġwel come
ampo o
Ġinner vation
Ġaster isk
Ġprocure ment
allurg ist
Ġcomprom ise
ramble d
aulier e
Ġtribut ary
b lo
b ase
b ank
b ott
b by
b rief
c od
c it
c la
c ab
c ust
c ock
c oll
c opy
d r
d ou
d ol
d ig
d oc
d ip
d yn
e ker
e gg
f ound
f or
f ac
f lo
f il
f arm
f are
g ration
h am
h ur
h alf
i oc
i ologist
i alist
j un
j our
l ap
l ad
l amp
m and
m ance
m ile
m oon
n ic
n ot
n ur
n omer
o ge
p il
p ig
r h
r ac
r ub
r ack
s li
s an
s age
s oci
t re
t ro
t ri
t ub
t ort
t ax
v an
v ir
v ib
w rap
x edo
y ro
y man
y stem
z ef
z imuth
Ġ TV
Ġ igloo
Ġt ip
Ġt ramp
Ġt oday
Ġn uke
Ġn iche
Ġn inja
Ġs op
Ġs ow
Ġs age
Ġs ize
Ġs ource
Ġs ushi
Ġs ouvenir
le man
in st
in te
in str
in vest
in osa
at ility
Ġo me
Ġo zone
od ity
Ġsle dge
Ġsleep iness
Ġnap kin
Ġd addy
Ġd ude
Ġd warf
Ġd elay
Ġd umbwaiter
Ġd redger
Ġd andelion
li gation
Ġf ence
Ġf low
Ġf iddle
Ġf abric
Ġf aucet
Ġe ro
Ġe man
Ġe scape
Ġli ability
rink le
on cho
er ce
Ġc all
Ġc ensus
Ġc rinoline
Ġc acao
Ġc adet
Ġc inema
Ġc ummerbund
Ġc affeine
Ġp ut
Ġp ace
Ġp ork
Ġp elt
Ġp eek
Ġp izza
Ġp umpernickel
Ġp oncho
st at
st ud
st opper
Ġb room
Ġb oulder
Ġm ath
Ġm outon
Ġm ilitary
Ġm useum
it age
al ade
ac as
ro ke
ic ine
ic inity
is dom
ent leman
Ġg azelle
Ġg yro
as ury
Ġh ay
Ġh int
Ġh ope
Ġh osiery
ra int
ra structure
om a
Ġw ord
Ġw agon
Ġw ife
el lett
ri ac
Ġre str
Ġre ading
Ġre verse
Ġre cliner
Ġre mote
Ġre velation
ot omy
ot ene
ch ap
ch op
ch ase
Ġin crease
Ġin verse
ss ing
ur on
ol der
Ġst ir
Ġst ain
Ġst rip
Ġst urgeon
Ġst retch
Ġst roke
se cre
se cond
Ġv ice
Ġv ote
ut u
ant e
us her
Ġa le
Ġa uction
Ġa verage
Ġa zimuth
ver craft
ver sal
ve ction
ve get
Ġch ard
Ġr ank
Ġcon e
Ġcon ifer
Ġcon formation
Ġsp ud
Ġsp rat
Ġde bris
Ġl ace
Ġl ung
bo e
Ġj ute
th under
Ġsh ampoo
sh o
sh ort
ab out
sp ort
Ġpro perty
Ġpro liferation
ed y
est ream
Ġex cess
Ġle ave
Ġk ilt
ne ighb
Ġsc ow
Ġsc rambled
de f
de v
de ve
os k
os ond
os ystem
Ġco in
og yn
our wood
Ġan terior
Ġan archist
Ġse gment
Ġse eker
arm alade
Ġtr unk
ail ability
Ġbe am
Ġbe ard
Ġbe ck
Ġra ge
Ġdis k
Ġdis aster
Ġdis connection
Ġdis agreement
Ġdis ease
Ġdis sonance
all ation
me ss
Ġlo ad
Ġth inking
Ġth irst
Ġth roat
Ġro mance
te le
be y
ise guy
Ġpo etry
Ġcomp uter
Ġcomp ulsion
Ġcol lagen
Ġpl ant
Ġpl ough
Ġpre scription
Ġme ander
Ġme cca
ph y
ph oon
Ġy oke
Ġcr ash
Ġcar boxyl
Ġfo b
Ġcont ent
Ġcont rail
Ġman y
Ġgra in
Ġgra ft
Ġgra vel
Ġap ricot
Ġcl one
Ġcl arity
Ġsw ing
Ġsw ine
Ġto y
Ġne glect
Ġne uron
Ġper p
Ġdi al
Ġsub way
Ġsub urb
Ġsub prime
amp le
com b
Ġpe a
Ġpe ace
Ġcre ative
Ġar cade
uck us
ater al
ach oma
Ġmar garine
Ġbl ush
Ġbl inker
Ġinter course
cre d
ma frost
ren cy
Ġho vercraft
Ġrep lication
Ġrep orter
Ġrep rocessing
Ġcomm ission
Ġcomm odity
Ġcomm erce
Ġpat ron
Ġpat ience
Ġpat rimony
Ġfl our
ank y
Ġinf ection
Ġsk unk
Ġri ver
Ġant ler
Ġant hropology
Ġcap e
Ġbar ometer
Ġbar stool
che ology
Ġmon soon
Ġstep son
Ġclo ver
Ġclo ister
Ġmin ing
Ġmin cemeat
Ġmin imalism
Ġover shoot
Ġsup ply
Ġapp liance
Ġapp arel
Ġcur rent
Ġcur rency
Ġmot el
Ġatt ribute
Ġass et
Ġass umption
Ġass ertion
Ġaut umn
mot or
Ġun it
Ġunder shirt
Ġunder wire
Ġas cot
Ġas pic
Ġref orm
Ġab normality
Ġmis reading
Ġmis representation
Ġreg ime
Ġfre ight
Ġfre edom
Ġpass ion
Ġpass enger
Ġep och
Ġep auliere
Ġey estrain
Ġgrand daughter
Ġmet aphor
Ġmet allurgist
min ology
Ġcons ole
gu age
Ġpant s
Ġpant her
ex t
Ġpen insula
Ġag gradation
gh ole
Ġsm ith
serv ative
Ġfoot stool
Ġele vation
br ane
Ġret urn
Ġtrans formation
Ġel f
rim ination
Ġim age
Ġdet ail
Ġbu ilding
amb ling
Ġshe ath
Ġshe ll
Ġed ition
Ġleg itimacy
Ġform al
Ġhom eland
Ġhom osexuality
Ġhard cover
Ġsy camore
Ġev iction
Ġins olence
Ġtw ilight
les law
Ġend oderm
Ġcop per
Ġblack fish
zz arel
Ġser ial
Ġban ana
Ġmac rame
Ġtom ato
Ġsav age
Ġloc ker
Ġup lift
Ġca ftan
Ġpan pipe
Ġbur den
Ġvol ume
dis c
ous and
Ġhor seradish
Ġart ichoke
Ġmid wife
Ġcommun ity
Ġcle ft
Ġbook ing
pre m
Ġmod eling
Ġprod uction
Ġmed icine
Ġcrew man
Ġheart beat
Ġcond ition
Ġher mit
Ġher itage
Ġtab ernacle
Ġfil let
Ġmag azine
Ġtest ament
Ġpin ce
Ġpin ot
Ġpin stripe
Ġnet suke
Ġham mer
Ġcirc adian
Ġside car
Ġent ity
Ġent ree
Ġhur dle
Ġdef icit
Ġemer ald
Ġcred ibility
Ġtu xedo
Ġflo or
Ġbas is
Ġfol der
Ġlip stick
Ġvi olin
Ġthr one
Ġic icle
Ġgod parent
Ġany where
Ġamb assador
Ġbreak point
Ġfin ish
Ġwood land
Ġemerg ence
Ġturn over
Ġprov ince
Ġext ent
Ġmark up
Ġorgan ization
Ġeffect or
Ġeffect ive
Ġkey board
Ġcounsel ling
Ġing redient
Ġbow tie
Ġgre y
Ġchap lain
Ġrub ber
Ġpost fix
Ġpine apple
Ġbud get
Ġchair person
Ġeye glasses
Ġsli me
Ġple asure
Ġconst raint
Ġfri end
Ġfri gate
Ġcup board
icke n
Ġchron icle
ey e
so ft
Ġtreat y
Ġnur sery
Ġsan ction
Ġfarm land
Ġinvest ment
Ġspect rograph
Ġcorpor al
cr umb
col le
col on
Ġill ustration
Ġton ality
Ġresid ent
Ġsweat shirt
Ġbit ter
Ġdecl ine
Ġappet izer
Ġsemic olon
Ġtail or
Ġsection al
Ġvine gar
Ġprot est
Ġcongress person
Ġinstrument alist
Ġdocument ary
Ġfall ing
Ġcard board
Ġcast le
Ġbull dozer
Ġstr uggle
Ġstr udel
Ġlunch meat
Ġminor ity
Ġfeed ing
Ġevery body
Ġparent hesis
Ġreven ue
Ġchild hood
Ġnews letter
fer ometer
Ġide a
Ġliqu idity
Ġmay onnaise
Ġgam ma
Ġwait ress
Ġprison er
coun sel
coun cil
mp se
Ġden ominator
asht ub
Ġrequ est
Ġpreced ent
Ġasse mbly
Ġserv ice
Ġcollectiv isation
Ġdoub ling
Ġske leton
Ġsad ness
Ġsneaker s
Ġcultiv ar
Ġdesk top
Ġexpl orer
Ġsolic itor
Ġparticip ation
Ġsensit ivity
Ġnumer acy
Ġfisher man
Ġlif estyle
Ġpir acy
Ġpocket book
Ġgi ant
Ġgal lery
Ġcoord inator
Ġeyel ashes
Ġgener ator
Ġindust ry
Ġprincip le
Ġidi om
sim mon
Ġoce lot
Ġfire wall
Ġaud it
Ġdest ination
Ġcarp enter
Ġswan ling
Ġdiam ond
Ġpatri arch
Ġhandle bar
Ġelev enth
Ġspectacle s
aut hor
Ġbust le
Ġstim ulus
agger ation
Ġacqu isition
Ġcris is
Ġtrapez ium
equ ality
Ġtrip od
Ġcray fish
acc ount
Ġhack saw
Ġvint age
Ġlumber man
Ġrip ple
Ġplaster board
Ġtherap y
Ġfit ness
Ġpron unciation
Ġmal nutrition
Ġhell cat
Ġsche me
Ġtrust ee
Ġrevascular ization
Ġdistrib ution
Ġindustri alization
Ġcrib bage
Ġbuck wheat
Ġger bil
Ġger anium
Ġstore y
Ġexc use
Ġexc itement
Ġcrit ic
Ġcrit icism
Ġzo ology
Ġzo ologist
Ġpract ice
Ġpract itioner
Ġblood flow
cir c
je wel
sen berry
Ġclip board
Ġborrow ing
Ġcho osing
Ġposter ior
sle ep
cal c
swe at
alge sia
icy cle
tech n
commod ation
toot h
ioc a
oge yman
zef ight
Ġsop rano
inosa ur
Ġome let
Ġero sion
Ġeman ate
ellett i
Ġrestr ucturing
osond e
ogyn y
zzarel la
a ud
b ou
b ul
b ass
b ill
b low
b row
b ake
b ron
b uff
b ull
c li
c ow
c ard
c ine
c ali
c ry
c ler
c ivili
c ross
d on
d am
d ed
d est
d ish
d ragon
e very
e lect
f at
f ra
f am
f ir
f ig
f ed
f av
f und
g re
g al
g el
g am
g ig
g ym
g reat
g overn
h ip
h ub
h ome
h oney
i king
j ack
j elly
k i
k ra
l an
l unch
m ap
m ant
m ort
m ast
m ay
m ix
n od
n est
n og
o be
p ad
p un
p la
p ine
p ub
p ay
p ain
p ump
p oll
p ublic
p sych
p ocket
r is
s u
s at
s um
s us
s ale
s uc
s ym
s ens
s und
t ar
t our
t own
t ank
t reat
v ine
w ing
w et
w arm
w ash
w ait
y phoon
Ġt one
Ġt art
Ġt ree
Ġt aste
Ġt ask
Ġt utu
Ġt yphoon
he ar
Ġn ature
Ġs ourwood
in iti
ap pe
ap pet
Ġo poss
Ġo boe
Ġo kra
Ġd iner
Ġd inner
Ġd ibble
Ġd inosaur
li ke
li st
li qu
li th
Ġf awn
Ġf arrow
Ġli mit
Ġc yn
re se
re sid
re cip
Ġp usher
en c
en gine
or ig
st op
st ock
st ory
st raw
Ġb elly
Ġb icycle
Ġm it
Ġm ink
Ġm oney
Ġm igrant
Ġm armalade
al b
ro mo
Ġg entleman
Ġg ambling
as ub
Ġh ound
Ġh older
ce le
Ġw rinkle
Ġw isdom
Ġw iseguy
Ġw ashtub
am ic
ad min
ad get
Ġre versal
ch ron
ch amp
ge bra
Ġin equality
se mic
ter r
Ġv ulture
Ġv icinity
ig o
im m
Ġa bo
qu art
Ġch ive
Ġch urn
Ġch ange
Ġch icken
Ġr uckus
op p
op er
op tim
ate lier
Ġcon clusion
Ġcon venience
Ġcon vection
Ġcon servative
Ġsp ite
bo ssing
and ex
Ġj erk
Ġsh ackle
sp e
Ġpro file
ed al
ast ro
Ġcom edy
em er
Ġex aggeration
Ġhe ating
ne u
Ġsc rap
de b
de cl
de fe
Ġco leslaw
Ġan algesia
Ġbo ogeyman
Ġal low
Ġal gebra
Ġtr achoma
Ġbe at
Ġra iling
sc o
sc rew
sc ulpt
Ġac commodation
Ġlo ck
Ġth ousand
Ġro tation
Ġad obe
co b
co ok
Ġqu it
Ġqu een
Ġcomp ress
Ġcomp oser
ph ys
Ġcr anky
Ġcar otene
Ġman sion
po li
ring ue
Ġpar ole
Ġpar able
hy p
hy ra
Ġper mafrost
Ġper simmon
Ġsub group
Ġpe en
Ġar rival
Ġar cheology
Ġche er
Ġmar acas
Ġinter connection
Ġinter ferometer
ma jor
fe ed
Ġho spice
Ġho bby
Ġmo zzarella
Ġwh arf
Ġout run
Ġph one
ind ust
Ġma ker
Ġinf ancy
Ġinf rastructure
Ġter minology
Ġsk ill
Ġant ling
Ġbar ge
Ġbar gain
Ġbar rack
Ġair force
che m
Ġpr une
Ġmin ute
Ġdra ft
Ġpri zefight
Ġcur ry
read or
Ġas pect
Ġref use
Ġab bey
rest ler
Ġmis carriage
Ġmis nomer
Ġmis ogyny
Ġfe ar
Ġchar ter
Ġob session
Ġob ligation
Ġcat cher
Ġreg ulator
Ġreg istration
gr ass
Ġep hyra
min or
rit o
gu la
ex pl
tr ack
Ġsm ell
Ġback up
we ed
itor ium
Ġwork horse
Ġwar fare
Ġadv ice
pro m
pro v
pro se
pro fe
pro gram
Ġwater front
comp ass
Ġver sion
ther m
Ġshe d
Ġbal let
Ġbal lot
Ġmem brane
Ġhead rest
Ġleg ging
ret rospect
Ġhom osexual
Ġres ist
Ġres ale
met h
Ġtw ister
Ġprop osal
sk ull
Ġser ies
Ġdisc rimination
Ġfore arm
Ġfore bear
Ġpur ple
Ġpur chase
umb ling
Ġvol atility
Ġtre asury
Ġbag pipe
Ġste ak
Ġmid line
Ġspec ialist
Ġcle f
Ġcle arance
Ġdisp lay
Ġwind shield
di ff
Ġinst allation
Ġrain coat
Ġec osystem
Ġson ata
Ġdev ice
Ġvari ability
Ġcer tainty
Ġcoll ateral
sent ative
Ġbut cher
Ġhigh land
Ġsky light
Ġrest room
sw im
sw ord
sw itch
Ġperson ality
stand ard
Ġgod mother
Ġus ual
Ġfin ancing
Ġtro phy
Ġturn ing
Ġprov ision
Ġplan ula
Ġorgan isation
Ġcele riac
Ġtop ic
Ġmail box
Ġsor rel
Ġder ivation
Ġgre ens
char acter
Ġlap top
Ġboy senberry
mar sh
mar ket
Ġnut rition
Ġfen g
Ġfen cing
Ġbath robe
Ġinte gration
Ġsli der
Ġdon key
Ġconst ant
Ġcouncil man
Ġcopy writer
sup er
wh is
wh ole
Ġgli mpse
Ġwash cloth
Ġvac cine
Ġspir al
Ġspir itual
ey el
ey eb
sub sid
Ġburn ing
Ġwet suit
Ġsweat suit
mus ic
Ġess ence
Ġcha fe
Ġki osk
Ġtail bud
Ġwrap ping
Ġdiff erence
Ġstud ent
Ġappe arance
Ġswitch ing
Ġtown house
pri v
Ġfund ing
Ġcivili an
hyd roly
Ġtap ioca
Ġsid estream
leg is
Ġlan guage
Ġserv ant
Ġmodern ity
Ġdoub t
emp loy
Ġtam ale
Ġgal ley
Ġread iness
Ġreorgan ization
Ġcob bler
Ġhybrid isation
Ġclav icle
Ġowner ship
Ġinitiali se
sur round
Ġident ification
Ġmam bo
Ġru ler
Ġanesthes iologist
Ġbeet le
Ġsolid ity
cor por
Ġvot ing
Ġroad way
Ġdrain age
Ġutili sation
acc ord
Ġyoung ster
Ġcapp elletti
Ġcert ification
Ġnewsp aper
Ġsanct ity
Ġwholes ale
Ġdiction ary
Ġbun ghole
Ġgn at
Ġlob ster
Ġlob by
Ġlob otomy
Ġtrail patrol
Ġeffic acy
Ġcraft sman
Ġcompassion ate
ear th
Ġpud ding
Ġav ailability
Ġradi osonde
Ġpresid ency
Ġcracker s
Ġcarpet ing
Ġimplement ation
Ġborrow er
Ġcho ker
Ġtradition alism
Ġterror ist
Ġferry boat
Ġyog a
Ġyog urt
Ġeditor ial
harm on
quest ion
Ġround about
new s
cong ress
Ġbreast plate
dou b
doc ument
jour n
instr ument
Ġoposs um
lith ograph
Ġcyn ic
orig in
Ġmit ten
romo lithograph
asub le
Ġabo lishment
Ġallow ance
Ġbarrack s
a qu
b at
b li
b ad
b un
b est
b log
b ay
b out
b ust
b att
b uck
b roc
b atter
b asket
b omb
b rown
b orrow
b enef
b attle
c ou
c ro
c ri
c ant
c oc
c ass
c ub
c our
c ash
c ord
c ric
c ann
c roc
c lip
c rit
c ray
c raw
c rib
c ause
c uri
c riter
c ultiv
d ra
d il
d ie
d ust
d ash
d ire
d ram
d uck
d ial
d ump
d ark
d oll
d io
d iver
d ough
d une
d uel
d ownt
d rag
d epend
d rain
d irect
e z
e le
e li
e sp
e ag
e sc
e con
e val
e ffic
e aves
e vening
e lev
f an
f en
f ur
f ol
f un
f ut
f ail
f ill
f ood
f urn
f ree
f lu
f inger
f ield
f isher
f anny
f aith
f lat
f olk
f rame
g as
g um
g all
g rap
g uit
g old
g rip
g reen
g raph
g arb
g inger
g irl
h ot
h un
h ist
h op
h ack
h ug
h our
h ide
h all
h av
h air
h ob
h arb
h azel
j ug
j ail
j ump
k o
k id
k ill
k ick
k nee
k now
l in
l un
l ard
l ong
l amb
l umber
m ou
m al
m il
m ir
m ut
m ist
m ass
m os
m ust
m ill
m ood
m all
m att
m ole
m ater
m ach
m atch
m iss
m illi
m ilk
m aster
n ap
n on
n ect
n ood
n ick
n umer
n ucleot
p he
p ap
p od
p ound
p al
p ra
p ir
p ard
p ag
p ud
p ron
p int
p ink
p ian
p ome
p itch
p ray
p hen
p olar
p oly
p aste
p aint
p epper
p seud
p icture
r u
r he
r an
r ug
r hy
s ep
s ke
s ound
s am
s ad
s ug
s ili
s ust
s ill
s imp
s ock
s ong
s af
s ome
s ense
s oul
s ilk
s oy
s lipper
s neaker
t u
t in
t ent
t am
t un
t ow
t ug
t act
t og
t att
t alk
t able
t rip
t ime
t amb
t une
t empt
t igo
u ar
v ac
v ent
v ot
v ali
v int
v illa
v ict
v ault
w o
w it
w il
w ast
w est
w ee
w itch
w ild
w aist
y og
y ellow
y oung
z o
z ebra
Ġ atelier
he l
he ro
he ir
he dge
he ll
he alth
le ver
le mon
le ader
in scription
in sect
at te
ap pro
ap pre
ep hemer
Ġoff ering
Ġd well
li m
li ter
li ability
Ġf uel
ke ep
Ġli gula
on ment
Ġc ane
Ġc ess
re b
re ce
re ck
re cess
re ven
re lation
re ason
re vit
re organ
re hospit
Ġp ouch
Ġp edal
an alog
an esthes
or ient
st ar
st ation
st am
st im
st ack
st ore
st reet
Ġb ump
Ġm outh
it ial
al co
al ph
al pen
al umin
ac cess
ac comp
ac adem
ac celer
ro se
lo b
Ġg adget
Ġh ull
Ġh iking
ra di
ra ndom
ce ll
Ġw ant
Ġw restler
et h
am ing
ri ot
ri ver
ad ap
ad vert
ad renal
ch in
ch ip
ch ain
ch au
ge m
ge ar
Ġst ream
Ġst umbling
se m
se x
ter m
ter ror
id i
un iver
un iform
la ug
ir on
ut ili
qu ality
Ġch romolithograph
Ġch asuble
op portun
Ġsp ur
Ġsp andex
Ġde light
ine a
bo b
bo nd
her b
th ong
ass ist
ass oci
sh ow
sh are
sh ock
sh ore
sh adow
sp y
sp at
sp ot
sp read
sp oke
sp ider
sp onsor
sp eed
ed itor
ag uar
Ġex ample
ect oderm
ie w
ne on
ne ed
per f
per cent
per iod
de s
de li
de al
de ad
de ath
de sk
de cision
Ġbo oster
ket ch
ket tle
sc r
sc he
sc en
sc al
sc ience
sc hed
me an
me et
me asure
me chan
Ġlo x
imp ort
man ufact
te en
te am
co st
co ord
be et
be ast
be gin
be hav
pe ac
ling u
con st
con tr
con cent
con vert
con spir
con tractor
Ġpl ume
Ġpre face
Ġme ringue
ph r
ph armac
ph ilosop
Ġy ard
Ġem bossing
po ster
po ison
po lit
Ġap ron
Ġto reador
hy brid
Ġdi et
int ention
com m
com mon
com mer
com mit
com fort
com mand
ach ie
ma x
cl oud
ind epend
pl at
pl an
che st
che ese
clo ak
Ġgu ard
ens ing
roc ket
work ing
Ġfre sco
Ġsun lamp
Ġcor sage
min i
gu id
gu est
ex c
ex e
ex am
ex haust
ex pect
arch ae
arch itect
mon ast
tr ou
tr ust
car p
car pet
br an
br ass
br ace
br ick
gen er
pro b
pro t
pro x
pro st
pro of
comp lex
Ġver tigo
spect acle
ther ap
mer ch
Ġres ource
met eor
gl ut
Ġnot ion
to ler
rib ution
rib utor
Ġtur key
Ġser um
Ġfore head
Ġfle ck
lu x
bar be
Ġup ward
Ġbur rito
Ġrev ival
Ġrev iew
Ġprin ter
Ġdisp arity
pre sid
Ġmod el
di am
pr act
pr ison
Ġgo at
Ġpoli tics
rep ort
rep ublic
Ġcer amic
Ġvis itor
Ġred irect
bl ue
imple ment
cont in
cont act
cap p
cap it
cap itulation
off ic
sw an
bal loon
do ctor
Ġwal ker
bre ast
Ġcook ing
pat ent
pat ty
Ġcli mate
Ġbank ing
par am
rob ot
Ġval ue
she l
she ar
bro ad
fo x
ec ology
tra il
tra ffic
tra dition
wh irl
so lic
so lid
Ġinvest or
cr is
cr acker
col or
col lection
col umn
Ġton ic
Ġoper ator
Ġhub ris
mus cat
Ġcha ise
sn ake
but ter
my th
pant y
Ġegg nog
Ġstud io
lab or
lab our
corn er
part ner
reg ion
Ġbread crumb
adv oc
adv ance
fer ry
pri or
pri est
trap ez
Ġmay or
hyd ro
hyd rocarb
Ġretrospect ive
dri ve
sch ool
sch olar
Ġtun nel
Ġeth yl
Ġkill ing
mic ro
Ġeyel ash
fl int
hand le
mor bid
sur v
inn oc
Ġpic nic
Ġaud itorium
prod uct
aut o
aut om
aut hent
cor respond
mod ern
Ġpeac oat
bus iness
Ġoffic er
div ide
fore st
sa fe
cons ist
cons ul
bra nd
ear ring
iar a
vol unte
ste am
Ġmilli second
bu y
mac ar
mac ro
mid dle
spec ial
Ġsched ule
Ġrepre sentative
exp ansion
eff ect
hum an
kn ife
past or
pick ax
tem per
tem por
cand id
camp aign
count ry
dem oc
fib er
prin cip
tab let
wor ship
rev ascular
new sp
exper t
exper iment
tran sp
tran sport
blo od
bott om
cit izen
cla v
dip lo
dyn am
flo od
lad y
pil grim
rh osis
san ct
vir onment
inte gr
chop stick
secre t
veget arian
neighb or
neighb our
deve lopment
Ġriver bed
Ġfriend ship
eye lid
colle ctiv
circ um
cry stal
fat igue
fra ud
fam ili
fav or
gym nast
pla ster
pump kin
sens it
hear th
initi ali
champ ion
spe aker
astro log
emer g
neu rop
poli ce
indust ri
prom ise
profe ssion
compass ion
meth od
eyeb row
legis l
cour t
wee ke
Ġcess pool
