{"<s>":0,"<pad>":1,"</s>":2,"<unk>":3,"<mask>":4,"!":5,"\"":6,"#":7,"$":8,"%":9,"&":10,"'":11,"(":12,")":13,"*":14,"+":15,",":16,"-":17,".":18,"/":19,"0":20,"1":21,"2":22,"3":23,"4":24,"5":25,"6":26,"7":27,"8":28,"9":29,":":30,";":31,"<":32,"=":33,">":34,"?":35,"@":36,"A":37,"B":38,"C":39,"D":40,"E":41,"F":42,"G":43,"H":44,"I":45,"J":46,"K":47,"L":48,"M":49,"N":50,"O":51,"P":52,"Q":53,"R":54,"S":55,"T":56,"U":57,"V":58,"W":59,"X":60,"Y":61,"Z":62,"[":63,"\\":64,"]":65,"^":66,"_":67,"`":68,"a":69,"b":70,"c":71,"d":72,"e":73,"f":74,"g":75,"h":76,"i":77,"j":78,"k":79,"l":80,"m":81,"n":82,"o":83,"p":84,"q":85,"r":86,"s":87,"t":88,"u":89,"v":90,"w":91,"x":92,"y":93,"z":94,"{":95,"|":96,"}":97,"~":98,"¡":99,"¢":100,"£":101,"¤":102,"¥":103,"¦":104,"§":105,"¨":106,"©":107,"ª":108,"«":109,"¬":110,"®":111,"¯":112,"°":113,"±":114,"²":115,"³":116,"´":117,"µ":118,"¶":119,"·":120,"¸":121,"¹":122,"º":123,"»":124,"¼":125,"½":126,"¾":127,"¿":128,"À":129,"Á":130,"Â":131,"Ã":132,"Ä":133,"Å":134,"Æ":135,"Ç":136,"È":137,"É":138,"Ê":139,"Ë":140,"Ì":141,"Í":142,"Î":143,"Ï":144,"Ð":145,"Ñ":146,"Ò":147,"Ó":148,"Ô":149,"Õ":150,"Ö":151,"×":152,"Ø":153,"Ù":154,"Ú":155,"Û":156,"Ü":157,"Ý":158,"Þ":159,"ß":160,"à":161,"á":162,"â":163,"ã":164,"ä":165,"å":166,"æ":167,"ç":168,"è":169,"é":170,"ê":171,"ë":172,"ì":173,"í":174,"î":175,"ï":176,"ð":177,"ñ":178,"ò":179,"ó":180,"ô":181,"õ":182,"ö":183,"÷":184,"ø":185,"ù":186,"ú":187,"û":188,"ü":189,"ý":190,"þ":191,"ÿ":192,"Ā":193,"ā":194,"Ă":195,"ă":196,"Ą":197,"ą":198,"Ć":199,"ć":200,"Ĉ":201,"ĉ":202,"Ċ":203,"ċ":204,"Č":205,"č":206,"Ď":207,"ď":208,"Đ":209,"đ":210,"Ē":211,"ē":212,"Ĕ":213,"ĕ":214,"Ė":215,"ė":216,"Ę":217,"ę":218,"Ě":219,"ě":220,"Ĝ":221,"ĝ":222,"Ğ":223,"ğ":224,"Ġ":225,"ġ":226,"Ģ":227,"ģ":228,"Ĥ":229,"ĥ":230,"Ħ":231,"ħ":232,"Ĩ":233,"ĩ":234,"Ī":235,"ī":236,"Ĭ":237,"ĭ":238,"Į":239,"į":240,"İ":241,"ı":242,"Ĳ":243,"ĳ":244,"Ĵ":245,"ĵ":246,"Ķ":247,"ķ":248,"ĸ":249,"Ĺ":250,"ĺ":251,"Ļ":252,"ļ":253,"Ľ":254,"ľ":255,"Ŀ":256,"ŀ":257,"Ł":258,"ł":259,"Ń":260,"ou":261,"You":262,"Ġt":263,"he":264,"Ġthe":265,"Ġn":266,"Ġs":267,"le":268,"in":269,"at":270,"ap":271,"Ġo":272,"od":273,"ep":274,"ff":275,"Ġsle":276,"Ġsleep":277,"Ġoff":278,"Ġnod":279,"Ġnap":280,"Ġd":281,"li":282,"Ġf":283,"nd":284,"Ġe":285,"ke":286,"Ġli":287,"rin":288,"ound":289,"Ġfound":290,"Ġeat":291,"Ġlike":292,"rink":293,"Ġdrink":294,"on":295,"er":296,"Ġc":297,"re":298,"Ġp":299,"ar":300,"ion":301,"an":302,"en":303,"or":304,"st":305,"Ġb":306,"Ġm":307,"it":308,"al":309,"ing":310,"ac":311,"ro":312,"ation":313,"ic":314,"is":315,"ent":316,"lo":317,"Ġg":318,"as":319,"Ġh":320,"ra":321,"ce":322,"om":323,"Ġw":324,"et":325,"il":326,"el":327,"am":328,"ri":329,"ad":330,"Ġre":331,"ot":332,"um":333,"ch":334,"ge":335,"Ġin":336,"ss":337,"ur":338,"ol":339,"Ġst":340,"ct":341,"se":342,"ter":343,"ment":344,"id":345,"un":346,"la":347,"ir":348,"Ġv":349,"ig":350,"ut":351,"ant":352,"im":353,"ist":354,"us":355,"Ġa":356,"ver":357,"ve":358,"qu":359,"Ġch":360,"ul":361,"Ġr":362,"op":363,"ate":364,"Ġcon":365,"ow":366,"Ġsp":367,"ity":368,"ard":369,"Ġde":370,"oc":371,"Ġl":372,"ty":373,"ine":374,"bo":375,"her":376,"and":377,"Ġj":378,"ip":379,"th":380,"ali":381,"Ġsh":382,"ass":383,"ry":384,"ance":385,"ht":386,"sh":387,"ab":388,"age":389,"sp":390,"ub":391,"ort":392,"Ġpro":393,"ed":394,"ast":395,"Ġcom":396,"ag":397,"est":398,"em":399,"ence":400,"up":401,"ack":402,"ure":403,"Ġex":404,"ect":405,"log":406,"Ġhe":407,"Ġle":408,"ay":409,"Ġk":410,"ler":411,"ie":412,"one":413,"ne":414,"art":415,"ck":416,"Ġsc":417,"ker":418,"iv":419,"per":420,"out":421,"ug":422,"de":423,"act":424,"os":425,"Ġco":426,"og":427,"our":428,"if":429,"ib":430,"orm":431,"Ġan":432,"ili":433,"Ġse":434,"Ġbo":435,"Ġal":436,"nt":437,"arm":438,"Ġtr":439,"ust":440,"ail":441,"ress":442,"Ġbe":443,"ket":444,"ill":445,"ain":446,"ace":447,"Ġra":448,"der":449,"are":450,"Ġdis":451,"ger":452,"ide":453,"ood":454,"let":455,"olog":456,"sc":457,"all":458,"rap":459,"ition":460,"ue":461,"me":462,"ok":463,"av":464,"tion":465,"nder":466,"ick":467,"Ġac":468,"ber":469,"Ġlo":470,"Ġth":471,"ary":472,"Ġro":473,"ction":474,"imp":475,"cy":476,"ive":477,"man":478,"Ġad":479,"te":480,"low":481,"ight":482,"co":483,"Ġte":484,"be":485,"sion":486,"Ġla":487,"ud":488,"Ġqu":489,"ator":490,"ise":491,"pe":492,"ling":493,"iz":494,"ase":495,"Ġpo":496,"ash":497,"Ġcomp":498,"con":499,"ght":500,"ire":501,"ice":502,"ics":503,"ign":504,"ock":505,"Ġcol":506,"ork":507,"Ġpl":508,"Ġpre":509,"Ġen":510,"row":511,"uit":512,"ath":513,"ord":514,"Ġme":515,"ph":516,"Ġy":517,"Ġcr":518,"lic":519,"att":520,"Ġcou":521,"Ġcar":522,"ory":523,"ism":524,"ake":525,"ee":526,"Ġfo":527,"ology":528,"ale":529,"ari":530,"ft":531,"Ġem":532,"air":533,"Ġcont":534,"ication":535,"ness":536,"ility":537,"Ġman":538,"Ġgra":539,"ron":540,"ouse":541,"po":542,"Ġap":543,"ult":544,"Ġcl":545,"ish":546,"Ġhy":547,"orn":548,"Ġsw":549,"ia":550,"ring":551,"ser":552,"Ġto":553,"Ġne":554,"ak":555,"Ġpar":556,"own":557,"hy":558,"Ġper":559,"Ġdi":560,"ship":561,"ell":562,"ality":563,"Ġsub":564,"ile":565,"ole":566,"ster":567,"int":568,"amp":569,"com":570,"Ġpe":571,"Ġcre":572,"ite":573,"ram":574,"Ġar":575,"Ġche":576,"uck":577,"ater":578,"pt":579,"ach":580,"Ġgr":581,"eb":582,"board":583,"Ġmar":584,"under":585,"Ġsn":586,"Ġbl":587,"Ġinter":588,"cre":589,"ma":590,"uc":591,"cl":592,"fe":593,"Ġso":594,"ren":595,"Ġho":596,"aw":597,"Ġrep":598,"urn":599,"Ġimp":600,"ination":601,"Ġmo":602,"Ġcomm":603,"ial":604,"ency":605,"Ġwh":606,"igh":607,"ym":608,"Ġpat":609,"eter":610,"Ġbr":611,"Ġout":612,"Ġfl":613,"acy":614,"rol":615,"Ġph":616,"ame":617,"ution":618,"ind":619,"au":620,"ner":621,"Ġz":622,"Ġtra":623,"ier":624,"ather":625,"ump":626,"pl":627,"ric":628,"Ġor":629,"light":630,"ush":631,"ank":632,"alis":633,"ium":634,"Ġma":635,"Ġinf":636,"Ġter":637,"Ġtran":638,"Ġsk":639,"Ġsur":640,"ef":641,"Ġri":642,"rop":643,"ization":644,"gle":645,"Ġant":646,"Ġcap":647,"Ġsho":648,"ration":649,"Ġbar":650,"ink":651,"ade":652,"ix":653,"ann":654,"Ġwe":655,"Ġair":656,"che":657,"clo":658,"way":659,"ane":660,"Ġmon":661,"old":662,"Ġstep":663,"lay":664,"Ġclo":665,"Ġpr":666,"Ġmin":667,"Ġgu":668,"end":669,"uff":670,"atch":671,"rine":672,"room":673,"ection":674,"Ġover":675,"Ġdra":676,"Ġpri":677,"ens":678,"cess":679,"gra":680,"Ġam":681,"Ġsup":682,"Ġdep":683,"Ġapp":684,"ave":685,"itu":686,"ong":687,"Ġcur":688,"Ġmot":689,"alk":690,"boat":691,"dge":692,"ian":693,"Ġatt":694,"sy":695,"Ġass":696,"ark":697,"Ġrec":698,"Ġaut":699,"af":700,"az":701,"aker":702,"mot":703,"oon":704,"Ġun":705,"isation":706,"que":707,"Ġexp":708,"Ġcoun":709,"cle":710,"sid":711,"read":712,"roc":713,"ird":714,"aff":715,"over":716,"Ġunder":717,"lip":718,"ention":719,"Ġacc":720,"ore":721,"ven":722,"Ġas":723,"son":724,"work":725,"Ġarm":726,"ability":727,"val":728,"Ġdiv":729,"ony":730,"ax":731,"Ġref":732,"Ġspe":733,"able":734,"Ġkn":735,"line":736,"und":737,"hes":738,"ification":739,"oun":740,"Ġab":741,"ior":742,"ience":743,"rest":744,"Ġmis":745,"ister":746,"book":747,"net":748,"Ġfe":749,"Ġgl":750,"Ġchar":751,"Ġob":752,"key":753,"Ġcat":754,"rip":755,"Ġreg":756,"law":757,"ob":758,"ond":759,"ose":760,"suit":761,"ape":762,"reen":763,"Ġhand":764,"ulation":765,"ble":766,"gr":767,"iment":768,"mate":769,"port":770,"sel":771,"Ġop":772,"Ġfre":773,"Ġpass":774,"str":775,"ott":776,"zation":777,"Ġep":778,"Ġsun":779,"iner":780,"Ġey":781,"Ġcor":782,"ime":783,"Ġdec":784,"Ġgrand":785,"ball":786,"Ġmet":787,"ision":788,"ome":789,"min":790,"rit":791,"ody":792,"itch":793,"Ġve":794,"ute":795,"Ġcons":796,"form":797,"gu":798,"uct":799,"ount":800,"reat":801,"Ġpant":802,"ex":803,"orce":804,"Ġbro":805,"Ġhyd":806,"kin":807,"arch":808,"ull":809,"osition":810,"cher":811,"gy":812,"ting":813,"ern":814,"land":815,"ular":816,"itude":817,"ject":818,"mon":819,"set":820,"tr":821,"yn":822,"Ġpen":823,"Ġgen":824,"ety":825,"oll":826,"Ġag":827,"box":828,"raph":829,"ait":830,"gh":831,"Ġtri":832,"Ġtem":833,"Ġsm":834,"len":835,"Ġback":836,"icle":837,"ume":838,"Ġind":839,"ression":840,"serv":841,"dle":842,"we":843,"atter":844,"Ġdo":845,"arb":846,"aly":847,"illa":848,"Ġconf":849,"gin":850,"ual":851,"Ġcy":852,"itor":853,"iss":854,"ray":855,"ument":856,"car":857,"iel":858,"ative":859,"berry":860,"Ġfoot":861,"get":862,"house":863,"uction":864,"Ġwork":865,"Ġele":866,"loy":867,"irt":868,"ologist":869,"Ġsnow":870,"br":871,"ding":872,"io":873,"oke":874,"por":875,"use":876,"Ġsign":877,"ley":878,"ature":879,"ense":880,"ison":881,"Ġret":882,"ower":883,"gen":884,"Ġsal":885,"ons":886,"Ġpast":887,"acle":888,"Ġwar":889,"Ġadv":890,"ai":891,"hor":892,"mb":893,"pro":894,"Ġmus":895,"action":896,"actor":897,"Ġtrans":898,"by":899,"rant":900,"ode":901,"Ġel":902,"ict":903,"Ġwater":904,"ament":905,"unt":906,"comp":907,"alism":908,"cent":909,"ly":910,"na":911,"itation":912,"rim":913,"Ġstand":914,"Ġver":915,"very":916,"spect":917,"Ġlab":918,"es":919,"ror":920,"ther":921,"ware":922,"Ġim":923,"Ġdet":924,"Ġear":925,"Ġbu":926,"Ġinv":927,"lish":928,"raw":929,"illi":930,"amb":931,"oci":932,"Ġje":933,"spit":934,"arium":935,"mer":936,"Ġnight":937,"Ġshe":938,"Ġed":939,"Ġcal":940,"ange":941,"stro":942,"Ġbal":943,"Ġmem":944,"Ġaf":945,"Ġhead":946,"Ġleg":947,"fish":948,"gon":949,"gan":950,"Ġform":951,"Ġeff":952,"Ġcan":953,"Ġcir":954,"ree":955,"ret":956,"Ġpart":957,"Ġbri":958,"Ġgood":959,"Ġhom":960,"Ġhard":961,"Ġres":962,"unch":963,"Ġemp":964,"cer":965,"met":966,"Ġlog":967,"Ġsy":968,"Ġev":969,"alization":970,"ault":971,"dy":972,"gl":973,"iver":974,"pen":975,"sman":976,"Ġequ":977,"Ġinc":978,"Ġins":979,"tern":980,"idence":981,"phone":982,"back":983,"cil":984,"oo":985,"ping":986,"ruit":987,"vel":988,"ze":989,"oul":990,"Ġtw":991,"Ġnot":992,"Ġsch":993,"atin":994,"lier":995,"ery":996,"ings":997,"asket":998,"Ġint":999,"Ġly":1000,"Ġprop":1001,"ibility":1002,"cur":1003,"lation":1004,"to":1005,"xt":1006,"Ġfra":1007,"Ġcorn":1008,"Ġpop":1009,"stone":1010,"Ġge":1011,"rib":1012,"ilo":1013,"sk":1014,"tain":1015,"Ġtur":1016,"les":1017,"Ġdri":1018,"Ġdown":1019,"Ġend":1020,"Ġcop":1021,"Ġcart":1022,"ang":1023,"Ġbi":1024,"Ġblack":1025,"mis":1026,"ost":1027,"wer":1028,"zz":1029,"Ġten":1030,"Ġtim":1031,"Ġser":1032,"ream":1033,"Ġbre":1034,"Ġban":1035,"Ġmac":1036,"unk":1037,"Ġprog":1038,"Ġdisc":1039,"Ġfore":1040,"ool":1041,"sis":1042,"ule":1043,"Ġat":1044,"Ġke":1045,"Ġtom":1046,"head":1047,"Ġfle":1048,"Ġcent":1049,"Ġcut":1050,"Ġpur":1051,"Ġpress":1052,"arter":1053,"Ġmor":1054,"ache":1055,"rage":1056,"ublic":1057,"acement":1058,"grand":1059,"mother":1060,"ah":1061,"cep":1062,"lu":1063,"tor":1064,"ough":1065,"Ġsav":1066,"ins":1067,"aper":1068,"Ġfor":1069,"Ġcand":1070,"oration":1071,"Ġblo":1072,"load":1073,"elf":1074,"umb":1075,"raphy":1076,"Ġloc":1077,"Ġarch":1078,"bar":1079,"ess":1080,"father":1081,"gation":1082,"yl":1083,"Ġup":1084,"here":1085,"Ġsqu":1086,"ino":1087,"Ġca":1088,"Ġpan":1089,"Ġpla":1090,"Ġbur":1091,"inger":1092,"Ġrev":1093,"Ġvol":1094,"Ġphot":1095,"aug":1096,"dis":1097,"hood":1098,"wel":1099,"ous":1100,"Ġtre":1101,"Ġsom":1102,"Ġbag":1103,"Ġhor":1104,"ometer":1105,"ild":1106,"Ġste":1107,"agon":1108,"ney":1109,"ife":1110,"nut":1111,"hen":1112,"lid":1113,"Ġfib":1114,"Ġcro":1115,"Ġcla":1116,"ano":1117,"Ġhar":1118,"Ġhouse":1119,"eline":1120,"usion":1121,"vert":1122,"vest":1123,"Ġcong":1124,"Ġcolle":1125,"force":1126,"gage":1127,"ple":1128,"ten":1129,"Ġart":1130,"Ġsem":1131,"ating":1132,"eration":1133,"Ġmid":1134,"rove":1135,"ilt":1136,"une":1137,"Ġrun":1138,"Ġsecre":1139,"Ġtech":1140,"Ġcommun":1141,"ause":1142,"alisation":1143,"sych":1144,"Ġspec":1145,"hib":1146,"of":1147,"sign":1148,"tle":1149,"uri":1150,"zer":1151,"Ġoct":1152,"Ġdist":1153,"Ġcle":1154,"Ġcamp":1155,"Ġprin":1156,"Ġpor":1157,"Ġpot":1158,"alf":1159,"acter":1160,"lop":1161,"asp":1162,"Ġharm":1163,"omb":1164,"ader":1165,"olar":1166,"Ġbook":1167,"Ġdisp":1168,"point":1169,"Ġsoft":1170,"ield":1171,"down":1172,"pre":1173,"rum":1174,"sure":1175,"worm":1176,"wood":1177,"Ġsl":1178,"Ġfla":1179,"Ġpil":1180,"Ġbird":1181,"Ġmod":1182,"Ġmast":1183,"Ġwor":1184,"Ġwind":1185,"ilk":1186,"umber":1187,"Ġaff":1188,"oph":1189,"alist":1190,"scrip":1191,"Ġauthor":1192,"Ġafter":1193,"bi":1194,"di":1195,"gg":1196,"night":1197,"aph":1198,"Ġfort":1199,"Ġport":1200,"Ġpain":1201,"Ġbra":1202,"alog":1203,"acket":1204,"iction":1205,"asc":1206,"Ġweb":1207,"Ġinst":1208,"ivity":1209,"Ġrain":1210,"Ġtext":1211,"Ġprod":1212,"scription":1213,"aver":1214,"cat":1215,"cut":1216,"cup":1217,"horn":1218,"iation":1219,"mit":1220,"ning":1221,"oe":1222,"rate":1223,"vie":1224,"yer":1225,"Ġdog":1226,"Ġfun":1227,"Ġec":1228,"Ġce":1229,"aration":1230,"ans":1231,"stick":1232,"Ġmort":1233,"Ġmed":1234,"asm":1235,"elli":1236,"rid":1237,"gest":1238,"Ġstat":1239,"Ġlat":1240,"anda":1241,"Ġkit":1242,"ival":1243,"Ġcrew":1244,"aze":1245,"servation":1246,"oy":1247,"pr":1248,"Ġact":1249,"Ġson":1250,"Ġfish":1251,"erm":1252,"Ġcab":1253,"Ġpet":1254,"ening":1255,"ith":1256,"lot":1257,"Ġgo":1258,"ellow":1259,"ami":1260,"Ġinn":1261,"ctor":1262,"Ġdev":1263,"Ġexper":1264,"Ġheart":1265,"Ġland":1266,"Ġpoli":1267,"rown":1268,"Ġtoot":1269,"Ġcheck":1270,"Ġhospit":1271,"Ġtransp":1272,"Ġmotor":1273,"face":1274,"ka":1275,"mo":1276,"mination":1277,"oot":1278,"rep":1279,"uce":1280,"Ġis":1281,"erence":1282,"Ġcit":1283,"Ġhum":1284,"omy":1285,"ote":1286,"geon":1287,"ident":1288,"Ġvib":1289,"Ġvari":1290,"imal":1291,"iece":1292,"Ġcond":1293,"Ġboot":1294,"Ġtele":1295,"Ġlaw":1296,"Ġwhis":1297,"band":1298,"nel":1299,"ving":1300,"yard":1301,"Ġher":1302,"Ġtab":1303,"Ġsen":1304,"Ġsoci":1305,"Ġdol":1306,"Ġfil":1307,"Ġcer":1308,"Ġpup":1309,"Ġpath":1310,"orant":1311,"Ġmag":1312,"allow":1313,"adem":1314,"ssion":1315,"ury":1316,"olution":1317,"Ġvis":1318,"ography":1319,"Ġcoll":1320,"maker":1321,"Ġmoon":1322,"hter":1323,"Ġice":1324,"Ġtest":1325,"Ġsand":1326,"Ġest":1327,"Ġpin":1328,"Ġhat":1329,"ced":1330,"Ġred":1331,"uration":1332,"ola":1333,"irl":1334,"Ġven":1335,"owder":1336,"ible":1337,"Ġang":1338,"lower":1339,"Ġcolon":1340,"Ġmess":1341,"Ġclass":1342,"Ġtechn":1343,"bl":1344,"ike":1345,"ll":1346,"round":1347,"sent":1348,"side":1349,"uation":1350,"vention":1351,"Ġnet":1352,"Ġset":1353,"Ġori":1354,"Ġfro":1355,"Ġcra":1356,"Ġpick":1357,"Ġplay":1358,"ana":1359,"Ġbut":1360,"Ġbug":1361,"Ġmer":1362,"ential":1363,"Ġham":1364,"Ġhigh":1365,"Ġjour":1366,"shop":1367,"spir":1368,"arent":1369,"gery":1370,"screen":1371,"imple":1372,"Ġswe":1373,"roller":1374,"Ġveget":1375,"alyst":1376,"Ġcirc":1377,"Ġemploy":1378,"mission":1379,"bit":1380,"cast":1381,"iff":1382,"jor":1383,"rup":1384,"xy":1385,"Ġside":1386,"Ġopt":1387,"Ġdire":1388,"Ġdyn":1389,"Ġent":1390,"arity":1391,"anger":1392,"ench":1393,"Ġbase":1394,"Ġbott":1395,"alth":1396,"ason":1397,"Ġhur":1398,"Ġinstr":1399,"ider":1400,"Ġvan":1401,"Ġrac":1402,"Ġdef":1403,"Ġlad":1404,"Ġprose":1405,"cont":1406,"Ġemer":1407,"Ġcred":1408,"ighter":1409,"Ġsky":1410,"closure":1411,"Ġcharacter":1412,"cap":1413,"case":1414,"go":1415,"off":1416,"rus":1417,"tter":1418,"outh":1419,"Ġtu":1420,"Ġdip":1421,"Ġflo":1422,"ndant":1423,"Ġcod":1424,"Ġcas":1425,"Ġcust":1426,"Ġcock":1427,"Ġbas":1428,"Ġband":1429,"Ġmic":1430,"Ġmile":1431,"ical":1432,"lope":1433,"Ġglo":1434,"asure":1435,"ridge":1436,"Ġrest":1437,"Ġcomb":1438,"ager":1439,"nee":1440,"Ġrob":1441,"Ġcount":1442,"alent":1443,"awn":1444,"Ġante":1445,"Ġaccord":1446,"riting":1447,"Ġcalc":1448,"bid":1449,"fit":1450,"ful":1451,"ique":1452,"sw":1453,"uel":1454,"Ġir":1455,"oup":1456,"Ġtort":1457,"Ġtour":1458,"Ġsym":1459,"Ġon":1460,"Ġfol":1461,"Ġlip":1462,"onent":1463,"Ġcour":1464,"rel":1465,"Ġpsych":1466,"Ġbul":1467,"Ġbatt":1468,"ician":1469,"asse":1470,"Ġvi":1471,"istics":1472,"Ġjun":1473,"Ġjud":1474,"ague":1475,"osity":1476,"Ġthr":1477,"ultim":1478,"Ġhyp":1479,"Ġperson":1480,"lishment":1481,"Ġtooth":1482,"ae":1483,"bal":1484,"cker":1485,"do":1486,"ek":1487,"just":1488,"nce":1489,"oice":1490,"rat":1491,"ype":1492,"Ġic":1493,"Ġdam":1494,"Ġdig":1495,"red":1496,"stand":1497,"Ġmen":1498,"Ġmain":1499,"iti":1500,"itis":1501,"rome":1502,"Ġgod":1503,"oman":1504,"Ġwal":1505,"oly":1506,"verage":1507,"iness":1508,"Ġshort":1509,"Ġany":1510,"arian":1511,"Ġemb":1512,"clam":1513,"Ġmajor":1514,"Ġamb":1515,"Ġbreak":1516,"Ġprogram":1517,"bre":1518,"dom":1519,"hat":1520,"ward":1521,"zy":1522,"Ġus":1523,"Ġket":1524,"Ġsa":1525,"Ġsail":1526,"ina":1527,"Ġdoc":1528,"Ġfin":1529,"Ġeli":1530,"onym":1531,"Ġpig":1532,"Ġwood":1533,"Ġrese":1534,"olt":1535,"uty":1536,"Ġdem":1537,"Ġship":1538,"Ġcook":1539,"Ġann":1540,"ava":1541,"Ġquest":1542,"Ġcontr":1543,"Ġsubsid":1544,"Ġsurround":1545,"Ġweed":1546,"Ġeyeb":1547,"uctor":1548,"Ġjewel":1549,"Ġsecret":1550,"Ġemerg":1551,"asses":1552,"cra":1553,"day":1554,"ient":1555,"lace":1556,"mun":1557,"now":1558,"pat":1559,"sation":1560,"Ġtro":1561,"Ġtub":1562,"Ġturn":1563,"Ġsuc":1564,"Ġsens":1565,"lex":1566,"inter":1567,"Ġoat":1568,"life":1569,"nding":1570,"Ġcli":1571,"Ġcam":1572,"ancy":1573,"Ġbid":1574,"Ġbank":1575,"Ġhon":1576,"rist":1577,"urance":1578,"Ġdefe":1579,"thing":1580,"Ġprov":1581,"aste":1582,"ester":1583,"Ġext":1584,"ift":1585,"Ġbeh":1586,"Ġplan":1587,"Ġprem":1588,"Ġmeat":1589,"ulture":1590,"Ġswim":1591,"elly":1592,"Ġmark":1593,"ucer":1594,"Ġorgan":1595,"overn":1596,"Ġeffect":1597,"Ġbrief":1598,"Ġcele":1599,"bon":1600,"cing":1601,"cip":1602,"cake":1603,"fri":1604,"men":1605,"watch":1606,"Ġkey":1607,"Ġtar":1608,"Ġtop":1609,"Ġtax":1610,"ini":1611,"lif":1612,"Ġlight":1613,"Ġcub":1614,"Ġpal":1615,"Ġpad":1616,"storm":1617,"Ġbake":1618,"Ġmail":1619,"ising":1620,"Ġgreat":1621,"Ġhun":1622,"ung":1623,"ope":1624,"abit":1625,"oney":1626,"Ġscreen":1627,"Ġenc":1628,"Ġnew":1629,"aking":1630,"inking":1631,"Ġcounsel":1632,"lipper":1633,"ground":1634,"Ġstandard":1635,"illion":1636,"hibition":1637,"Ġharmon":1638,"bas":1639,"fla":1640,"fruit":1641,"gth":1642,"grim":1643,"iler":1644,"mail":1645,"par":1646,"ture":1647,"Ġing":1648,"Ġsor":1649,"Ġself":1650,"inder":1651,"ffic":1652,"Ġdou":1653,"Ġder":1654,"Ġday":1655,"Ġfam":1656,"Ġlic":1657,"eral":1658,"Ġpoll":1659,"Ġpublic":1660,"step":1661,"Ġbow":1662,"rob":1663,"Ġgre":1664,"Ġwhe":1665,"Ġwing":1666,"Ġwarm":1667,"ette":1668,"elling":1669,"umper":1670,"char":1671,"Ġstri":1672,"Ġstock":1673,"Ġval":1674,"igration":1675,"usal":1676,"Ġchap":1677,"Ġrub":1678,"Ġdeve":1679,"Ġlap":1680,"ific":1681,"Ġbox":1682,"Ġboy":1683,"Ġtrack":1684,"Ġbean":1685,"ainment":1686,"Ġthunder":1687,"Ġadmin":1688,"covery":1689,"Ġpost":1690,"Ġtoler":1691,"Ġdragon":1692,"Ġcounter":1693,"Ġlabor":1694,"Ġimm":1695,"metry":1696,"aughter":1697,"Ġoptim":1698,"aunt":1699,"een":1700,"ging":1701,"gine":1702,"mar":1703,"mary":1704,"she":1705,"sun":1706,"thes":1707,"vy":1708,"Ġnut":1709,"Ġnest":1710,"Ġnorm":1711,"Ġsum":1712,"led":1713,"lection":1714,"ato":1715,"atism":1716,"Ġdress":1717,"Ġfen":1718,"Ġlie":1719,"Ġcler":1720,"Ġpine":1721,"Ġpump":1722,"ansion":1723,"Ġbud":1724,"Ġbath":1725,"Ġmy":1726,"Ġmou":1727,"iter":1728,"robe":1729,"ich":1730,"icip":1731,"Ġgar":1732,"Ġwil":1733,"Ġwid":1734,"ript":1735,"Ġinte":1736,"Ġsty":1737,"imum":1738,"Ġchair":1739,"Ġrh":1740,"ande":1741,"edia":1742,"aster":1743,"ifer":1744,"Ġboat":1745,"Ġalb":1746,"Ġrad":1747,"lication":1748,"ront":1749,"Ġsword":1750,"roly":1751,"Ġterr":1752,"Ġskull":1753,"grade":1754,"Ġopp":1755,"Ġeye":1756,"Ġlegis":1757,"ception":1758,"Ġquestion":1759,"bro":1760,"bed":1761,"bird":1762,"fo":1763,"gar":1764,"how":1765,"iety":1766,"pet":1767,"sing":1768,"sity":1769,"top":1770,"tail":1771,"vit":1772,"Ġsli":1773,"Ġsent":1774,"Ġsust":1775,"Ġdon":1776,"lift":1777,"Ġlit":1778,"erk":1779,"Ġcass":1780,"Ġcry":1781,"rew":1782,"Ġple":1783,"Ġpay":1784,"Ġphy":1785,"angle":1786,"Ġbed":1787,"Ġmant":1788,"Ġmix":1789,"itution":1790,"iser":1791,"Ġgovern":1792,"Ġwalk":1793,"Ġstory":1794,"lain":1795,"Ġvel":1796,"igation":1797,"uth":1798,"istry":1799,"usk":1800,"Ġali":1801,"Ġchop":1802,"Ġrat":1803,"Ġconst":1804,"Ġconsc":1805,"ander":1806,"Ġshop":1807,"esty":1808,"Ġlen":1809,"Ġseed":1810,"impan":1811,"ize":1812,"Ġposs":1813,"irement":1814,"Ġcontin":1815,"Ġneu":1816,"Ġgrass":1817,"Ġfly":1818,"Ġcapit":1819,"Ġassist":1820,"Ġrecip":1821,"Ġcouncil":1822,"Ġaccount":1823,"ounce":1824,"aiter":1825,"Ġdoor":1826,"Ġelect":1827,"Ġpastor":1828,"Ġcopy":1829,"reamer":1830,"Ġpilgrim":1831,"view":1832,"Ġphys":1833,"ec":1834,"gi":1835,"gment":1836,"hing":1837,"lane":1838,"ming":1839,"oid":1840,"ps":1841,"pit":1842,"sup":1843,"sister":1844,"tra":1845,"ula":1846,"va":1847,"wh":1848,"wife":1849,"Ġtent":1850,"Ġtype":1851,"lement":1852,"inc":1853,"inction":1854,"Ġdr":1855,"Ġdoll":1856,"Ġfri":1857,"Ġfig":1858,"Ġfav":1859,"Ġcow":1860,"Ġcali":1861,"Ġcup":1862,"Ġcase":1863,"Ġpack":1864,"any":1865,"Ġbron":1866,"Ġmap":1867,"Ġmel":1868,"rom":1869,"icke":1870,"icket":1871,"isher":1872,"Ġgli":1873,"Ġhalf":1874,"Ġwash":1875,"Ġwee":1876,"ama":1877,"adow":1878,"Ġrem":1879,"Ġresp":1880,"Ġrelation":1881,"urg":1882,"Ġstop":1883,"Ġvit":1884,"Ġvac":1885,"Ġvest":1886,"Ġchron":1887,"Ġspir":1888,"Ġexam":1889,"Ġhel":1890,"Ġking":1891,"ies":1892,"Ġscal":1893,"uggle":1894,"ourse":1895,"Ġsex":1896,"Ġsequ":1897,"ickness":1898,"ives":1899,"Ġye":1900,"come":1901,"Ġmarket":1902,"Ġhost":1903,"ighb":1904,"Ġshoe":1905,"anny":1906,"Ġexpansion":1907,"Ġdivide":1908,"riter":1909,"alysis":1910,"Ġadvoc":1911,"Ġearth":1912,"alogue":1913,"friend":1914,"aist":1915,"bow":1916,"bone":1917,"dog":1918,"ey":1919,"fort":1920,"fly":1921,"gie":1922,"ho":1923,"hal":1924,"meter":1925,"put":1926,"rm":1927,"so":1928,"sub":1929,"Ġut":1930,"Ġtreat":1931,"Ġtherm":1932,"Ġnur":1933,"Ġsan":1934,"Ġsilk":1935,"Ġow":1936,"lium":1937,"liance":1938,"Ġfir":1939,"Ġfarm":1940,"Ġesp":1941,"Ġcant":1942,"Ġcash":1943,"Ġcuri":1944,"Ġpit":1945,"ora":1946,"stal":1947,"Ġbass":1948,"Ġburn":1949,"icity":1950,"loqu":1951,"Ġgel":1952,"cel":1953,"Ġwast":1954,"iling":1955,"Ġreli":1956,"other":1957,"umer":1958,"Ġinvest":1959,"utch":1960,"Ġran":1961,"ownt":1962,"Ġspect":1963,"Ġdeb":1964,"agram":1965,"Ġknee":1966,"scape":1967,"Ġacadem":1968,"Ġrow":1969,"Ġquart":1970,"Ġengine":1971,"Ġforest":1972,"post":1973,"Ġchem":1974,"Ġwhole":1975,"cloth":1976,"Ġpriv":1977,"Ġsuper":1978,"azel":1979,"Ġcorpor":1980,"Ġmeth":1981,"Ġhydroly":1982,"rorism":1983,"glass":1984,"Ġkeep":1985,"Ġdynam":1986,"clamation":1987,"Ġpumpkin":1988,"aign":1989,"bag":1990,"burn":1991,"ca":1992,"cr":1993,"cas":1994,"col":1995,"drop":1996,"ering":1997,"hunt":1998,"iring":1999,"ious":2000,"oir":2001,"whe":2002,"wind":2003,"Ġid":2004,"Ġill":2005,"Ġton":2006,"hent":2007,"Ġnood":2008,"Ġsong":2009,"ining":2010,"inoc":2011,"Ġoper":2012,"Ġdust":2013,"lit":2014,"Ġfed":2015,"rection":2016,"Ġpun":2017,"Ġpub":2018,"Ġplier":2019,"arification":2020,"orrow":2021,"stem":2022,"stair":2023,"Ġbat":2024,"Ġmut":2025,"acker":2026,"rot":2027,"icide":2028,"loc":2029,"Ġgun":2030,"Ġgig":2031,"Ġhub":2032,"rait":2033,"celer":2034,"Ġwet":2035,"elt":2036,"Ġresid":2037,"change":2038,"idity":2039,"ircle":2040,"Ġvilla":2041,"imate":2042,"ulpt":2043,"arden":2044,"Ġded":2045,"Ġlink":2046,"Ġjelly":2047,"Ġscen":2048,"Ġscrew":2049,"person":2050,"ograph":2051,"Ġalm":2052,"aint":2053,"aven":2054,"Ġmean":2055,"Ġgrad":2056,"pose":2057,"Ġgran":2058,"Ġmob":2059,"Ġord":2060,"Ġmax":2061,"olding":2062,"Ġdraw":2063,"Ġmission":2064,"osex":2065,"formation":2066,"ountain":2067,"Ġtempor":2068,"strom":2069,"Ġframe":2070,"grandmother":2071,"aphone":2072,"Ġpolice":2073,"Ġtransport":2074,"Ġorigin":2075,"Ġsweat":2076,"Ġvegetarian":2077,"flake":2078,"loquy":2079,"dress":2080,"daughter":2081,"iod":2082,"mus":2083,"mia":2084,"nast":2085,"nament":2086,"py":2087,"piece":2088,"rout":2089,"ton":2090,"vation":2091,"hemer":2092,"Ġsug":2093,"less":2094,"Ġoc":2095,"eparation":2096,"ephal":2097,"Ġdie":2098,"Ġdownt":2099,"lie":2100,"lion":2101,"Ġfr":2102,"Ġfat":2103,"Ġess":2104,"Ġcri":2105,"Ġcott":2106,"resp":2107,"Ġpaper":2108,"arl":2109,"arist":2110,"organ":2111,"Ġbit":2112,"Ġbab":2113,"Ġbill":2114,"Ġmos":2115,"Ġmatch":2116,"ala":2117,"alou":2118,"Ġgym":2119,"asel":2120,"Ġhip":2121,"Ġhome":2122,"Ġhoney":2123,"rag":2124,"omer":2125,"Ġwren":2126,"Ġwaist":2127,"ading":2128,"adam":2129,"Ġrein":2130,"otation":2131,"umin":2132,"olation":2133,"Ġstate":2134,"seed":2135,"tery":2136,"last":2137,"irth":2138,"Ġastro":2139,"quir":2140,"Ġcha":2141,"Ġchain":2142,"ulum":2143,"Ġrhe":2144,"Ġspread":2145,"Ġspoke":2146,"Ġdecl":2147,"ocation":2148,"Ġlas":2149,"Ġjack":2150,"alice":2151,"sphere":2152,"Ġprofe":2153,"ector":2154,"Ġki":2155,"ivation":2156,"osit":2157,"Ġbee":2158,"Ġroom":2159,"tein":2160,"cond":2161,"izen":2162,"Ġcontrib":2163,"ishment":2164,"sert":2165,"Ġparam":2166,"awl":2167,"Ġreport":2168,"Ġimport":2169,"Ġpatrol":2170,"Ġbrush":2171,"Ġdepend":2172,"Ġappet":2173,"hesis":2174,"Ġfree":2175,"Ġpanty":2176,"wear":2177,"Ġmusic":2178,"Ġfraud":2179,"Ġcross":2180,"Ġsemic":2181,"ascular":2182,"Ġinnoc":2183,"Ġbuggy":2184,"Ġjourn":2185,"Ġrobot":2186,"Ġbattle":2187,"Ġeyebrow":2188,"charge":2189,"Ġlegisl":2190,"arine":2191,"bath":2192,"ese":2193,"gun":2194,"iary":2195,"mation":2196,"nection":2197,"pression":2198,"sn":2199,"tt":2200,"tom":2201,"uli":2202,"walk":2203,"Ġring":2204,"ouch":2205,"ought":2206,"Ġtail":2207,"Ġtalk":2208,"Ġtamb":2209,"Ġsin":2210,"Ġsat":2211,"Ġsili":2212,"Ġsuit":2213,"Ġsection":2214,"iny":2215,"inet":2216,"oderm":2217,"eplace":2218,"Ġdict":2219,"Ġdune":2220,"Ġfer":2221,"Ġfac":2222,"Ġfront":2223,"oni":2224,"erc":2225,"Ġcann":2226,"reet":2227,"Ġpod":2228,"Ġpag":2229,"Ġpill":2230,"enef":2231,"Ġbatter":2232,"Ġmat":2233,"Ġmater":2234,"rospect":2235,"loon":2236,"Ġgum":2237,"Ġwest":2238,"Ġwrap":2239,"iller":2240,"Ġrecess":2241,"Ġiniti":2242,"urge":2243,"unction":2244,"lave":2245,"Ġvir":2246,"Ġvine":2247,"utor":2248,"usband":2249,"vement":2250,"Ġspot":2251,"type":2252,"Ġjump":2253,"Ġprot":2254,"Ġprost":2255,"astrop":2256,"ayer":2257,"artment":2258,"ivili":2259,"Ġcoff":2260,"Ġcost":2261,"ibody":2262,"Ġalco":2263,"Ġalpen":2264,"armac":2265,"itioner":2266,"Ġacceler":2267,"Ġcompet":2268,"Ġcomplex":2269,"Ġyellow":2270,"licity":2271,"Ġneck":2272,"Ġneighb":2273,"Ġdiff":2274,"Ġphr":2275,"Ġinflu":2276,"Ġairf":2277,"uffin":2278,"ensus":2279,"aves":2280,"Ġauthent":2281,"reader":2282,"Ġglut":2283,"Ġgrandp":2284,"minal":2285,"weight":2286,"onsor":2287,"zzle":2288,"Ġatte":2289,"grandfather":2290,"auguration":2291,"Ġcongress":2292,"Ġcampaign":2293,"gestion":2294,"ruption":2295,"Ġinstrument":2296,"justice":2297,"Ġdocument":2298,"Ġcrystal":2299,"stairs":2300,"quiry":2301,"abo":2302,"aler":2303,"bet":2304,"but":2305,"bbit":2306,"drink":2307,"dition":2308,"eer":2309,"ece":2310,"ference":2311,"hol":2312,"iing":2313,"iour":2314,"ilet":2315,"king":2316,"my":2317,"oint":2318,"pur":2319,"pant":2320,"uk":2321,"uke":2322,"uity":2323,"vision":2324,"writing":2325,"oud":2326,"hew":2327,"Ġsu":2328,"Ġsus":2329,"Ġsill":2330,"Ġsimp":2331,"Ġsock":2332,"Ġsund":2333,"league":2334,"Ġox":2335,"epper":2336,"Ġdark":2337,"Ġfur":2338,"Ġfall":2339,"Ġegg":2340,"Ġliter":2341,"Ġcard":2342,"Ġcast":2343,"Ġcause":2344,"resh":2345,"reme":2346,"Ġpul":2347,"Ġpail":2348,"Ġpome":2349,"Ġpoly":2350,"arf":2351,"arn":2352,"anker":2353,"Ġbou":2354,"Ġbus":2355,"Ġbull":2356,"Ġmil":2357,"alm":2358,"alty":2359,"lock":2360,"loper":2361,"Ġgaff":2362,"Ġgirl":2363,"asis":2364,"Ġwitch":2365,"amber":2366,"adder":2367,"Ġreb":2368,"Ġrece":2369,"Ġinauguration":2370,"Ġstr":2371,"Ġstud":2372,"Ġstraw":2373,"lab":2374,"antage":2375,"imer":2376,"istic":2377,"ulf":2378,"Ġrum":2379,"Ġrite":2380,"Ġconspir":2381,"ocol":2382,"Ġlamb":2383,"Ġlunch":2384,"shine":2385,"shirt":2386,"edge":2387,"ediment":2388,"Ġheir":2389,"Ġlever":2390,"Ġkick":2391,"Ġsculpt":2392,"ogen":2393,"Ġalt":2394,"Ġalumin":2395,"Ġray":2396,"scence":2397,"Ġcolor":2398,"Ġplate":2399,"akeover":2400,"Ġappe":2401,"Ġswitch":2402,"Ġperiod":2403,"ellation":2404,"Ġsubcon":2405,"ebasket":2406,"Ġmarsh":2407,"cream":2408,"crease":2409,"ymph":2410,"place":2411,"Ġterm":2412,"Ġminor":2413,"Ġguid":2414,"Ġmother":2415,"Ġfeed":2416,"portun":2417,"Ġephemer":2418,"Ġcandid":2419,"Ġfunction":2420,"Ġcitizen":2421,"Ġwhisker":2422,"Ġsenior":2423,"sentation":2424,"Ġfrost":2425,"Ġbottom":2426,"Ġcountry":2427,"Ġadminist":2428,"hospit":2429,"Ġgymnast":2430,"bell":2431,"corn":2432,"den":2433,"fix":2434,"gger":2435,"gling":2436,"iat":2437,"oise":2438,"part":2439,"ral":2440,"sop":2441,"uter":2442,"uality":2443,"yme":2444,"Ġit":2445,"Ġtown":2446,"helium":2447,"Ġnation":2448,"inner":2449,"atcher":2450,"oda":2451,"oduction":2452,"Ġfan":2453,"Ġfact":2454,"Ġfood":2455,"Ġfix":2456,"ndic":2457,"Ġevery":2458,"Ġeaves":2459,"Ġlist":2460,"rint":2461,"Ġcraw":2462,"reg":2463,"Ġparent":2464,"enne":2465,"enger":2466,"stra":2467,"stance":2468,"stacle":2469,"Ġbon":2470,"Ġblow":2471,"Ġbrow":2472,"Ġbread":2473,"Ġbrown":2474,"Ġbenef":2475,"Ġmas":2476,"Ġmand":2477,"Ġmust":2478,"Ġmall":2479,"Ġmach":2480,"ito":2481,"itle":2482,"als":2483,"alt":2484,"ingu":2485,"icker":2486,"isk":2487,"Ġgreen":2488,"Ġgraph":2489,"asant":2490,"asher":2491,"Ġhall":2492,"Ġhair":2493,"Ġwo":2494,"Ġwave":2495,"etry":2496,"right":2497,"adv":2498,"Ġreven":2499,"gee":2500,"Ġinjustice":2501,"ssel":2502,"olf":2503,"Ġstair":2504,"Ġstreet":2505,"ctiv":2506,"sect":2507,"igan":2508,"antation":2509,"Ġage":2510,"version":2511,"Ġchild":2512,"ulus":2513,"Ġrhy":2514,"Ġrape":2515,"Ġspy":2516,"Ġsponsor":2517,"Ġdead":2518,"ockey":2519,"Ġlun":2520,"Ġlong":2521,"Ġlingu":2522,"Ġjust":2523,"Ġjail":2524,"Ġjoint":2525,"alier":2526,"ortion":2527,"emaker":2528,"logram":2529,"Ġhear":2530,"Ġhedge":2531,"ief":2532,"Ġscr":2533,"osite":2534,"ibble":2535,"Ġbond":2536,"Ġtruck":2537,"Ġadvert":2538,"Ġteen":2539,"Ġlay":2540,"Ġcontact":2541,"ronomy":2542,"Ġperf":2543,"Ġcreation":2544,"ramp":2545,"Ġcheese":2546,"uckle":2547,"ucation":2548,"Ġsoy":2549,"Ġrepublic":2550,"Ġpatty":2551,"Ġpharmac":2552,"Ġprior":2553,"Ġpriest":2554,"Ġrecep":2555,"rocarb":2556,"Ġknow":2557,"seller":2558,"Ġhydro":2559,"archy":2560,"issue":2561,"Ġearring":2562,"Ġshel":2563,"Ġballoon":2564,"Ġmember":2565,"Ġcorner":2566,"Ġdrive":2567,"Ġmacar":2568,"Ġfleece":2569,"Ġrevit":2570,"anoid":2571,"lops":2572,"Ġbrand":2573,"cutor":2574,"prise":2575,"xygen":2576,"Ġdirect":2577,"Ġdiplo":2578,"Ġmicro":2579,"ultimedia":2580,"domen":2581,"Ġketch":2582,"craft":2583,"Ġnews":2584,"Ġwastebasket":2585,"liever":2586,"respond":2587,"cot":2588,"draw":2589,"fer":2590,"fire":2591,"got":2592,"iology":2593,"ld":2594,"pri":2595,"pass":2596,"pack":2597,"sm":2598,"try":2599,"trap":2600,"Ġide":2601,"Ġash":2602,"Ġtow":2603,"hed":2604,"Ġnit":2605,"Ġsyn":2606,"Ġslipper":2607,"inar":2608,"aton":2609,"Ġore":2610,"odorant":2611,"ffe":2612,"Ġdash":2613,"Ġduck":2614,"Ġdreamer":2615,"Ġfill":2616,"Ġfather":2617,"Ġfund":2618,"Ġfactor":2619,"ndom":2620,"Ġeag":2621,"Ġliqu":2622,"Ġcivili":2623,"Ġpap":2624,"Ġpard":2625,"Ġplow":2626,"Ġpray":2627,"Ġpepper":2628,"order":2629,"Ġber":2630,"Ġbay":2631,"Ġbuff":2632,"Ġbroc":2633,"Ġbomb":2634,"Ġmay":2635,"Ġmatt":2636,"Ġmultimedia":2637,"Ġgam":2638,"Ġgate":2639,"Ġhug":2640,"Ġhabit":2641,"Ġwait":2642,"ilder":2643,"eller":2644,"rient":2645,"riage":2646,"chair":2647,"sser":2648,"urt":2649,"urst":2650,"olli":2651,"Ġstation":2652,"Ġstam":2653,"Ġstorm":2654,"cture":2655,"seud":2656,"iden":2657,"unte":2658,"Ġvent":2659,"Ġvet":2660,"istle":2661,"usage":2662,"ves":2663,"quat":2664,"Ġchin":2665,"Ġchip":2666,"Ġration":2667,"Ġrating":2668,"Ġconcent":2669,"Ġconvert":2670,"ocket":2671,"ipe":2672,"assis":2673,"abet":2674,"ubarb":2675,"Ġprob":2676,"Ġproof":2677,"neaker":2678,"osis":2679,"osling":2680,"ustration":2681,"Ġbeast":2682,"uess":2683,"meal":2684,"Ġloaf":2685,"Ġrose":2686,"cycle":2687,"Ġteam":2688,"Ġcompass":2689,"Ġplatter":2690,"Ġmeet":2691,"Ġmeasure":2692,"Ġcriter":2693,"ultiv":2694,"Ġcloud":2695,"Ġneon":2696,"Ġneed":2697,"hyd":2698,"Ġdiver":2699,"commun":2700,"aching":2701,"ebra":2702,"Ġblue":2703,"clusion":2704,"Ġtraffic":2705,"Ġprison":2706,"uffs":2707,"Ġdrag":2708,"Ġuniver":2709,"lipse":2710,"Ġspeed":2711,"Ġknife":2712,"Ġabdomen":2713,"Ġobstacle":2714,"Ġregion":2715,"Ġopportun":2716,"inery":2717,"Ġdecision":2718,"aith":2719,"loyment":2720,"Ġretrospect":2721,"Ġbuy":2722,"Ġeducation":2723,"Ġscholar":2724,"ilosop":2725,"lopment":2726,"Ġaftersh":2727,"Ġpaint":2728,"cupation":2729,"Ġexperiment":2730,"Ġcircum":2731,"Ġcourt":2732,"Ġtoothp":2733,"balance":2734,"Ġemergency":2735,"Ġtroop":2736,"Ġfamili":2737,"brother":2738,"Ġfavor":2739,"Ġespalier":2740,"osexual":2741,"AT":2742,"ao":2743,"aust":2744,"ban":2745,"bab":2746,"body":2747,"brid":2748,"coun":2749,"dri":2750,"fact":2751,"fall":2752,"gression":2753,"haust":2754,"jacket":2755,"lat":2756,"mp":2757,"pop":2758,"rise":2759,"sor":2760,"sch":2761,"tic":2762,"ura":2763,"uary":2764,"zee":2765,"Ġtap":2766,"Ġtug":2767,"Ġtank":2768,"Ġtusk":2769,"Ġsid":2770,"Ġsight":2771,"Ġsaf":2772,"leg":2773,"lend":2774,"app":2775,"odrome":2776,"epee":2777,"epend":2778,"Ġdan":2779,"Ġden":2780,"Ġdame":2781,"Ġduel":2782,"Ġfinger":2783,"Ġesc":2784,"Ġcel":2785,"Ġcrow":2786,"Ġcroc":2787,"rem":2788,"Ġpound":2789,"Ġpra":2790,"Ġpolar":2791,"Ġpowder":2792,"Ġball":2793,"Ġmir":2794,"Ġmill":2795,"Ġmole":2796,"Ġmilk":2797,"itar":2798,"itect":2799,"itone":2800,"Ġguit":2801,"Ġgarb":2802,"Ġgarden":2803,"Ġgosling":2804,"Ġguess":2805,"asht":2806,"Ġhot":2807,"Ġhazel":2808,"omach":2809,"Ġwit":2810,"ilant":2811,"eling":2812,"rier":2813,"rift":2814,"rief":2815,"Ġrequ":2816,"otion":2817,"umn":2818,"cho":2819,"chid":2820,"Ġintr":2821,"Ġinsect":2822,"Ġstone":2823,"ctangle":2824,"Ġchassis":2825,"opy":2826,"Ġsport":2827,"Ġdeli":2828,"Ġdeath":2829,"Ġdeodorant":2830,"Ġlan":2831,"boy":2832,"ipment":2833,"iplane":2834,"Ġprox":2835,"Ġprocess":2836,"Ġcomfort":2837,"Ġhero":2838,"Ġhealth":2839,"Ġkid":2840,"deer":2841,"osc":2842,"Ġank":2843,"Ġanalog":2844,"iliate":2845,"Ġbob":2846,"Ġtrou":2847,"raper":2848,"meg":2849,"Ġaccess":2850,"cose":2851,"Ġteaching":2852,"Ġlaug":2853,"peer":2854,"Ġpoison":2855,"Ġplat":2856,"Ġpreced":2857,"Ġenter":2858,"Ġcougar":2859,"airy":2860,"Ġhype":2861,"boarding":2862,"renal":2863,"rength":2864,"Ġwhack":2865,"ymmetry":2866,"placement":2867,"Ġorder":2868,"ropri":2869,"Ġshoot":2870,"Ġbarrage":2871,"chet":2872,"Ġassoci":2873,"Ġauto":2874,"vening":2875,"Ġasse":2876,"Ġcorrespond":2877,"guish":2878,"Ġpantology":2879,"Ġbrother":2880,"Ġhydrocarb":2881,"Ġtriad":2882,"lenty":2883,"bye":2884,"Ġlabour":2885,"Ġjeans":2886,"reement":2887,"Ġpartner":2888,"Ġsystem":2889,"oultry":2890,"Ġgear":2891,"Ġserv":2892,"Ġcutover":2893,"Ġarchae":2894,"henation":2895,"Ġcollectiv":2896,"gagement":2897,"Ġmodern":2898,"Ġmaster":2899,"Ġauthorization":2900,"Ġproduct":2901,"Ġbootee":2902,"Ġtablet":2903,"Ġcollar":2904,"Ġpickax":2905,"Ġprogramming":2906,"Ġresearch":2907,"Ġdemoc":2908,"Ġbehav":2909,"Ġdoub":2910,"Ġtolerance":2911,"Ġrhubarb":2912,"Ġeyelid":2913,"impanzee":2914,"Ġpackage":2915,"Ġweeke":2916,"Ġsequel":2917,"Ġexpansionism":2918,"Ġtemporary":2919,"Ġastrolog":2920,"Ġprofession":2921,"ATM":2922,"Ġintroduction":2923,"bler":2924,"course":2925,"eed":2926,"fa":2927,"gist":2928,"gown":2929,"hie":2930,"mem":2931,"mare":2932,"mob":2933,"nation":2934,"pan":2935,"pill":2936,"powder":2937,"sand":2938,"sence":2939,"saw":2940,"tip":2941,"vis":2942,"wid":2943,"ĠATM":2944,"Ġtin":2945,"Ġtun":2946,"Ġtact":2947,"Ġtog":2948,"Ġtable":2949,"Ġske":2950,"Ġsad":2951,"Ġsneaker":2952,"lery":2953,"inion":2954,"atum":2955,"odil":2956,"Ġdom":2957,"Ġdil":2958,"lis":2959,"limb":2960,"Ġface":2961,"Ġfurn":2962,"Ġfaith":2963,"nda":2964,"Ġer":2965,"Ġeth":2966,"era":2967,"ero":2968,"Ġcoc":2969,"Ġcultiv":2970,"Ġpy":2971,"Ġpest":2972,"Ġpint":2973,"Ġpitch":2974,"Ġpseud":2975,"Ġplenty":2976,"Ġpoultry":2977,"ena":2978,"enance":2979,"orer":2980,"Ġbest":2981,"Ġblog":2982,"Ġbiplane":2983,"Ġmist":2984,"Ġmass":2985,"itter":2986,"alai":2987,"rog":2988,"icant":2989,"icator":2990,"ission":2991,"loss":2992,"Ġglow":2993,"Ġgold":2994,"asles":2995,"Ġhist":2996,"Ġhour":2997,"Ġhorn":2998,"Ġharb":2999,"rail":3000,"Ġwriting":3001,"etus":3002,"illo":3003,"ado":3004,"Ġrel":3005,"Ġrectangle":3006,"uma":3007,"umatism":3008,"ummy":3009,"Ġstar":3010,"Ġstomach":3011,"Ġstrength":3012,"Ġvict":3013,"Ġvault":3014,"igue":3015,"Ġaware":3016,"Ġchimpanzee":3017,"uling":3018,"opause":3019,"Ġspan":3020,"Ġdesk":3021,"Ġdesign":3022,"boose":3023,"Ġjar":3024,"Ġjug":3025,"Ġjunk":3026,"thinking":3027,"Ġshare":3028,"Ġshirt":3029,"Ġshield":3030,"ubble":3031,"esthes":3032,"emp":3033,"ackle":3034,"Ġexpl":3035,"Ġlemon":3036,"Ġkill":3037,"lergist":3038,"arten":3039,"ivory":3040,"osa":3041,"oser":3042,"ourth":3043,"ify":3044,"ormorant":3045,"Ġanguish":3046,"Ġsender":3047,"Ġalph":3048,"Ġtrap":3049,"Ġbear":3050,"Ġrandom":3051,"rapes":3052,"avage":3053,"Ġaccomp":3054,"Ġachie":3055,"Ġloan":3056,"Ġlook":3057,"Ġthrift":3058,"Ġrock":3059,"coat":3060,"beam":3061,"ashion":3062,"conf":3063,"igner":3064,"ording":3065,"Ġtoque":3066,"Ġpeer":3067,"Ġgrace":3068,"Ġsolic":3069,"Ġmoat":3070,"Ġpatent":3071,"Ġbrick":3072,"Ġphilosop":3073,"Ġzebra":3074,"iery":3075,"riction":3076,"riculture":3077,"Ġrib":3078,"Ġshore":3079,"Ġbarbe":3080,"inkle":3081,"Ġmonast":3082,"atchling":3083,"Ġprimate":3084,"grad":3085,"Ġappro":3086,"Ġautom":3087,"Ġexpect":3088,"affodil":3089,"venience":3090,"Ġmiss":3091,"Ġfeast":3092,"tractor":3093,"Ġtempt":3094,"Ġworkshop":3095,"owerment":3096,"Ġimbalance":3097,"Ġdetour":3098,"Ġshear":3099,"Ġmemo":3100,"Ġparticip":3101,"Ġhomicide":3102,"glasses":3103,"Ġequipment":3104,"ternative":3105,"oulder":3106,"Ġmacro":3107,"ylon":3108,"Ġupper":3109,"Ġcausal":3110,"Ġvolunte":3111,"Ġbookcase":3112,"pointment":3113,"Ġsoftdrink":3114,"Ġbirdbath":3115,"Ġaffiliate":3116,"Ġlatte":3117,"Ġcabana":3118,"Ġhospitalisation":3119,"Ġmotorcycle":3120,"Ġvibration":3121,"Ġherb":3122,"Ġhatchet":3123,"Ġbutter":3124,"Ġjourney":3125,"Ġflood":3126,"Ġfolk":3127,"ultimatum":3128,"Ġhyphenation":3129,"Ġsausage":3130,"Ġcontract":3131,"Ġsensit":3132,"Ġcube":3133,"Ġbakeware":3134,"basin":3135,"Ġingrate":3136,"Ġdevelopment":3137,"sunami":3138,"Ġlens":3139,"ouncement":3140,"Ġcasement":3141,"Ġcashier":3142,"Ġforestry":3143,"Ġmethod":3144,"Ġmeaning":3145,"Ġroommate":3146,"Ġbattery":3147,"Ġwestern":3148,"Ġcostume":3149,"alaika":3150,"Ġawareness":3151,"aring":3152,"bage":3153,"can":3154,"cone":3155,"cution":3156,"ciation":3157,"ev":3158,"flower":3159,"gat":3160,"gli":3161,"gree":3162,"grove":3163,"gitis":3164,"hon":3165,"hrop":3166,"ius":3167,"iest":3168,"jerk":3169,"mic":3170,"mock":3171,"math":3172,"making":3173,"nant":3174,"ngitis":3175,"oat":3176,"ois":3177,"pion":3178,"page":3179,"pect":3180,"park":3181,"sled":3182,"tie":3183,"tics":3184,"uate":3185,"ufact":3186,"vari":3187,"where":3188,"ywood":3189,"zel":3190,"Ġivory":3191,"Ġultimatum":3192,"Ġtam":3193,"Ġtide":3194,"Ġtummy":3195,"Ġtinkle":3196,"Ġtsunami":3197,"Ġnick":3198,"Ġnumer":3199,"Ġnylon":3200,"Ġsing":3201,"Ġsim":3202,"Ġsash":3203,"Ġsamp":3204,"Ġsau":3205,"Ġsister":3206,"Ġsome":3207,"Ġsoul":3208,"lee":3209,"leot":3210,"ince":3211,"inition":3212,"Ġdat":3213,"Ġding":3214,"Ġdram":3215,"Ġdrum":3216,"Ġdrapes":3217,"Ġdaffodil":3218,"lio":3219,"Ġfut":3220,"Ġfisher":3221,"Ġfetus":3222,"Ġfashion":3223,"ndment":3224,"ndance":3225,"Ġecon":3226,"Ġeval":3227,"Ġevening":3228,"Ġlif":3229,"ont":3230,"Ġcormorant":3231,"rey":3232,"Ġping":3233,"Ġpir":3234,"Ġposition":3235,"Ġphen":3236,"Ġpocket":3237,"Ġpuma":3238,"arism":3239,"anet":3240,"anter":3241,"anche":3242,"analyst":3243,"orse":3244,"orney":3245,"Ġbasket":3246,"Ġbubble":3247,"Ġmouse":3248,"Ġmeter":3249,"Ġmigration":3250,"Ġmarten":3251,"itan":3252,"allen":3253,"ross":3254,"iche":3255,"icism":3256,"ickey":3257,"Ġgi":3258,"Ġgal":3259,"Ġgall":3260,"Ġhop":3261,"Ġhow":3262,"Ġhatchling":3263,"rain":3264,"Ġwild":3265,"rie":3266,"adence":3267,"adrant":3268,"addy":3269,"Ġread":3270,"Ġrent":3271,"Ġreason":3272,"Ġreorgan":3273,"chan":3274,"child":3275,"geois":3276,"Ġinj":3277,"ural":3278,"Ġstatin":3279,"sequ":3280,"ungeon":3281,"irmation":3282,"igma":3283,"igrant":3284,"quarter":3285,"Ġchamp":3286,"Ġchau":3287,"opper":3288,"Ġspine":3289,"Ġdeal":3290,"Ġlard":3291,"herit":3292,"herry":3293,"Ġprom":3294,"Ġproject":3295,"Ġexhaust":3296,"Ġheater":3297,"Ġleather":3298,"Ġleader":3299,"article":3300,"design":3301,"actment":3302,"Ġcob":3303,"Ġcover":3304,"Ġcoord":3305,"ogging":3306,"ourgeois":3307,"ifact":3308,"iform":3309,"Ġboom":3310,"Ġalder":3311,"Ġallergist":3312,"Ġalternative":3313,"Ġbegin":3314,"script":3315,"meat":3316,"avy":3317,"avan":3318,"aryngitis":3319,"Ġadrenal":3320,"Ġquarter":3321,"Ġpole":3322,"ignment":3323,"athlet":3324,"Ġmeasles":3325,"phology":3326,"Ġcru":3327,"Ġfox":3328,"Ġclan":3329,"Ġclank":3330,"Ġhybrid":3331,"Ġhyena":3332,"akness":3333,"Ġarrest":3334,"Ġblank":3335,"Ġintervention":3336,"ucleot":3337,"clin":3338,"Ġhoof":3339,"Ġcommit":3340,"Ġcommand":3341,"Ġwhirl":3342,"Ġbrass":3343,"Ġbrace":3344,"Ġoutfit":3345,"Ġflat":3346,"amendment":3347,"umption":3348,"ixen":3349,"Ġclock":3350,"Ġguest":3351,"endum":3352,"Ġdrake":3353,"Ġasymmetry":3354,"Ġknock":3355,"undry":3356,"Ġcatalyst":3357,"Ġregistry":3358,"blem":3359,"Ġopinion":3360,"Ġeyel":3361,"Ġconsist":3362,"Ġconsensus":3363,"guy":3364,"Ġbroad":3365,"Ġbroker":3366,"gyman":3367,"jective":3368,"Ġpencil":3369,"Ġgener":3370,"Ġaggression":3371,"Ġagriculture":3372,"raphone":3373,"Ġbackbone":3374,"Ġindust":3375,"Ġindication":3376,"Ġindicator":3377,"Ġdoctor":3378,"ualty":3379,"Ġsignify":3380,"onsense":3381,"icture":3382,"illiant":3383,"Ġbalalaika":3384,"Ġempowerment":3385,"ilometer":3386,"Ġdriving":3387,"Ġdownforce":3388,"zzard":3389,"Ġforeigner":3390,"Ġflesh":3391,"Ġmorbid":3392,"Ġforager":3393,"elfry":3394,"Ġarchitect":3395,"Ġcaboose":3396,"Ġtrend":3397,"hension":3398,"Ġfiber":3399,"Ġfibre":3400,"Ġclav":3401,"Ġhouseboat":3402,"Ġrunner":3403,"Ġcommunicant":3404,"Ġdistinction":3405,"Ġprincip":3406,"Ġproducer":3407,"ivalry":3408,"azebo":3409,"oyo":3410,"Ġsonar":3411,"repre":3412,"Ġvariety":3413,"Ġwhisper":3414,"Ġestimate":3415,"Ġreduction":3416,"Ġangora":3417,"Ġorient":3418,"Ġmerch":3419,"swoman":3420,"Ġjudge":3421,"Ġmenopause":3422,"Ġannouncement":3423,"Ġsurroundings":3424,"Ġweeder":3425,"Ġprovider":3426,"Ġmeatball":3427,"Ġmarksman":3428,"auntlet":3429,"Ġfennel":3430,"folio":3431,"tailment":3432,"Ġsustenance":3433,"Ġcontinent":3434,"Ġneurop":3435,"giarism":3436,"ickel":3437,"Ġglider":3438,"Ġdividend":3439,"Ġsilkworm":3440,"Ġowner":3441,"iousness":3442,"wheel":3443,"Ġidi":3444,"Ġlinkage":3445,"Ġmaximum":3446,"Ġcotton":3447,"Ġreindeer":3448,"Ġrheumatism":3449,"Ġfraudster":3450,"Ġinitiali":3451,"Ġyellowjacket":3452,"Ġauthenticity":3453,"Ġreceiver":3454,"ulfur":3455,"Ġspeedboat":3456,"Ġhazelnut":3457,"ourths":3458,"iesta":3459,"Ġdinghy":3460,"orsement":3461,"allenge":3462,"ourgeoisie":3463,"cuit":3464,"dt":3465,"dict":3466,"eor":3467,"fl":3468,"fle":3469,"ford":3470,"fication":3471,"function":3472,"hand":3473,"hose":3474,"iac":3475,"jud":3476,"mor":3477,"mom":3478,"mire":3479,"mark":3480,"nis":3481,"nial":3482,"nesty":3483,"oce":3484,"oanalyst":3485,"plow":3486,"paper":3487,"rison":3488,"sur":3489,"sim":3490,"sard":3491,"sary":3492,"sight":3493,"sault":3494,"uv":3495,"uring":3496,"vas":3497,"vet":3498,"writer":3499,"ys":3500,"zard":3501,"Ġident":3502,"Ġamendment":3503,"ougat":3504,"Ġtatt":3505,"heard":3506,"Ġnon":3507,"Ġnibble":3508,"Ġsep":3509,"Ġsound":3510,"Ġsatin":3511,"Ġsickness":3512,"Ġsulfur":3513,"inn":3514,"inary":3515,"Ġoce":3516,"odon":3517,"ffle":3518,"Ġdart":3519,"Ġdump":3520,"Ġdairy":3521,"Ġdickey":3522,"Ġdungeon":3523,"lig":3524,"Ġfate":3525,"Ġfail":3526,"Ġfire":3527,"Ġfee":3528,"Ġfield":3529,"Ġfanny":3530,"Ġfourths":3531,"Ġfiesta":3532,"Ġect":3533,"Ġfounder":3534,"Ġdrinking":3535,"eros":3536,"erendum":3537,"Ġcord":3538,"regation":3539,"rehension":3540,"Ġphe":3541,"Ġpic":3542,"Ġpage":3543,"Ġpian":3544,"arrow":3545,"anop":3546,"anket":3547,"eng":3548,"ennial":3549,"orilla":3550,"orpion":3551,"sty":3552,"stay":3553,"Ġbli":3554,"Ġbone":3555,"Ġbout":3556,"Ġbolt":3557,"Ġbirth":3558,"Ġbelfry":3559,"Ġbourgeoisie":3560,"Ġmam":3561,"Ġmood":3562,"Ġmister":3563,"acqu":3564,"rogation":3565,"robi":3566,"icarium":3567,"lover":3568,"Ġginger":3569,"Ġglee":3570,"Ġgazebo":3571,"Ġgauntlet":3572,"Ġhide":3573,"Ġhiring":3574,"Ġhusband":3575,"ometry":3576,"Ġward":3577,"etown":3578,"ething":3579,"ellishment":3580,"ria":3581,"Ġrespect":3582,"Ġreader":3583,"Ġreservation":3584,"Ġrehospit":3585,"Ġrethinking":3586,"ssom":3587,"ssment":3588,"urate":3589,"Ġstalk":3590,"terosexual":3591,"uner":3592,"Ġvie":3593,"Ġvixen":3594,"igator":3595,"anty":3596,"imon":3597,"istence":3598,"Ġaqu":3599,"Ġaler":3600,"Ġaud":3601,"Ġaval":3602,"Ġchance":3603,"Ġchives":3604,"Ġchivalry":3605,"Ġchallenge":3606,"Ġru":3607,"Ġrout":3608,"opoe":3609,"Ġspat":3610,"Ġspank":3611,"Ġdes":3612,"Ġdest":3613,"Ġdecrease":3614,"Ġdegree":3615,"Ġlin":3616,"Ġlaryngitis":3617,"boot":3618,"Ġjogging":3619,"thr":3620,"throb":3621,"alification":3622,"Ġshow":3623,"Ġshout":3624,"Ġshame":3625,"Ġshrine":3626,"Ġshaker":3627,"Ġshadow":3628,"shoe":3629,"space":3630,"sprey":3631,"Ġproblem":3632,"asty":3633,"agraph":3634,"estro":3635,"Ġexe":3636,"Ġheel":3637,"Ġheavy":3638,"Ġleash":3639,"Ġko":3640,"Ġkind":3641,"Ġkilometer":3642,"neck":3643,"Ġscorn":3644,"Ġscope":3645,"Ġscript":3646,"actant":3647,"ogloss":3648,"ibal":3649,"Ġanagram":3650,"Ġanesthes":3651,"armament":3652,"Ġbeet":3653,"Ġraiment":3654,"derberry":3655,"Ġdish":3656,"rapin":3657,"Ġlotter":3658,"Ġthing":3659,"manac":3660,"Ġadap":3661,"Ġlaundry":3662,"Ġquadrant":3663,"atory":3664,"izing":3665,"izoph":3666,"Ġplug":3667,"Ġplace":3668,"Ġplywood":3669,"Ġenigma":3670,"Ġenactment":3671,"phasis":3672,"Ġyam":3673,"Ġyoyo":3674,"Ġcrumb":3675,"Ġcarp":3676,"Ġcaravan":3677,"airment":3678,"Ġgram":3679,"Ġclamp":3680,"Ġclutch":3681,"Ġswan":3682,"Ġswamp":3683,"Ġtoast":3684,"Ġparking":3685,"Ġpercent":3686,"Ġdiam":3687,"Ġpearl":3688,"Ġchest":3689,"Ġinterchange":3690,"creas":3691,"clone":3692,"Ġsolid":3693,"renic":3694,"renzy":3695,"Ġhobbit":3696,"aweed":3697,"Ġpatri":3698,"Ġbran":3699,"Ġbrilliant":3700,"acyclin":3701,"Ġtrainer":3702,"riculum":3703,"Ġinfant":3704,"Ġterrorism":3705,"Ġright":3706,"Ġcapability":3707,"Ġweasel":3708,"Ġweakness":3709,"clothes":3710,"Ġclothes":3711,"Ġoverview":3712,"ensor":3713,"ensity":3714,"Ġamber":3715,"avement":3716,"ongation":3717,"Ġcurtailment":3718,"Ġmoth":3719,"Ġattorney":3720,"Ġassurance":3721,"sideration":3722,"rocity":3723,"affron":3724,"oree":3725,"Ġascent":3726,"Ġdivision":3727,"Ġdivalent":3728,"axis":3729,"Ġreferendum":3730,"oung":3731,"Ġability":3732,"Ġcharger":3733,"Ġregulation":3734,"laws":3735,"Ġhandle":3736,"Ġfreak":3737,"Ġpassage":3738,"struction":3739,"Ġsunbeam":3740,"Ġdecadence":3741,"lence":3742,"servant":3743,"Ġconfusion":3744,"Ġconfirmation":3745,"Ġfootball":3746,"Ġelev":3747,"brity":3748,"brush":3749,"iosphere":3750,"onskin":3751,"Ġadvance":3752,"Ġmuscat":3753,"compet":3754,"Ġinvent":3755,"Ġnightgown":3756,"Ġnightmare":3757,"angerine":3758,"Ġmemory":3759,"gonia":3760,"Ġeffacement":3761,"Ġhardboard":3762,"iversary":3763,"phones":3764,"Ġturtle":3765,"Ġdriver":3766,"Ġendorsement":3767,"Ġblackness":3768,"Ġmorphology":3769,"Ġcandle":3770,"Ġblossom":3771,"Ġupgrade":3772,"Ġplagiarism":3773,"Ġhorst":3774,"liday":3775,"Ġclave":3776,"Ġartifact":3777,"Ġmiddle":3778,"iltration":3779,"Ġspecial":3780,"Ġoctagon":3781,"Ġcleavage":3782,"Ġslash":3783,"Ġflair":3784,"Ġmodification":3785,"Ġworker":3786,"Ġworship":3787,"Ġaffair":3788,"dient":3789,"Ġportfolio":3790,"cupine":3791,"prod":3792,"Ġpetal":3793,"ithdraw":3794,"Ġexperience":3795,"Ġvibraphone":3796,"Ġconductor":3797,"Ġtelephone":3798,"Ġdolor":3799,"Ġcollard":3800,"Ġtechnician":3801,"Ġhammock":3802,"Ġhighway":3803,"iffy":3804,"Ġvanity":3805,"Ġdefinition":3806,"Ġprosecution":3807,"Ġcasualty":3808,"Ġcockpit":3809,"Ġrobin":3810,"bido":3811,"Ġiron":3812,"Ġtourism":3813,"Ġonline":3814,"Ġjunior":3815,"Ġjudo":3816,"Ġthrust":3817,"Ġdigger":3818,"Ġkettle":3819,"Ġsecretary":3820,"Ġoats":3821,"lification":3822,"Ġharmonise":3823,"Ġwingtip":3824,"Ġwarmth":3825,"Ġclergyman":3826,"Ġmyth":3827,"ichord":3828,"Ġstyle":3829,"andescence":3830,"Ġcassava":3831,"Ġconscience":3832,"Ġconsciousness":3833,"Ġseeder":3834,"psichord":3835,"Ġwashbasin":3836,"Ġadvocacy":3837,"Ġtreatment":3838,"cellence":3839,"Ġrancher":3840,"Ġspectacle":3841,"Ġacademy":3842,"Ġnoodles":3843,"Ġgunpowder":3844,"Ġvillage":3845,"Ġgraduate":3846,"Ġpoliceman":3847,"Ġsugar":3848,"lessness":3849,"Ġdiesel":3850,"Ġfatigue":3851,"aloupe":3852,"Ġspokeswoman":3853,"Ġlashes":3854,"ository":3855,"Ġbeech":3856,"Ġcontributor":3857,"Ġdependency":3858,"Ġdictaphone":3859,"Ġspotlight":3860,"Ġalcove":3861,"Ġalpenhorn":3862,"Ġattendance":3863,"Ġgirlfriend":3864,"Ġconspiracy":3865,"Ġperiodical":3866,"Ġfunctionality":3867,"Ġitem":3868,"Ġmandate":3869,"Ġlinguistics":3870,"Ġrevitalization":3871,"communication":3872,"Ġsiding":3873,"Ġsportsman":3874,"Ġmodernist":3875,"pillar":3876,"width":3877,"gradation":3878,"sequence":3879,"quarters":3880,"heritance":3881,"risonment":3882,"Ġectoderm":3883,"anoparticle":3884,"robiologist":3885,"Ġwardrobe":3886,"Ġalert":3887,"Ġavalanche":3888,"opoeia":3889,"Ġlottery":3890,"izophrenic":3891,"ithdrawal":3892,"'-":3893,"aut":3894,"bread":3895,"cor":3896,"cano":3897,"dad":3898,"dain":3899,"ement":3900,"gn":3901,"glo":3902,"gument":3903,"hold":3904,"habit":3905,"iode":3906,"ialism":3907,"igeon":3908,"jou":3909,"jam":3910,"mod":3911,"mel":3912,"nity":3913,"och":3914,"oster":3915,"path":3916,"rick":3917,"sal":3918,"sail":3919,"sia":3920,"swer":3921,"title":3922,"uge":3923,"ulic":3924,"vary":3925,"vale":3926,"vio":3927,"will":3928,"web":3929,"wave":3930,"xibility":3931,"ye":3932,"yser":3933,"za":3934,"zing":3935,"Ġathlet":3936,"ouper":3937,"Ġtoll":3938,"Ġtangerine":3939,"het":3940,"heist":3941,"Ġtheater":3942,"Ġnect":3943,"Ġnucleot":3944,"Ġnougat":3945,"Ġnanoparticle":3946,"Ġsam":3947,"Ġsale":3948,"Ġsediment":3949,"Ġsaffron":3950,"legation":3951,"inf":3952,"aporation":3953,"Ġother":3954,"Ġosprey":3955,"odile":3956,"odiode":3957,"ephy":3958,"Ġdare":3959,"Ġdough":3960,"Ġfuck":3961,"Ġfold":3962,"Ġfruit":3963,"Ġfrenzy":3964,"Ġether":3965,"Ġlim":3966,"Ġlizard":3967,"Ġlibido":3968,"rinket":3969,"ertion":3970,"ersault":3971,"Ġcell":3972,"Ġclay":3973,"Ġpuffin":3974,"Ġpicture":3975,"Ġpavement":3976,"arket":3977,"arning":3978,"anile":3979,"enail":3980,"eness":3981,"encing":3982,"orth":3983,"orie":3984,"stor":3985,"state":3986,"stitch":3987,"stream":3988,"stool":3989,"Ġbad":3990,"Ġbust":3991,"Ġbough":3992,"Ġbench":3993,"Ġbiosphere":3994,"Ġmom":3995,"Ġmolding":3996,"Ġmalice":3997,"ald":3998,"ingern":3999,"rotein":4000,"icodon":4001,"iscuit":4002,"lore":4003,"losion":4004,"loaf":4005,"Ġgas":4006,"Ġgrap":4007,"Ġgrip":4008,"Ġgorilla":4009,"asal":4010,"Ġhaven":4011,"ragon":4012,"raulic":4013,"ceed":4014,"omin":4015,"omore":4016,"Ġworm":4017,"Ġwire":4018,"Ġwatch":4019,"Ġwinner":4020,"Ġwithdrawal":4021,"etor":4022,"etable":4023,"ily":4024,"elstrom":4025,"rior":4026,"rival":4027,"Ġreactant":4028,"otive":4029,"cha":4030,"chuck":4031,"chond":4032,"Ġinput":4033,"Ġinclusion":4034,"Ġinheritance":4035,"sse":4036,"ssle":4037,"sson":4038,"urisation":4039,"urrection":4040,"olin":4041,"olve":4042,"oline":4043,"Ġstim":4044,"Ġstance":4045,"Ġstack":4046,"Ġstability":4047,"terior":4048,"ments":4049,"idual":4050,"lause":4051,"Ġvot":4052,"iger":4053,"Ġaide":4054,"verse":4055,"vester":4056,"velope":4057,"Ġcharm":4058,"Ġchuck":4059,"ulator":4060,"Ġrap":4061,"Ġrug":4062,"Ġranger":4063,"opod":4064,"opus":4065,"option":4066,"oprotein":4067,"Ġconvention":4068,"Ġspark":4069,"Ġspider":4070,"Ġspelling":4071,"Ġdeed":4072,"ocus":4073,"occupation":4074,"andem":4075,"Ġjiffy":4076,"thur":4077,"thole":4078,"Ġshower":4079,"Ġshanty":4080,"assock":4081,"ryo":4082,"ryer":4083,"shanter":4084,"agement":4085,"edic":4086,"Ġcomment":4087,"agger":4088,"estation":4089,"estible":4090,"emb":4091,"acknow":4092,"Ġexistence":4093,"Ġexcellence":4094,"logs":4095,"lography":4096,"Ġheifer":4097,"Ġheterosexual":4098,"Ġlender":4099,"Ġlesson":4100,"Ġscarification":4101,"Ġscorpion":4102,"ivo":4103,"ivel":4104,"iveness":4105,"ividual":4106,"uggling":4107,"Ġcoonskin":4108,"ifi":4109,"ifix":4110,"ifestation":4111,"Ġanimal":4112,"Ġanswer":4113,"Ġsearch":4114,"Ġseaweed":4115,"Ġalmanac":4116,"Ġtrape":4117,"Ġbead":4118,"Ġbegonia":4119,"Ġrail":4120,"Ġraffle":4121,"gerator":4122,"Ġacqu":4123,"Ġthump":4124,"Ġthought":4125,"Ġroad":4126,"Ġadmire":4127,"text":4128,"ights":4129,"coon":4130,"colo":4131,"bean":4132,"Ġquail":4133,"Ġqualification":4134,"Ġpoem":4135,"Ġcompost":4136,"convenience":4137,"ignette":4138,"Ġplane":4139,"Ġplumber":4140,"Ġenclosure":4141,"Ġmechan":4142,"phin":4143,"Ġyin":4144,"Ġcris":4145,"Ġcroup":4146,"lica":4147,"attle":4148,"Ġcarport":4149,"ariat":4150,"Ġemphasis":4151,"Ġcontroller":4152,"Ġmanner":4153,"Ġmangle":4154,"Ġmangrove":4155,"Ġmanufact":4156,"Ġmaniac":4157,"pole":4158,"pool":4159,"pochond":4160,"Ġape":4161,"ultan":4162,"Ġparagraph":4163,"Ġperennial":4164,"Ġdiadem":4165,"ellum":4166,"ellini":4167,"olean":4168,"olence":4169,"comotive":4170,"Ġpeac":4171,"Ġartery":4172,"Ġchef":4173,"aterpillar":4174,"achute":4175,"Ġground":4176,"Ġblade":4177,"Ġblanket":4178,"marine":4179,"ucifix":4180,"rench":4181,"renade":4182,"Ġholiday":4183,"Ġrepository":4184,"Ġimpala":4185,"Ġimpairment":4186,"Ġimprisonment":4187,"Ġcommuter":4188,"Ġwhip":4189,"ighty":4190,"Ġoutset":4191,"Ġflint":4192,"roll":4193,"iere":4194,"plus":4195,"ricity":4196,"Ġornament":4197,"ushroom":4198,"Ġinfiltration":4199,"Ġterrapin":4200,"Ġsurv":4201,"Ġsurface":4202,"Ġbarbit":4203,"annel":4204,"annah":4205,"Ġmonument":4206,"Ġstepping":4207,"Ġprice":4208,"Ġpreparation":4209,"Ġpruner":4210,"Ġmini":4211,"Ġoverheard":4212,"Ġdrain":4213,"ensation":4214,"Ġamnesty":4215,"Ġdeputy":4216,"itual":4217,"Ġcursor":4218,"Ġcurriculum":4219,"Ġattitude":4220,"moth":4221,"motaxis":4222,"Ġuniform":4223,"Ġexpression":4224,"sidian":4225,"Ġarmchair":4226,"Ġdivorce":4227,"axoph":4228,"Ġspeaker":4229,"ounge":4230,"Ġabrogation":4231,"iority":4232,"Ġcatalysis":4233,"Ġregister":4234,"Ġregret":4235,"grance":4236,"Ġopium":4237,"Ġsunflower":4238,"Ġdecency":4239,"formance":4240,"Ġpantsuit":4241,"Ġindepend":4242,"alytics":4243,"ginal":4244,"Ġcyst":4245,"issant":4246,"cara":4247,"brary":4248,"porter":4249,"Ġretirement":4250,"Ġmusician":4251,"Ġtransaction":4252,"Ġelderberry":4253,"Ġelongation":4254,"Ġwaterwheel":4255,"Ġstandpoint":4256,"Ġbuyer":4257,"Ġinvoice":4258,"Ġheadphones":4259,"Ġheadquarters":4260,"Ġformicarium":4261,"Ġbride":4262,"Ġhomonym":4263,"Ġhometown":4264,"Ġlogic":4265,"Ġincandescence":4266,"Ġnotice":4267,"Ġschizophrenic":4268,"Ġcornet":4269,"skirt":4270,"tainty":4271,"Ġturf":4272,"Ġcartel":4273,"Ġtennis":4274,"Ġserver":4275,"Ġprogress":4276,"Ġforecast":4277,"Ġforelimb":4278,"Ġkebab":4279,"Ġflexibility":4280,"Ġcenter":4281,"Ġpurpose":4282,"ceptor":4283,"Ġlocal":4284,"barr":4285,"Ġsquash":4286,"Ġpancreas":4287,"Ġplain":4288,"Ġburrow":4289,"welling":4290,"ousing":4291,"Ġsomething":4292,"Ġsomersault":4293,"Ġbaggie":4294,"Ġhorror":4295,"Ġsteam":4296,"anoia":4297,"Ġharpsichord":4298,"Ġcongregation":4299,"Ġarticle":4300,"Ġmidnight":4301,"Ġcommunication":4302,"Ġporcupine":4303,"Ġpotty":4304,"Ġsoftening":4305,"preter":4306,"ophomore":4307,"Ġaftermath":4308,"Ġpainting":4309,"ascia":4310,"Ġwebpage":4311,"Ġdogsled":4312,"Ġmortal":4313,"Ġmortality":4314,"Ġstatus":4315,"Ġkitty":4316,"Ġcrewmate":4317,"ermarket":4318,"Ġcabinet":4319,"Ġdeviation":4320,"Ġcheckroom":4321,"moval":4322,"Ġisogloss":4323,"Ġhuman":4324,"Ġbooty":4325,"Ġlawyer":4326,"Ġtabby":4327,"Ġsocialism":4328,"Ġfilth":4329,"Ġtesting":4330,"Ġcolonialism":4331,"Ġmessenger":4332,"Ġnetwork":4333,"Ġemployee":4334,"Ġdirection":4335,"Ġdynasty":4336,"Ġdefault":4337,"Ġcharacterization":4338,"Ġcasino":4339,"Ġcustom":4340,"Ġgloom":4341,"Ġcombine":4342,"Ġantelope":4343,"Ġcalculus":4344,"uelty":4345,"Ġsymmetry":4346,"Ġpsychoanalyst":4347,"Ġbullet":4348,"door":4349,"Ġshortage":4350,"Ġembellishment":4351,"Ġusage":4352,"Ġanniversary":4353,"Ġtube":4354,"Ġsucker":4355,"Ġcamera":4356,"Ġhonor":4357,"Ġhonoree":4358,"Ġdefender":4359,"Ġswimsuit":4360,"Ġorganizing":4361,"Ġcelebrity":4362,"Ġkeystone":4363,"Ġlightscreen":4364,"Ġdouble":4365,"Ġlicence":4366,"Ġpublication":4367,"roblast":4368,"Ġstockings":4369,"ificance":4370,"Ġtracking":4371,"Ġtolerant":4372,"Ġimmigration":4373,"Ġoptimist":4374,"sheet":4375,"ledgment":4376,"Ġdresser":4377,"Ġdressing":4378,"Ġpinecone":4379,"Ġbuddy":4380,"Ġgarment":4381,"Ġinteger":4382,"Ġintegr":4383,"Ġalbum":4384,"Ġterrarium":4385,"vitas":4386,"Ġsustainment":4387,"Ġlitigation":4388,"Ġveldt":4389,"Ġconstellation":4390,"Ġcontinuity":4391,"Ġneurobiologist":4392,"Ġflytrap":4393,"Ġreciprocity":4394,"aiters":4395,"Ġpastoralist":4396,"Ġcalico":4397,"Ġmelon":4398,"Ġrelationship":4399,"urgence":4400,"Ġvacation":4401,"Ġchronograph":4402,"Ġspirit":4403,"Ġsexuality":4404,"Ġhostess":4405,"Ġadvocate":4406,"Ġutili":4407,"Ġcanteen":4408,"Ġcantaloupe":4409,"Ġcurio":4410,"Ġcuriosity":4411,"Ġbassoon":4412,"othermia":4413,"Ġinvestigator":4414,"Ġkneejerk":4415,"inoceros":4416,"Ġgiggle":4417,"Ġhubcap":4418,"Ġresidue":4419,"Ġalmond":4420,"Ġordinary":4421,"Ġmissionary":4422,"Ġtransportation":4423,"Ġvegetarianism":4424,"flakes":4425,"Ġbabe":4426,"Ġmosque":4427,"Ġwaistband":4428,"Ġparameter":4429,"Ġsemicircle":4430,"Ġinnocent":4431,"Ġrobotics":4432,"Ġbattleship":4433,"Ġlegislator":4434,"ulienne":4435,"Ġtalking":4436,"ercise":4437,"Ġcannibal":4438,"Ġpagan":4439,"Ġprostacyclin":4440,"astrophe":4441,"Ġneighbour":4442,"Ġinfluence":4443,"Ġgrandpa":4444,"Ġsimplification":4445,"Ġsocks":4446,"Ġcastanet":4447,"reshments":4448,"Ġpomelo":4449,"Ġbusiness":4450,"laboration":4451,"Ġaltitude":4452,"Ġaluminium":4453,"Ġcolorlessness":4454,"Ġsubcontractor":4455,"Ġguideline":4456,"Ġfanlight":4457,"ickers":4458,"Ġrhyme":4459,"Ġcheesecake":4460,"Ġpharmacopoeia":4461,"cotash":4462,"Ġgateway":4463,"Ġhabitat":4464,"Ġstamina":4465,"Ġdragster":4466,"Ġfamiliar":4467,"driver":4468,"Ġtugboat":4469,"remist":4470,"Ġrequirement":4471,"Ġprecedence":4472,"Ġassessment":4473,"Ġcollectivization":4474,"uvre":4475,"valence":4476,"Ġethernet":4477,"ingernail":4478,"raulics":4479,"ceedings":4480,"acknowledgment":4481,"Ġtrapez":4482,"pochondria":4483,"ucifixion":4484,"Ġbarbiturate":4485,"axophone":4486,"NA":4487,"RNA":4488,"SU":4489,"aine":4490,"ajam":4491,"bus":4492,"cket":4493,"crow":4494,"cott":4495,"cimer":4496,"dep":4497,"date":4498,"ddle":4499,"equ":4500,"euvre":4501,"gence":4502,"gibility":4503,"hate":4504,"hpur":4505,"iet":4506,"jection":4507,"kind":4508,"killer":4509,"lor":4510,"link":4511,"lacement":4512,"linder":4513,"mine":4514,"munk":4515,"mallow":4516,"nit":4517,"ncy":4518,"name":4519,"nium":4520,"nitude":4521,"notation":4522,"oa":4523,"oz":4524,"payer":4525,"pipe":4526,"rator":4527,"rics":4528,"racy":4529,"ruce":4530,"sack":4531,"same":4532,"sley":4533,"tte":4534,"ua":4535,"uis":4536,"uum":4537,"uition":4538,"uice":4539,"urine":4540,"uzzle":4541,"vin":4542,"wi":4543,"word":4544,"wagon":4545,"yte":4546,"yak":4547,"yster":4548,"yday":4549,"zor":4550,"±o":4551,"Ã±o":4552,"Ġign":4553,"Ġacknowledgment":4554,"ourine":4555,"ourage":4556,"Ġtag":4557,"Ġtile":4558,"Ġtram":4559,"Ġtrip":4560,"Ġtape":4561,"Ġtime":4562,"Ġtrove":4563,"Ġtensor":4564,"Ġtrinket":4565,"Ġtiger":4566,"Ġtandem":4567,"Ġtights":4568,"hesion":4569,"hering":4570,"Ġnoun":4571,"Ġnasal":4572,"Ġsake":4573,"Ġsuck":4574,"Ġsigh":4575,"Ġslip":4576,"Ġsilo":4577,"Ġsouth":4578,"Ġsaint":4579,"Ġsultan":4580,"Ġsophomore":4581,"Ġsaxophone":4582,"lero":4583,"lending":4584,"inic":4585,"inity":4586,"inite":4587,"inach":4588,"atitude":4589,"atross":4590,"apid":4591,"apboard":4592,"apstick":4593,"Ġold":4594,"Ġovary":4595,"Ġoeuvre":4596,"Ġoyster":4597,"odhpur":4598,"epad":4599,"Ġsleuth":4600,"Ġoffic":4601,"Ġnode":4602,"Ġdot":4603,"Ġdimple":4604,"Ġdryer":4605,"Ġdwelling":4606,"liloquy":4607,"Ġfry":4608,"Ġfight":4609,"Ġfork":4610,"Ġford":4611,"Ġfountain":4612,"Ġfocus":4613,"Ġfascia":4614,"Ġfingernail":4615,"Ġerection":4616,"Ġlid":4617,"Ġlift":4618,"Ġlife":4619,"Ġlimb":4620,"Ġliving":4621,"Ġlibrary":4622,"oundary":4623,"ergy":4624,"erware":4625,"Ġcure":4626,"Ġcare":4627,"Ġclaw":4628,"Ġcray":4629,"Ġcasket":4630,"Ġcephal":4631,"Ġclogs":4632,"Ġcaterpillar":4633,"Ġpate":4634,"Ġplot":4635,"Ġpiece":4636,"Ġpimple":4637,"Ġplover":4638,"Ġpigeon":4639,"arr":4640,"aran":4641,"archer":4642,"arva":4643,"enot":4644,"enant":4645,"orak":4646,"orian":4647,"stitution":4648,"Ġbrink":4649,"Ġbet":4650,"Ġbell":4651,"Ġbiscuit":4652,"Ġmate":4653,"Ġmine":4654,"Ġmime":4655,"Ġmower":4656,"Ġmillion":4657,"Ġmushroom":4658,"iting":4659,"itute":4660,"alator":4661,"alape":4662,"acc":4663,"acott":4664,"acular":4665,"rover":4666,"icill":4667,"icory":4668,"loom":4669,"look":4670,"Ġgarter":4671,"Ġgins":4672,"Ġgrief":4673,"Ġgrenade":4674,"Ġgaiters":4675,"asing":4676,"Ġhut":4677,"Ġhate":4678,"Ġhack":4679,"Ġhill":4680,"Ġhousing":4681,"rast":4682,"raffe":4683,"omber":4684,"Ġwine":4685,"Ġwish":4686,"Ġwell":4687,"Ġwool":4688,"Ġwifi":4689,"etime":4690,"ilver":4691,"elony":4692,"elting":4693,"elini":4694,"amaran":4695,"rial":4696,"rigger":4697,"rietor":4698,"rigerator":4699,"Ġrelay":4700,"Ġrealization":4701,"Ġrecovery":4702,"Ġreclamation":4703,"Ġremoval":4704,"ota":4705,"otal":4706,"Ġink":4707,"Ġinlay":4708,"Ġinhibition":4709,"ssey":4710,"olk":4711,"olver":4712,"Ġstab":4713,"Ġstage":4714,"Ġstart":4715,"Ġstall":4716,"Ġstuff":4717,"section":4718,"terrorism":4719,"laint":4720,"Ġvint":4721,"Ġvivo":4722,"Ġvignette":4723,"Ġvellum":4724,"igen":4725,"igence":4726,"igare":4727,"utation":4728,"utter":4729,"utab":4730,"utdown":4731,"utrient":4732,"utenant":4733,"imosa":4734,"ista":4735,"istol":4736,"istance":4737,"veal":4738,"quake":4739,"quito":4740,"Ġchannel":4741,"ulcimer":4742,"Ġrisk":4743,"opard":4744,"opher":4745,"opoly":4746,"atee":4747,"ateau":4748,"Ġconservation":4749,"Ġconsequence":4750,"Ġspike":4751,"Ġsprout":4752,"ardrum":4753,"Ġdesert":4754,"ocephal":4755,"ocyte":4756,"Ġline":4757,"Ġlout":4758,"Ġlumber":4759,"Ġlounge":4760,"herkin":4761,"Ġjade":4762,"Ġjumper":4763,"Ġjulienne":4764,"Ġshine":4765,"Ġshift":4766,"assy":4767,"assment":4768,"ancestor":4769,"htub":4770,"htray":4771,"shift":4772,"abass":4773,"abao":4774,"Ġprobe":4775,"Ġproceedings":4776,"edary":4777,"edience":4778,"astation":4779,"Ġcomestible":4780,"aga":4781,"agull":4782,"estine":4783,"emony":4784,"uphon":4785,"Ġexclamation":4786,"Ġexercise":4787,"Ġhemp":4788,"Ġleap":4789,"Ġleaker":4790,"Ġleaver":4791,"Ġleek":4792,"Ġleverage":4793,"ayment":4794,"neath":4795,"Ġscale":4796,"Ġscrim":4797,"ugout":4798,"uggage":4799,"dew":4800,"debe":4801,"osal":4802,"Ġcore":4803,"Ġcoil":4804,"ourishment":4805,"Ġanalysis":4806,"Ġanalytics":4807,"Ġsecond":4808,"Ġboss":4809,"Ġboost":4810,"Ġbonding":4811,"Ġboolean":4812,"Ġallegation":4813,"Ġbeing":4814,"Ġrag":4815,"Ġraid":4816,"Ġraft":4817,"arency":4818,"Ġdisclosure":4819,"Ġdisarmament":4820,"Ġdisdain":4821,"beration":4822,"Ġloop":4823,"Ġloading":4824,"Ġlocomotive":4825,"Ġthong":4826,"Ġthread":4827,"Ġthreat":4828,"Ġrocket":4829,"Ġadult":4830,"coli":4831,"bee":4832,"Ġlag":4833,"Ġpolish":4834,"Ġcomposition":4835,"Ġcomplicity":4836,"Ġcomprehension":4837,"Ġcompensation":4838,"congest":4839,"connection":4840,"Ġcolony":4841,"Ġcolloquy":4842,"Ġcollaboration":4843,"Ġplacement":4844,"Ġprevalence":4845,"Ġenvelope":4846,"rowel":4847,"athon":4848,"Ġyurt":4849,"Ġyoung":4850,"Ġcruelty":4851,"Ġcrucifixion":4852,"lican":4853,"licker":4854,"Ġcourage":4855,"Ġcarter":4856,"Ġcarload":4857,"Ġcarving":4858,"akedown":4859,"eek":4860,"Ġcontour":4861,"Ġmanhunt":4862,"Ġmansard":4863,"Ġmanservant":4864,"Ġmanagement":4865,"Ġmanifestation":4866,"Ġgravitas":4867,"rong":4868,"ronutrient":4869,"Ġapse":4870,"ulting":4871,"Ġclinic":4872,"Ġhypochondria":4873,"Ġswivel":4874,"Ġtoenail":4875,"Ġparachute":4876,"Ġparanoia":4877,"Ġperformance":4878,"ampone":4879,"Ġcream":4880,"Ġargument":4881,"Ġarthur":4882,"Ġchemotaxis":4883,"uckoo":4884,"ptocephal":4885,"Ġgrant":4886,"Ġgrouper":4887,"eback":4888,"ebody":4889,"understand":4890,"Ġsnake":4891,"Ġsnuck":4892,"Ġblind":4893,"Ġinternet":4894,"Ġinterject":4895,"Ġinterloper":4896,"Ġinterpreter":4897,"crete":4898,"maine":4899,"rena":4900,"Ġreparation":4901,"Ġreplica":4902,"Ġimpact":4903,"Ġmoai":4904,"Ġcommander":4905,"Ġpatina":4906,"Ġbrule":4907,"Ġoutlay":4908,"Ġoutside":4909,"Ġflu":4910,"Ġflan":4911,"rolley":4912,"Ġtrailer":4913,"anks":4914,"Ġmaelstrom":4915,"Ġinflation":4916,"Ġtermination":4917,"Ġterminal":4918,"Ġtranscript":4919,"Ġskate":4920,"Ġsurgery":4921,"Ġsurplus":4922,"Ġrip":4923,"Ġriddle":4924,"Ġanticodon":4925,"Ġcapp":4926,"Ġcaper":4927,"Ġcaption":4928,"Ġshovel":4929,"Ġbarrel":4930,"anning":4931,"Ġweird":4932,"Ġairport":4933,"Ġairspace":4934,"clock":4935,"Ġmonster":4936,"Ġmonitor":4937,"laying":4938,"Ġcloak":4939,"Ġminion":4940,"Ġminimum":4941,"uffocation":4942,"Ġprize":4943,"Ġsupport":4944,"Ġsupreme":4945,"Ġsupermarket":4946,"Ġdepot":4947,"Ġcurtain":4948,"Ġattacker":4949,"motion":4950,"ooner":4951,"Ġexplosion":4952,"Ġunderclothes":4953,"Ġaccent":4954,"oreceptor":4955,"Ġashtray":4956,"Ġarmrest":4957,"Ġdivine":4958,"Ġrefusal":4959,"Ġrefuge":4960,"Ġrefreshments":4961,"Ġrefrigerator":4962,"Ġspear":4963,"Ġknickers":4964,"undance":4965,"Ġmiscommunication":4966,"Ġfeather":4967,"Ġglance":4968,"Ġcharset":4969,"Ġobi":4970,"Ġobsidian":4971,"Ġcatalogue":4972,"Ġcatastrophe":4973,"gran":4974,"portion":4975,"self":4976,"Ġpassing":4977,"Ġpassbook":4978,"Ġpassport":4979,"Ġepic":4980,"Ġcorps":4981,"Ġmeteor":4982,"ucture":4983,"orcelain":4984,"Ġhydraulics":4985,"ulars":4986,"Ġgene":4987,"Ġgeneration":4988,"Ġagency":4989,"Ġsmuggling":4990,"lennium":4991,"Ġbackdrop":4992,"Ġindividual":4993,"Ġcyclone":4994,"Ġfootage":4995,"Ġfootstep":4996,"Ġworkout":4997,"Ġsignet":4998,"Ġsignificance":4999,"genitor":5000,"Ġsalon":5001,"Ġwarren":5002,"Ġwarrior":5003,"mbone":5004,"Ġtransit":5005,"Ġtransition":5006,"Ġelk":5007,"component":5008,"naire":5009,"rimp":5010,"Ġveranda":5011,"Ġlabel":5012,"Ġeddy":5013,"Ġcalorie":5014,"Ġheadache":5015,"Ġcanopy":5016,"Ġcanvas":5017,"Ġcircle":5018,"Ġcirrus":5019,"Ġresume":5020,"Ġresolve":5021,"Ġlogo":5022,"Ġlogin":5023,"Ġevaporation":5024,"Ġequality":5025,"Ġincidence":5026,"Ġinsurrection":5027,"Ġinsurgence":5028,"Ġtwig":5029,"Ġnothing":5030,"Ġschool":5031,"Ġintention":5032,"Ġproposition":5033,"Ġprophet":5034,"Ġproprietor":5035,"cursion":5036,"Ġfragrance":5037,"Ġcornflakes":5038,"Ġpopcorn":5039,"Ġgeyser":5040,"ilot":5041,"skiing":5042,"tainment":5043,"Ġturret":5044,"Ġdowngrade":5045,"Ġendive":5046,"Ġbike":5047,"Ġbijou":5048,"Ġblackboard":5049,"Ġtenement":5050,"Ġtimetable":5051,"Ġdiscount":5052,"ulele":5053,"Ġatheist":5054,"Ġtomorrow":5055,"Ġcutlet":5056,"Ġcutting":5057,"Ġpressurisation":5058,"Ġmoron":5059,"achelor":5060,"cept":5061,"Ġsavannah":5062,"insurance":5063,"Ġforay":5064,"Ġlocket":5065,"Ġsquid":5066,"inoa":5067,"Ġplaster":5068,"Ġphotodiode":5069,"Ġfibroblast":5070,"Ġcroissant":5071,"Ġharvester":5072,"rovement":5073,"Ġoctopus":5074,"Ġcampanile":5075,"Ġporthole":5076,"Ġpotato":5077,"aspberry":5078,"Ġharmony":5079,"Ġbooklet":5080,"Ġsoftware":5081,"Ġflag":5082,"Ġpilaf":5083,"Ġmastication":5084,"Ġauthorisation":5085,"Ġfortnight":5086,"Ġportion":5087,"Ġportrait":5088,"avern":5089,"Ġmortise":5090,"ridine":5091,"andarin":5092,"Ġactivity":5093,"Ġfishnet":5094,"Ġexpert":5095,"Ġpolicy":5096,"Ġhospitality":5097,"ooter":5098,"Ġcitron":5099,"Ġsenator":5100,"Ġsocialist":5101,"Ġdolphin":5102,"Ġcert":5103,"alloween":5104,"Ġmoonscape":5105,"cedent":5106,"Ġveneer":5107,"Ġtechnology":5108,"spiration":5109,"Ġhurt":5110,"Ġraccoon":5111,"Ġladle":5112,"control":5113,"Ġskyline":5114,"Ġcharacteristic":5115,"outhouse":5116,"Ġtussle":5117,"Ġdipstick":5118,"Ġbandwidth":5119,"Ġaccordance":5120,"Ġtortellini":5121,"Ġlipoprotein":5122,"Ġbulb":5123,"Ġbulk":5124,"Ġhypothermia":5125,"Ġpersonal":5126,"Ġpersonnel":5127,"justment":5128,"Ġicy":5129,"Ġdamn":5130,"Ġanything":5131,"Ġembryo":5132,"Ġsafe":5133,"Ġsailboat":5134,"Ġfinal":5135,"Ġeligibility":5136,"Ġcookie":5137,"Ġsubsidence":5138,"Ġsubsidiary":5139,"Ġsecretariat":5140,"Ġsuccotash":5141,"Ġbidding":5142,"Ġdefeat":5143,"Ġextremist":5144,"Ġplanet":5145,"Ġeffectiveness":5146,"bonnet":5147,"Ġtaro":5148,"Ġtarget":5149,"Ġpalate":5150,"Ġmailing":5151,"Ġhunger":5152,"Ġscreenwriting":5153,"Ġnewsp":5154,"Ġcounseling":5155,"Ġsorbet":5156,"Ġderrick":5157,"Ġfamily":5158,"Ġpollution":5159,"Ġgrease":5160,"Ġstripe":5161,"Ġvalance":5162,"Ġdragonfruit":5163,"Ġlaborer":5164,"Ġoptimisation":5165,"Ġbathhouse":5166,"Ġmousse":5167,"icipation":5168,"Ġwillow":5169,"Ġwidth":5170,"Ġrhinoceros":5171,"Ġopposition":5172,"Ġopposite":5173,"Ġsentiment":5174,"Ġmixture":5175,"Ġalien":5176,"Ġchopstick":5177,"Ġlength":5178,"Ġpossible":5179,"Ġcapitalism":5180,"Ġelectricity":5181,"Ġphysics":5182,"incidence":5183,"Ġfries":5184,"romedary":5185,"Ġrespite":5186,"Ġscallops":5187,"Ġyeast":5188,"Ġmarketing":5189,"Ġsanct":5190,"Ġgelding":5191,"Ġranch":5192,"Ġdebtor":5193,"Ġacademics":5194,"Ġwholes":5195,"Ġsuperiority":5196,"Ġcorporatism":5197,"Ġpumpkinseed":5198,"casion":5199,"Ġillness":5200,"Ġsongbird":5201,"inoculars":5202,"location":5203,"Ġalmighty":5204,"Ġgranola":5205,"Ġordination":5206,"Ġdowntown":5207,"Ġdownturn":5208,"Ġfraction":5209,"Ġfrustration":5210,"Ġbitten":5211,"adamia":5212,"Ġchaos":5213,"Ġchainstay":5214,"Ġimportance":5215,"Ġfreezer":5216,"Ġfreezing":5217,"Ġpantyhose":5218,"Ġringworm":5219,"Ġtambour":5220,"Ġsilica":5221,"Ġmaterial":5222,"Ġvirginal":5223,"Ġcoffin":5224,"Ġaccelerator":5225,"Ġphrase":5226,"Ġairfare":5227,"Ġcrystallography":5228,"holder":5229,"pants":5230,"ukulele":5231,"Ġoxford":5232,"Ġliterate":5233,"Ġpolyester":5234,"Ġrebel":5235,"Ġstudy":5236,"Ġleveret":5237,"Ġplatelet":5238,"ymphocyte":5239,"Ġephemera":5240,"Ġcandidacy":5241,"Ġcitizenship":5242,"Ġcountryside":5243,"ndicate":5244,"Ġbrownie":5245,"Ġbenefit":5246,"Ġmascara":5247,"Ġgreenhouse":5248,"Ġgraphic":5249,"Ġhaircut":5250,"Ġwonder":5251,"advantage":5252,"Ġlunge":5253,"Ġjustification":5254,"Ġjailhouse":5255,"Ġhearth":5256,"Ġadvertising":5257,"Ġteenager":5258,"Ġreception":5259,"Ġearrings":5260,"Ġshelter":5261,"Ġmembership":5262,"Ġcornerstone":5263,"Ġmacaroon":5264,"Ġdirectory":5265,"Ġdiploma":5266,"Ġtowel":5267,"Ġpapa":5268,"Ġberry":5269,"Ġmaybe":5270,"Ġmattress":5271,"Ġrationale":5272,"Ġbeastie":5273,"Ġrosemary":5274,"Ġneedle":5275,"Ġuniversity":5276,"Ġopportunist":5277,"Ġaftershock":5278,"Ġcrocodile":5279,"Ġpraise":5280,"Ġguitarist":5281,"ashtag":5282,"Ġankle":5283,"mobiling":5284,"Ġskean":5285,"Ġsaddle":5286,"Ġfacelift":5287,"Ġfaithful":5288,"Ġcultivator":5289,"Ġsolicitation":5290,"Ġparticipant":5291,"Ġherbs":5292,"Ġfolklore":5293,"Ġsensitive":5294,"gligee":5295,"Ġreorganisation":5296,"Ġcoverall":5297,"Ġhybridization":5298,"Ġbrassiere":5299,"Ġclavier":5300,"Ġinitialize":5301,"ocell":5302,"Ġpiccolo":5303,"acquerware":5304,"competence":5305,"violi":5306,"ephyr":5307,"statement":5308,"rollment":5309,"barrassment":5310,"SUV":5311,"ainee":5312,"ajamas":5313,"uisine":5314,"apidation":5315,"Ġoldie":5316,"odhpurs":5317,"Ġcephalopod":5318,"enotaph":5319,"alapeÃ±o":5320,"acotta":5321,"roversy":5322,"icillin":5323,"Ġginseng":5324,"igarette":5325,"utabaga":5326,"uphonium":5327,"debeest":5328,"congestant":5329,"ptocephalus":5330,"Ġbrulee":5331,"ais":5332,"auty":5333,"bug":5334,"bale":5335,"bite":5336,"cology":5337,"cision":5338,"cule":5339,"div":5340,"dock":5341,"dometer":5342,"drum":5343,"diction":5344,"fu":5345,"fre":5346,"far":5347,"fore":5348,"fiel":5349,"factor":5350,"foot":5351,"glow":5352,"han":5353,"holding":5354,"iance":5355,"iog":5356,"iyak":5357,"jo":5358,"joy":5359,"khan":5360,"ller":5361,"lantation":5362,"mat":5363,"mur":5364,"norm":5365,"nob":5366,"ox":5367,"osp":5368,"ook":5369,"ovation":5370,"pon":5371,"pret":5372,"parent":5373,"plain":5374,"print":5375,"podrome":5376,"run":5377,"rition":5378,"rilla":5379,"raction":5380,"sa":5381,"sell":5382,"salis":5383,"sque":5384,"tation":5385,"tler":5386,"ulet":5387,"ussion":5388,"uosity":5389,"ussel":5390,"vor":5391,"vium":5392,"viction":5393,"vulet":5394,"water":5395,"watcher":5396,"washer":5397,"wright":5398,"xagon":5399,"xiety":5400,"yalty":5401,"zen":5402,"Ġounce":5403,"Ġancestor":5404,"Ġouthouse":5405,"Ġukulele":5406,"ĠSUV":5407,"ourist":5408,"Ġtor":5409,"Ġtick":5410,"Ġtake":5411,"Ġtanker":5412,"Ġteller":5413,"Ġtackle":5414,"Ġtrench":5415,"Ġtotal":5416,"Ġtrowel":5417,"Ġtrolley":5418,"Ġtavern":5419,"Ġtherap":5420,"Ġnun":5421,"Ġnail":5422,"Ġnoon":5423,"Ġnoise":5424,"Ġnorth":5425,"Ġnourishment":5426,"Ġsac":5427,"Ġsole":5428,"Ġsaw":5429,"Ġsimple":5430,"Ġslave":5431,"Ġsilver":5432,"Ġsuffocation":5433,"lect":5434,"incloth":5435,"atist":5436,"atami":5437,"aturge":5438,"athering":5439,"apot":5440,"Ġody":5441,"Ġoxygen":5442,"Ġodometer":5443,"oder":5444,"epe":5445,"epayer":5446,"Ġsleeping":5447,"Ġdime":5448,"Ġdiction":5449,"Ġdawn":5450,"Ġdhow":5451,"Ġdys":5452,"Ġdulcimer":5453,"Ġdugout":5454,"Ġdromedary":5455,"lick":5456,"lite":5457,"lipt":5458,"lief":5459,"liography":5460,"Ġfit":5461,"Ġfull":5462,"Ġfang":5463,"Ġfrown":5464,"Ġfighter":5465,"Ġfelony":5466,"Ġflicker":5467,"ndo":5468,"ndix":5469,"Ġera":5470,"Ġeardrum":5471,"Ġeuphonium":5472,"rinkles":5473,"erity":5474,"erential":5475,"errilla":5476,"Ġcot":5477,"Ġcork":5478,"Ġcake":5479,"Ġcave":5480,"Ġculture":5481,"Ġcuckoo":5482,"Ġcuisine":5483,"Ġcenotaph":5484,"Ġcigarette":5485,"res":5486,"Ġpair":5487,"Ġpron":5488,"Ġpush":5489,"Ġpink":5490,"Ġpiss":5491,"Ġpanda":5492,"Ġpuzzle":5493,"Ġpistol":5494,"Ġporcelain":5495,"Ġpilot":5496,"Ġpajamas":5497,"anut":5498,"anist":5499,"enist":5500,"enity":5501,"enna":5502,"encil":5503,"stalk":5504,"stuffs":5505,"Ġbun":5506,"Ġbather":5507,"Ġbaker":5508,"Ġbait":5509,"Ġbumper":5510,"Ġbother":5511,"Ġboundary":5512,"Ġbomber":5513,"Ġbachelor":5514,"Ġbinoculars":5515,"Ġmal":5516,"Ġmare":5517,"Ġmint":5518,"Ġmule":5519,"Ġmiter":5520,"Ġmountain":5521,"Ġmadam":5522,"Ġmakeover":5523,"ĠmRNA":5524,"Ġmimosa":5525,"Ġmandarin":5526,"itulation":5527,"itcher":5528,"ithelium":5529,"aco":5530,"acon":5531,"acher":5532,"acht":5533,"road":5534,"rock":5535,"rosis":5536,"icad":5537,"icety":5538,"isin":5539,"isclosure":5540,"entagon":5541,"loth":5542,"Ġgn":5543,"Ġgest":5544,"Ġgrove":5545,"Ġgutter":5546,"Ġgopher":5547,"Ġgherkin":5548,"Ġgathering":5549,"aser":5550,"asper":5551,"aside":5552,"Ġhare":5553,"Ġhold":5554,"Ġhaze":5555,"Ġhockey":5556,"Ġhassock":5557,"Ġhalloween":5558,"Ġhashtag":5559,"cend":5560,"omit":5561,"Ġwill":5562,"Ġwoman":5563,"Ġwinter":5564,"Ġwrist":5565,"Ġwriter":5566,"Ġwrong":5567,"etate":5568,"etics":5569,"etah":5570,"elance":5571,"elab":5572,"elace":5573,"amin":5574,"amel":5575,"amate":5576,"ambo":5577,"amination":5578,"rium":5579,"rigg":5580,"adpole":5581,"Ġreal":5582,"Ġreward":5583,"Ġredesign":5584,"otany":5585,"umbo":5586,"umism":5587,"umenist":5588,"chard":5589,"chamber":5590,"gend":5591,"Ġinability":5592,"Ġinbox":5593,"Ġinquiry":5594,"Ġinconvenience":5595,"Ġinspiration":5596,"sset":5597,"urion":5598,"Ġstaff":5599,"Ġstrait":5600,"semination":5601,"teration":5602,"idian":5603,"Ġvend":5604,"Ġvern":5605,"Ġvista":5606,"utant":5607,"utney":5608,"utiny":5609,"antity":5610,"Ġaid":5611,"Ġarena":5612,"vey":5613,"Ġchalk":5614,"Ġchoice":5615,"Ġchicory":5616,"Ġchateau":5617,"Ġrate":5618,"Ġrice":5619,"Ġraspberry":5620,"Ġrutabaga":5621,"operation":5622,"Ġconnection":5623,"Ġconcrete":5624,"Ġspit":5625,"Ġspork":5626,"Ġspell":5627,"Ġspasm":5628,"Ġspelt":5629,"Ġspruce":5630,"Ġspinach":5631,"ardiog":5632,"Ġdescription":5633,"Ġdecongestant":5634,"ocode":5635,"occer":5636,"Ġlust":5637,"Ġlarva":5638,"Ġluggage":5639,"Ġlymphocyte":5640,"Ġlacquerware":5641,"heral":5642,"Ġjacket":5643,"Ġjury":5644,"Ġjuice":5645,"Ġjodhpurs":5646,"ĠjalapeÃ±o":5647,"ipheral":5648,"Ġshot":5649,"Ġshawl":5650,"Ġshutdown":5651,"Ġshakedown":5652,"Ġshrimp":5653,"assination":5654,"rysalis":5655,"spection":5656,"sperity":5657,"ubation":5658,"ortal":5659,"Ġproportion":5660,"Ġprogenitor":5661,"edition":5662,"edding":5663,"astronomy":5664,"Ġcomics":5665,"Ġcomeback":5666,"agna":5667,"emale":5668,"empt":5669,"ureau":5670,"Ġexhibition":5671,"Ġexcursion":5672,"Ġhelo":5673,"Ġhell":5674,"Ġheyday":5675,"Ġlearning":5676,"Ġleopard":5677,"Ġleptocephalus":5678,"Ġkiller":5679,"iege":5680,"Ġsche":5681,"Ġscout":5682,"Ġscooter":5683,"ivist":5684,"ugato":5685,"dess":5686,"actus":5687,"Ġcoke":5688,"Ġcohesion":5689,"ifth":5690,"ibliography":5691,"Ġanorak":5692,"Ġseep":5693,"Ġsewer":5694,"Ġsesame":5695,"Ġseabass":5696,"Ġseagull":5697,"Ġboard":5698,"Ġbolero":5699,"Ġalloy":5700,"Ġallu":5701,"Ġalliance":5702,"armigan":5703,"Ġtrust":5704,"Ġtrillion":5705,"ressive":5706,"ains":5707,"Ġrawh":5708,"Ġrazor":5709,"Ġravioli":5710,"arel":5711,"arest":5712,"Ġdisco":5713,"Ġdischarge":5714,"letion":5715,"scent":5716,"scue":5717,"oking":5718,"avel":5719,"avoc":5720,"icksand":5721,"berg":5722,"berty":5723,"Ġlob":5724,"Ġlotion":5725,"Ġloyalty":5726,"Ġthorn":5727,"Ġthigh":5728,"Ġthumb":5729,"Ġthickness":5730,"Ġthanks":5731,"Ġroar":5732,"Ġrope":5733,"Ġromaine":5734,"Ġroller":5735,"Ġadoption":5736,"Ġadjustment":5737,"lowing":5738,"being":5739,"believer":5740,"Ġlast":5741,"udiment":5742,"Ġquery":5743,"Ġquotation":5744,"Ġquiet":5745,"Ġquota":5746,"Ġquinoa":5747,"izure":5748,"cons":5749,"irety":5750,"Ġcold":5751,"Ġplanning":5752,"Ġpreoccupation":5753,"Ġenvy":5754,"Ġenergy":5755,"Ġenrollment":5756,"rowth":5757,"phalt":5758,"Ġyawl":5759,"Ġcrush":5760,"Ġcricket":5761,"Ġcrepe":5762,"licit":5763,"Ġcargo":5764,"Ġcarrot":5765,"Ġcarabao":5766,"eech":5767,"alect":5768,"Ġembarrassment":5769,"Ġcontrast":5770,"Ġcontroversy":5771,"Ġmanatee":5772,"ronome":5773,"Ġclapboard":5774,"Ġnegligee":5775,"Ġparade":5776,"Ġparsley":5777,"Ġperch":5778,"Ġdigestion":5779,"Ġsubtitle":5780,"Ġsubmarine":5781,"stery":5782,"ampum":5783,"Ġpew":5784,"Ġpeach":5785,"Ġpeasant":5786,"Ġpelican":5787,"Ġcreme":5788,"Ġarray":5789,"Ġcheek":5790,"achometer":5791,"Ġgratitude":5792,"Ġmargin":5793,"Ġmarathon":5794,"Ġsnob":5795,"Ġsnuggle":5796,"Ġblame":5797,"Ġinterval":5798,"Ġinterface":5799,"creation":5800,"ucumber":5801,"club":5802,"Ġsoliloquy":5803,"Ġhose":5804,"Ġhook":5805,"Ġreplacement":5806,"urname":5807,"Ġimprovement":5808,"Ġpatient":5809,"etermination":5810,"Ġbrunch":5811,"Ġbracket":5812,"Ġoutlaw":5813,"Ġoutback":5814,"Ġoutrage":5815,"Ġzoo":5816,"Ġzoot":5817,"Ġzampone":5818,"Ġzephyr":5819,"Ġtrail":5820,"umpet":5821,"plant":5822,"ushka":5823,"Ġmarine":5824,"Ġmaiden":5825,"Ġmaestro":5826,"Ġinfinite":5827,"Ġsurprise":5828,"Ġride":5829,"Ġantigen":5830,"Ġcaptain":5831,"Ġshofar":5832,"Ġaircraft":5833,"chen":5834,"chemia":5835,"Ġmonger":5836,"Ġmonopoly":5837,"oldier":5838,"Ġguide":5839,"Ġguilt":5840,"Ġguava":5841,"ending":5842,"ectionery":5843,"Ġoverweight":5844,"Ġoversight":5845,"cessity":5846,"Ġamount":5847,"Ġsuppression":5848,"Ġsupporter":5849,"Ġdepartment":5850,"Ġapplause":5851,"Ġcurl":5852,"Ġmotive":5853,"Ġmotivation":5854,"Ġattic":5855,"azoo":5856,"Ġunion":5857,"Ġunity":5858,"Ġunibody":5859,"rocardiog":5860,"affle":5861,"Ġunderneath":5862,"Ġarmor":5863,"Ġrefund":5864,"Ġknuckle":5865,"Ġabundance":5866,"Ġfeature":5867,"Ġfeeling":5868,"Ġglory":5869,"Ġcharge":5870,"Ġobjection":5871,"Ġobedience":5872,"Ġcatsup":5873,"Ġcatamaran":5874,"obbler":5875,"ondisclosure":5876,"Ġhandful":5877,"Ġpassive":5878,"strate":5879,"Ġepee":5880,"Ġcorruption":5881,"Ġcorral":5882,"Ġdecade":5883,"Ġdecoration":5884,"Ġgrandchild":5885,"Ġgrandmom":5886,"Ġconsent":5887,"Ġconsul":5888,"Ġconsulting":5889,"guard":5890,"guise":5891,"expression":5892,"Ġhydrant":5893,"kini":5894,"monger":5895,"ynx":5896,"Ġpenicillin":5897,"Ġagreement":5898,"ghum":5899,"Ġtrial":5900,"Ġtemp":5901,"Ġtemper":5902,"Ġtempo":5903,"Ġsmelting":5904,"lenook":5905,"Ġbackground":5906,"Ġbackburn":5907,"Ġindigence":5908,"Ġconference":5909,"gina":5910,"Ġcylinder":5911,"Ġelection":5912,"irtue":5913,"Ġsnowman":5914,"Ġsnowstorm":5915,"Ġsnowflake":5916,"Ġsnowplow":5917,"Ġsnowmobiling":5918,"okend":5919,"usement":5920,"onsai":5921,"onsibility":5922,"Ġpasture":5923,"prosy":5924,"Ġverdict":5925,"esis":5926,"Ġdetection":5927,"Ġdetainee":5928,"Ġburial":5929,"Ġinvitation":5930,"lishing":5931,"Ġnightlife":5932,"Ġediting":5933,"Ġformer":5934,"Ġeffic":5935,"Ġcanal":5936,"Ġparticle":5937,"Ġbridge":5938,"Ġhardening":5939,"Ġresult":5940,"unchback":5941,"cert":5942,"metic":5943,"Ġsyndicate":5944,"Ġevolution":5945,"Ġevocation":5946,"glar":5947,"Ġincision":5948,"ternoon":5949,"Ġtwist":5950,"Ġnotepad":5951,"Ġschooner":5952,"atinum":5953,"Ġintestine":5954,"Ġlyrics":5955,"Ġlyocell":5956,"Ġturban":5957,"lesque":5958,"Ġdownstairs":5959,"Ġendpoint":5960,"Ġcartoon":5961,"Ġcartridge":5962,"Ġtimer":5963,"Ġbreath":5964,"Ġmacadamia":5965,"Ġdiscourse":5966,"Ġtomography":5967,"heading":5968,"Ġforgery":5969,"Ġcandy":5970,"Ġblocker":5971,"Ġarchives":5972,"ession":5973,"Ġcafe":5974,"Ġpanel":5975,"Ġrevascular":5976,"Ġrevolver":5977,"Ġvolcano":5978,"Ġphotoreceptor":5979,"discovery":5980,"Ġsomeplace":5981,"Ġsomebody":5982,"Ġbaggy":5983,"Ġbaggage":5984,"Ġcrook":5985,"vestock":5986,"tension":5987,"Ġsemester":5988,"Ġcommunist":5989,"sychiat":5990,"Ġspecies":5991,"tleneck":5992,"urian":5993,"Ġdistrib":5994,"Ġdistortion":5995,"Ġporter":5996,"ombie":5997,"Ġdisposition":5998,"Ġdisposer":5999,"Ġslapstick":6000,"Ġwindage":6001,"aphrag":6002,"Ġinstance":6003,"Ġinstitute":6004,"Ġrainy":6005,"Ġrainbow":6006,"Ġtextbook":6007,"Ġtextual":6008,"aversack":6009,"Ġdogwood":6010,"Ġdoggie":6011,"Ġfuneral":6012,"ellion":6013,"ellite":6014,"elligence":6015,"gestive":6016,"Ġstatute":6017,"Ġlatency":6018,"Ġcrewmen":6019,"Ġsonnet":6020,"ithmetic":6021,"ellows":6022,"Ġdevastation":6023,"Ġhospitalization":6024,"Ġtransparency":6025,"Ġmotorboat":6026,"Ġisland":6027,"Ġisolation":6028,"Ġcitrus":6029,"Ġtelescreen":6030,"Ġtelevision":6031,"Ġherring":6032,"Ġfilter":6033,"Ġceremony":6034,"Ġpupil":6035,"Ġpuppy":6036,"Ġmagnitude":6037,"Ġvisa":6038,"Ġmoonshine":6039,"Ġestate":6040,"cedure":6041,"Ġredhead":6042,"Ġangstrom":6043,"Ġcolonization":6044,"blinking":6045,"bladder":6046,"Ġsetting":6047,"Ġfrock":6048,"Ġcraft":6049,"Ġcircuit":6050,"Ġemployment":6051,"Ġsideboard":6052,"Ġbaseboard":6053,"Ġbottling":6054,"asonry":6055,"Ġinstructor":6056,"Ġlady":6057,"Ġcredit":6058,"Ġcreditor":6059,"Ġtuition":6060,"Ġtulip":6061,"Ġcashew":6062,"Ġcustody":6063,"Ġbasics":6064,"Ġbaseline":6065,"Ġmicronutrient":6066,"Ġmilepost":6067,"Ġglove":6068,"Ġcombination":6069,"awnshop":6070,"Ġaccordion":6071,"Ġlipid":6072,"Ġviolation":6073,"Ġicon":6074,"Ġmainstream":6075,"Ġwalrus":6076,"Ġembassy":6077,"Ġambition":6078,"Ġwoodchuck":6079,"Ġdemand":6080,"Ġshipper":6081,"Ġcontrary":6082,"Ġsubsidy":6083,"Ġsurrounds":6084,"Ġeyeball":6085,"Ġjeweller":6086,"Ġemergent":6087,"ientist":6088,"patitis":6089,"Ġtrombone":6090,"Ġcamper":6091,"Ġpremier":6092,"Ġcelery":6093,"Ġtaxpayer":6094,"Ġpalm":6095,"Ġhunting":6096,"Ġharmonize":6097,"inderbox":6098,"Ġdaybed":6099,"Ġgreed":6100,"Ġstrike":6101,"Ġchapter":6102,"Ġruby":6103,"Ġboxer":6104,"Ġthunderstorm":6105,"Ġpostbox":6106,"Ġdragonfly":6107,"Ġnestling":6108,"Ġlieu":6109,"Ġlieutenant":6110,"Ġwildebeest":6111,"Ġboatload":6112,"Ġboatyard":6113,"Ġalbatross":6114,"Ġradish":6115,"Ġterracotta":6116,"Ġquestioner":6117,"Ġquestionnaire":6118,"Ġslice":6119,"Ġsentencing":6120,"Ġpledge":6121,"Ġmantel":6122,"Ġmantua":6123,"Ġgovernor":6124,"Ġgovernment":6125,"impani":6126,"Ġassistance":6127,"Ġcouncilor":6128,"Ġphysical":6129,"ecution":6130,"Ġtypeface":6131,"Ġdollar":6132,"Ġfigurine":6133,"Ġcowbell":6134,"Ġcowboy":6135,"Ġcupola":6136,"Ġmapping":6137,"Ġremark":6138,"Ġstopwatch":6139,"Ġvacuum":6140,"Ġvestment":6141,"Ġexaminer":6142,"Ġhello":6143,"Ġearthquake":6144,"Ġowl":6145,"Ġengineer":6146,"Ġchemistry":6147,"Ġhydrolysis":6148,"Ġkeeper":6149,"Ġdynamite":6150,"dropper":6151,"Ġnoodle":6152,"Ġfedelini":6153,"Ġpunishment":6154,"Ġpliers":6155,"Ġbathtub":6156,"Ġwetland":6157,"Ġdeduce":6158,"Ġscenery":6159,"Ġscrewdriver":6160,"Ġgraduation":6161,"Ġframework":6162,"Ġoriginality":6163,"Ġoccasion":6164,"Ġessay":6165,"Ġbilling":6166,"Ġmosquito":6167,"Ġstatement":6168,"Ġspreadsheet":6169,"Ġdeclination":6170,"Ġkiwi":6171,"Ġparamedic":6172,"Ġpatrolling":6173,"Ġinnocence":6174,"Ġlegislature":6175,"Ġtambourine":6176,"Ġsilicon":6177,"Ġfrontier":6178,"Ġmaternity":6179,"Ġrecession":6180,"Ġvirus":6181,"Ġvineyard":6182,"Ġprotocol":6183,"Ġcoffee":6184,"Ġaccelerant":6185,"Ġphrasing":6186,"Ġairfield":6187,"aboon":6188,"iletto":6189,"Ġsilly":6190,"Ġpulse":6191,"Ġpulley":6192,"Ġmillet":6193,"Ġmillennium":6194,"Ġgaffe":6195,"Ġgaffer":6196,"Ġlambkin":6197,"ogenate":6198,"ogenesis":6199,"Ġrayon":6200,"Ġmarshmallow":6201,"Ġadministration":6202,"Ġadministrator":6203,"Ġcrawdad":6204,"Ġmustache":6205,"Ġmachinery":6206,"Ġsponsorship":6207,"Ġlongboat":6208,"Ġscratch":6209,"Ġperfection":6210,"Ġdriveway":6211,"Ġmicrophone":6212,"Ġketchup":6213,"Ġsynod":6214,"Ġduckling":6215,"Ġpardon":6216,"Ġpepperoni":6217,"ssert":6218,"Ġchipmunk":6219,"abetes":6220,"Ġteammate":6221,"Ġcompassion":6222,"Ġcriteria":6223,"Ġneonate":6224,"Ġexperimentation":6225,"Ġtoothpick":6226,"Ġtrooper":6227,"latan":6228,"Ġsafari":6229,"Ġescalator":6230,"Ġcello":6231,"Ġcrowd":6232,"Ġballpark":6233,"chidna":6234,"Ġinsectarium":6235,"Ġdeliberation":6236,"Ġbobcat":6237,"Ġtrouble":6238,"Ġpoisoning":6239,"Ġplatform":6240,"Ġentertainment":6241,"Ġassociation":6242,"Ġcorrespondence":6243,"Ġhydrocarbon":6244,"Ġlabourer":6245,"Ġpartnership":6246,"Ġarchaeologist":6247,"Ġmasterpiece":6248,"Ġdemocracy":6249,"Ġbehaviour":6250,"Ġweekender":6251,"Ġastrology":6252,"member":6253,"visor":6254,"Ġdilapidation":6255,"Ġcocoa":6256,"Ġpyridine":6257,"Ġhistorian":6258,"Ġrelative":6259,"Ġvaulting":6260,"Ġshirtdress":6261,"Ġrandomization":6262,"Ġachiever":6263,"Ġbricklaying":6264,"Ġphilosophy":6265,"Ġtemptation":6266,"Ġvolunteering":6267,"Ġbutterfly":6268,"Ġdevelopmental":6269,"Ġnumeric":6270,"Ġfishery":6271,"Ġlifetime":6272,"Ġpirate":6273,"Ġgiraffe":6274,"Ġhops":6275,"Ġlarder":6276,"Ġcoordination":6277,"Ġgenerosity":6278,"Ġindustri":6279,"Ġprincipal":6280,"Ġidiot":6281,"judice":6282,"Ġidentity":6283,"ligator":6284,"Ġmammoth":6285,"Ġruin":6286,"Ġanesthesiology":6287,"Ġsolidarity":6288,"producer":6289,"gnancy":6290,"glove":6291,"habitant":6292,"melon":6293,"Ġpeacock":6294,"ozie":6295,"vinist":6296,"ouragement":6297,"arrative":6298,"aisy":6299,"fielder":6300,"iyaki":6301,"osphate":6302,"sellor":6303,"Ġtorso":6304,"Ġodyssey":6305,"Ġdysfunction":6306,"liptic":6307,"ennae":6308,"icada":6309,"Ġgesture":6310,"asperation":6311,"elabra":6312,"riggler":6313,"umismatist":6314,"Ġvendor":6315,"Ġvernacular":6316,"Ġalluvium":6317,"Ġrawhide":6318,"Ġmarines":6319,"rocardiogram":6320,"aphragm":6321,"CD":6322,"aem":6323,"aob":6324,"bra":6325,"bol":6326,"bish":6327,"bian":6328,"bbi":6329,"bana":6330,"bench":6331,"birth":6332,"burst":6333,"cul":6334,"cop":6335,"care":6336,"cue":6337,"cino":6338,"dar":6339,"det":6340,"dler":6341,"eo":6342,"eat":6343,"ear":6344,"eal":6345,"ender":6346,"eign":6347,"fighter":6348,"gory":6349,"gboard":6350,"gnet":6351,"hort":6352,"hog":6353,"hicle":6354,"host":6355,"hopper":6356,"iar":6357,"iol":6358,"iasm":6359,"joke":6360,"kart":6361,"kaze":6362,"lac":6363,"las":6364,"lord":6365,"macy":6366,"ns":6367,"niv":6368,"nition":6369,"nings":6370,"nival":6371,"note":6372,"nnel":6373,"nicity":6374,"ove":6375,"oxy":6376,"oxygen":6377,"pom":6378,"pus":6379,"plier":6380,"sin":6381,"say":6382,"sench":6383,"snow":6384,"tw":6385,"tap":6386,"tim":6387,"telling":6388,"tarmigan":6389,"uro":6390,"uable":6391,"ucose":6392,"vol":6393,"viation":6394,"wich":6395,"wurst":6396,"xus":6397,"yond":6398,"yote":6399,"Ġurn":6400,"Ġactor":6401,"Ġurge":6402,"Ġissue":6403,"oust":6404,"outer":6405,"Ġtan":6406,"Ġtie":6407,"Ġtower":6408,"Ġtune":6409,"Ġtourist":6410,"Ġtatami":6411,"Ġtaco":6412,"Ġtadpole":6413,"Ġtachometer":6414,"Ġtinderbox":6415,"Ġtimpani":6416,"hest":6417,"heast":6418,"Ġtheory":6419,"Ġtheism":6420,"Ġnicety":6421,"Ġnondisclosure":6422,"Ġnarrative":6423,"Ġnumismatist":6424,"Ġsip":6425,"Ġsick":6426,"Ġsink":6427,"Ġsense":6428,"Ġslope":6429,"Ġsector":6430,"Ġsitar":6431,"Ġsloth":6432,"Ġsoccer":6433,"Ġsiege":6434,"Ġsurname":6435,"Ġsoldier":6436,"leo":6437,"lev":6438,"ledge":6439,"lelogram":6440,"inth":6441,"ativity":6442,"atura":6443,"atwurst":6444,"apon":6445,"apse":6446,"appointment":6447,"Ġoak":6448,"Ġomission":6449,"Ġoleo":6450,"odiment":6451,"odka":6452,"ephew":6453,"ffee":6454,"ffiti":6455,"Ġdate":6456,"Ġdrop":6457,"Ġdarn":6458,"Ġdetermination":6459,"Ġdurian":6460,"Ġdaisy":6461,"lihood":6462,"lisation":6463,"Ġfile":6464,"Ġfax":6465,"Ġforce":6466,"Ġflower":6467,"Ġfiery":6468,"Ġfemale":6469,"Ġfugato":6470,"Ġfifth":6471,"ndl":6472,"ndar":6473,"ndency":6474,"ndrome":6475,"ndulum":6476,"Ġease":6477,"Ġetern":6478,"Ġelicit":6479,"Ġechidna":6480,"keter":6481,"Ġliberty":6482,"Ġlivestock":6483,"Ġeating":6484,"onia":6485,"oneline":6486,"onette":6487,"Ġcation":6488,"Ġcage":6489,"Ġcem":6490,"Ġcue":6491,"Ġcrop":6492,"Ġcable":6493,"Ġcrib":6494,"Ġcrown":6495,"Ġclipper":6496,"Ġcattle":6497,"Ġcactus":6498,"Ġcucumber":6499,"Ġcicada":6500,"rea":6501,"Ġpud":6502,"Ġplight":6503,"Ġpause":6504,"Ġpentagon":6505,"Ġpawnshop":6506,"Ġptarmigan":6507,"arate":6508,"arance":6509,"arction":6510,"arison":6511,"arosc":6512,"aner":6513,"anner":6514,"enon":6515,"enic":6516,"ension":6517,"enuation":6518,"orus":6519,"orice":6520,"ste":6521,"stri":6522,"stronomy":6523,"Ġbuck":6524,"Ġbush":6525,"Ġbower":6526,"Ġbarium":6527,"Ġbacon":6528,"Ġbotany":6529,"Ġbureau":6530,"Ġbibliography":6531,"Ġbonsai":6532,"Ġbellows":6533,"Ġbaboon":6534,"Ġmale":6535,"Ġmatter":6536,"Ġmode":6537,"Ġmilli":6538,"Ġmussel":6539,"Ġmasonry":6540,"ither":6541,"itting":6542,"allot":6543,"allelogram":6544,"ingle":6545,"acing":6546,"acus":6547,"acemaker":6548,"acinth":6549,"icab":6550,"icos":6551,"iclet":6552,"icular":6553,"icama":6554,"iciary":6555,"entist":6556,"lophone":6557,"Ġger":6558,"Ġgem":6559,"Ġgather":6560,"Ġgong":6561,"Ġglen":6562,"Ġgolf":6563,"Ġgavel":6564,"Ġgrowth":6565,"Ġgobbler":6566,"Ġhood":6567,"Ġhash":6568,"Ġhire":6569,"Ġhaste":6570,"Ġhutch":6571,"Ġhunchback":6572,"Ġhaversack":6573,"raut":6574,"omenon":6575,"Ġwage":6576,"Ġwake":6577,"Ġwatcher":6578,"Ġwasher":6579,"Ġwedding":6580,"Ġwampum":6581,"Ġwaffle":6582,"Ġwriggler":6583,"ilarity":6584,"amon":6585,"amus":6586,"amph":6587,"rix":6588,"ride":6589,"adise":6590,"adium":6591,"adiol":6592,"Ġreality":6593,"Ġreef":6594,"Ġreveal":6595,"Ġrescue":6596,"otch":6597,"othesis":6598,"otamus":6599,"umquat":6600,"umonia":6601,"chure":6602,"chilla":6603,"chitis":6604,"Ġinscription":6605,"Ġincome":6606,"Ġinsert":6607,"Ġincompetence":6608,"Ġinspection":6609,"Ġinhabitant":6610,"ssip":6611,"uracy":6612,"Ġstem":6613,"Ġstay":6614,"Ġstore":6615,"Ġstable":6616,"Ġstarter":6617,"Ġstencil":6618,"Ġstitcher":6619,"Ġstiletto":6620,"uncture":6621,"laby":6622,"irndl":6623,"Ġvane":6624,"Ġvascular":6625,"Ġvomit":6626,"Ġvirtue":6627,"iguration":6628,"antime":6629,"imity":6630,"imony":6631,"imension":6632,"usarium":6633,"usiasm":6634,"Ġav":6635,"Ġaunt":6636,"Ġastra":6637,"Ġarea":6638,"Ġastronomy":6639,"veler":6640,"quency":6641,"Ġchart":6642,"Ġchill":6643,"Ġchick":6644,"Ġchasm":6645,"Ġchamber":6646,"Ġchutney":6647,"Ġchrysalis":6648,"ulse":6649,"ulty":6650,"Ġrace":6651,"Ġrye":6652,"Ġrudiment":6653,"ople":6654,"opsy":6655,"ategory":6656,"Ġconversion":6657,"Ġconnotation":6658,"Ġconcept":6659,"Ġconviction":6660,"owl":6661,"Ġspice":6662,"Ġspouse":6663,"Ġspade":6664,"Ġspoon":6665,"Ġspree":6666,"Ġspawn":6667,"Ġsplit":6668,"Ġsprinkles":6669,"Ġspeech":6670,"Ġspending":6671,"Ġdeck":6672,"Ġdemon":6673,"Ġdestro":6674,"Ġdeformation":6675,"Ġdealer":6676,"Ġdearest":6677,"Ġdessert":6678,"ocrine":6679,"occas":6680,"Ġlack":6681,"Ġlark":6682,"Ġlode":6683,"Ġlament":6684,"Ġlynx":6685,"Ġjet":6686,"Ġjot":6687,"Ġjoke":6688,"Ġjumbo":6689,"thouse":6690,"thought":6691,"alition":6692,"Ġshade":6693,"Ġshoulder":6694,"assel":6695,"rylic":6696,"shake":6697,"abe":6698,"abase":6699,"ablishment":6700,"spin":6701,"spring":6702,"sperm":6703,"Ġprotein":6704,"Ġprosperity":6705,"Ġprocedure":6706,"ede":6707,"editation":6708,"astity":6709,"agus":6710,"agination":6711,"agrant":6712,"aganda":6713,"estival":6714,"estimate":6715,"upuncture":6716,"Ġexc":6717,"Ġexit":6718,"Ġexception":6719,"Ġexpose":6720,"Ġexecution":6721,"Ġexasperation":6722,"Ġhexagon":6723,"Ġhepatitis":6724,"Ġlead":6725,"Ġleaf":6726,"Ġlevel":6727,"Ġlegend":6728,"Ġleprosy":6729,"ayak":6730,"Ġkazoo":6731,"neumonia":6732,"artender":6733,"Ġscrip":6734,"Ġscientist":6735,"outheast":6736,"dex":6737,"Ġcoaster":6738,"Ġcoinsurance":6739,"Ġcoincidence":6740,"Ġcosset":6741,"ograp":6742,"ogue":6743,"ognition":6744,"ource":6745,"Ġanarchy":6746,"Ġanxiety":6747,"Ġangina":6748,"ilion":6749,"Ġseason":6750,"Ġseizure":6751,"Ġbookend":6752,"Ġalarm":6753,"Ġalto":6754,"Ġallocation":6755,"Ġalteration":6756,"Ġalligator":6757,"Ġtrout":6758,"Ġtrumpet":6759,"aily":6760,"Ġbeverage":6761,"Ġbeliever":6762,"Ġbeauty":6763,"Ġbeheading":6764,"Ġram":6765,"Ġrake":6766,"Ġraven":6767,"Ġradi":6768,"Ġraisin":6769,"arecrow":6770,"Ġdisruption":6771,"Ġdisadvantage":6772,"Ġdissemination":6773,"Ġdisguise":6774,"gerna":6775,"scious":6776,"scraper":6777,"avilion":6778,"Ġacre":6779,"Ġacetate":6780,"bery":6781,"Ġlot":6782,"Ġloss":6783,"Ġlover":6784,"Ġlove":6785,"Ġloquat":6786,"Ġloincloth":6787,"Ġthyme":6788,"Ġthief":6789,"Ġroof":6790,"Ġaddition":6791,"Ġtender":6792,"Ġteapot":6793,"Ġteacher":6794,"Ġquantity":6795,"Ġquicksand":6796,"isement":6797,"izon":6798,"Ġpool":6799,"Ġcomponent":6800,"Ġcompany":6801,"Ġcomplaint":6802,"Ġcompletion":6803,"cony":6804,"ignity":6805,"Ġcolt":6806,"Ġcolumn":6807,"orknob":6808,"Ġplatinum":6809,"Ġpresid":6810,"Ġpreservation":6811,"Ġpresent":6812,"Ġprefix":6813,"Ġprejudice":6814,"Ġpregnancy":6815,"Ġenquiry":6816,"Ġengagement":6817,"Ġmeadow":6818,"phant":6819,"Ġyak":6820,"Ġyang":6821,"Ġyacht":6822,"Ġcrit":6823,"Ġcrust":6824,"Ġcracker":6825,"Ġcough":6826,"Ġcoupon":6827,"Ġcarol":6828,"Ġcarry":6829,"Ġcarbon":6830,"Ġcarpet":6831,"Ġcarrier":6832,"Ġfoal":6833,"alendar":6834,"Ġemission":6835,"Ġcontention":6836,"Ġmango":6837,"Ġapology":6838,"Ġapartment":6839,"Ġclue":6840,"Ġclasp":6841,"Ġclarification":6842,"orning":6843,"Ġswath":6844,"serve":6845,"serves":6846,"Ġtoilet":6847,"Ġtofu":6848,"Ġnecessity":6849,"Ġparrot":6850,"owner":6851,"Ġperception":6852,"Ġperipheral":6853,"Ġdiaper":6854,"Ġdiagram":6855,"Ġdiarist":6856,"Ġdialect":6857,"Ġdigestive":6858,"Ġdiabetes":6859,"Ġdiaphragm":6860,"Ġsubject":6861,"Ġsubcomponent":6862,"ilege":6863,"ilence":6864,"olester":6865,"olens":6866,"Ġpeony":6867,"Ġpendant":6868,"Ġpeanut":6869,"Ġcreature":6870,"Ġarithmetic":6871,"Ġcheetah":6872,"ptom":6873,"achment":6874,"Ġgranny":6875,"ebird":6876,"Ġmarch":6877,"Ġmarker":6878,"Ġsnail":6879,"Ġbladder":6880,"Ġinterest":6881,"Ġinteraction":6882,"Ġinterview":6883,"ucket":6884,"ucco":6885,"uccino":6886,"clamp":6887,"Ġsoap":6888,"Ġsoil":6889,"Ġsofa":6890,"Ġrepair":6891,"Ġreputation":6892,"Ġrepayment":6893,"Ġimplement":6894,"Ġmoose":6895,"Ġcommerc":6896,"Ġwhistle":6897,"Ġpattern":6898,"Ġpatroller":6899,"etery":6900,"eteran":6901,"Ġoutput":6902,"Ġoutrigger":6903,"Ġoutfielder":6904,"Ġfluke":6905,"Ġphosphate":6906,"ameo":6907,"inding":6908,"aulif":6909,"Ġzo":6910,"Ġzen":6911,"Ġzero":6912,"Ġzombie":6913,"Ġtray":6914,"ierarchy":6915,"plug":6916,"plane":6917,"ricide":6918,"Ġorator":6919,"Ġmaize":6920,"Ġinfo":6921,"Ġinfix":6922,"Ġteriyaki":6923,"Ġskiing":6924,"Ġsurge":6925,"Ġsurvey":6926,"Ġrider":6927,"Ġrifle":6928,"Ġrivulet":6929,"Ġantibody":6930,"Ġanticipation":6931,"Ġantennae":6932,"Ġcaptor":6933,"Ġshoemaker":6934,"Ġshoelace":6935,"Ġbaritone":6936,"anna":6937,"annabe":6938,"Ġwear":6939,"Ġweight":6940,"Ġweather":6941,"Ġwealth":6942,"Ġairship":6943,"Ġairline":6944,"chee":6945,"cheonette":6946,"Ġmonk":6947,"Ġclose":6948,"Ġcloth":6949,"Ġclosure":6950,"Ġclothing":6951,"Ġpract":6952,"Ġguy":6953,"Ġguerrilla":6954,"uffle":6955,"uffel":6956,"Ġovercharge":6957,"Ġovercoat":6958,"Ġdrawer":6959,"Ġprimary":6960,"cessor":6961,"Ġamenity":6962,"Ġamusement":6963,"Ġdepressive":6964,"ongo":6965,"Ġassassination":6966,"azz":6967,"azon":6968,"Ġunique":6969,"Ġunblinking":6970,"Ġexport":6971,"Ġexpense":6972,"Ġcounsellor":6973,"rocery":6974,"affold":6975,"Ġunderpants":6976,"Ġunderstatement":6977,"Ġaccuracy":6978,"venue":6979,"Ġascend":6980,"Ġasphalt":6981,"Ġarmour":6982,"Ġdivan":6983,"Ġknitting":6984,"Ġmisunderstand":6985,"Ġfew":6986,"Ġglass":6987,"Ġglue":6988,"Ġglasses":6989,"Ġcharlatan":6990,"Ġregard":6991,"Ġhandgun":6992,"Ġfreon":6993,"Ġfreelance":6994,"Ġpassword":6995,"strum":6996,"Ġeponym":6997,"Ġepithelium":6998,"Ġsunset":6999,"Ġsunbonnet":7000,"Ġdecoder":7001,"Ġgrandson":7002,"Ġgrandfather":7003,"Ġmetric":7004,"Ġmetronome":7005,"ritter":7006,"Ġvein":7007,"Ġveil":7008,"guin":7009,"Ġpanties":7010,"ularity":7011,"jector":7012,"truck":7013,"trans":7014,"Ġgenetics":7015,"Ġaglet":7016,"Ġagony":7017,"Ġtrim":7018,"Ġtribe":7019,"Ġsmock":7020,"Ġsmile":7021,"Ġsmolt":7022,"weet":7023,"Ġconfidence":7024,"Ġconfectionery":7025,"Ġcycle":7026,"issance":7027,"ielbas":7028,"Ġfootwear":7029,"Ġworkforce":7030,"Ġworkplace":7031,"Ġelement":7032,"iosperm":7033,"leyball":7034,"Ġsalt":7035,"Ġsalmon":7036,"Ġpastry":7037,"Ġwarrant":7038,"Ġwarning":7039,"Ġadvent":7040,"Ġadviser":7041,"Ġadvantage":7042,"ailer":7043,"Ġtranslation":7044,"Ġwaterskiing":7045,"Ġverb":7046,"Ġverse":7047,"spector":7048,"Ġearnings":7049,"Ġsheet":7050,"Ġcalf":7051,"Ġbalance":7052,"Ġafternoon":7053,"Ġheadlight":7054,"Ġgoodie":7055,"Ġgoodnight":7056,"Ġgoodwill":7057,"Ġhomogenate":7058,"Ġhardship":7059,"Ġhardhat":7060,"Ġempire":7061,"cerpt":7062,"certainty":7063,"Ġlogistics":7064,"Ġevent":7065,"pension":7066,"Ġincident":7067,"Ġincubation":7068,"Ġtwine":7069,"Ġnote":7070,"Ġintuition":7071,"Ġintelligence":7072,"Ġlye":7073,"curd":7074,"curren":7075,"Ġpopulation":7076,"Ġgeology":7077,"tainer":7078,"Ġdrizzle":7079,"Ġdownload":7080,"Ġbiology":7081,"Ġbikini":7082,"Ġblackberry":7083,"ostat":7084,"ostor":7085,"Ġtenet":7086,"Ġtenant":7087,"Ġtiming":7088,"Ġtimbale":7089,"Ġsermon":7090,"Ġbangle":7091,"Ġbanjo":7092,"Ġprogression":7093,"Ġdiscussion":7094,"Ġkendo":7095,"Ġcenturion":7096,"Ġpressroom":7097,"Ġmorale":7098,"ahoo":7099,"luk":7100,"toric":7101,"Ġsavory":7102,"Ġsavior":7103,"Ġforage":7104,"Ġcandelabra":7105,"Ġblood":7106,"Ġlocation":7107,"Ġupstairs":7108,"inox":7109,"Ġburst":7110,"Ġburglar":7111,"Ġburlesque":7112,"Ġphotography":7113,"ousaphone":7114,"Ġtrek":7115,"Ġtreasure":7116,"Ġsteel":7117,"Ġfibrosis":7118,"Ġhousework":7119,"Ġhousewife":7120,"Ġhousehold":7121,"Ġconga":7122,"Ġcollection":7123,"Ġcolleague":7124,"forcement":7125,"plement":7126,"Ġseminar":7127,"hibitor":7128,"urization":7129,"Ġcleat":7130,"Ġcampus":7131,"Ġprince":7132,"Ġpotential":7133,"ombat":7134,"Ġbookmark":7135,"Ġdispute":7136,"Ġslate":7137,"Ġflavor":7138,"Ġbirdhouse":7139,"Ġmodem":7140,"Ġmastoid":7141,"Ġwindscreen":7142,"Ġafterlife":7143,"ggar":7144,"Ġforte":7145,"Ġfortress":7146,"Ġbrain":7147,"ascade":7148,"Ġwebmail":7149,"Ġinstitution":7150,"Ġrainmaker":7151,"Ġproduce":7152,"mitter":7153,"Ġecumenist":7154,"Ġecliptic":7155,"Ġmedal":7156,"Ġstatistics":7157,"Ġlathe":7158,"Ġlatitude":7159,"Ġkitchen":7160,"azement":7161,"Ġactress":7162,"Ġactivist":7163,"Ġfishing":7164,"Ġgoing":7165,"amikaze":7166,"Ġinnovation":7167,"Ġdeviance":7168,"Ġheartache":7169,"Ġlandform":7170,"Ġchecking":7171,"Ġtransplantation":7172,"Ġmotorcar":7173,"Ġischemia":7174,"Ġhumor":7175,"Ġhumidity":7176,"Ġvariant":7177,"Ġvariable":7178,"Ġbootie":7179,"Ġlawmaker":7180,"Ġsenate":7181,"Ġsociety":7182,"Ġdollop":7183,"Ġpathology":7184,"Ġpathogenesis":7185,"Ġmagic":7186,"Ġmaggot":7187,"allows":7188,"Ġvisit":7189,"Ġmoonlight":7190,"Ġicecream":7191,"Ġiceberg":7192,"Ġsandpaper":7193,"Ġhatbox":7194,"Ġmessy":7195,"Ġclassification":7196,"Ġtechnique":7197,"ikebana":7198,"Ġsettler":7199,"Ġcrazy":7200,"Ġplayground":7201,"Ġplaywright":7202,"Ġmerit":7203,"Ġmeridian":7204,"Ġhighlight":7205,"Ġsweater":7206,"Ġvegetation":7207,"Ġemployer":7208,"xylophone":7209,"Ġsidewalk":7210,"Ġentirety":7211,"Ġbasement":7212,"Ġbaseball":7213,"Ġladder":7214,"Ġprosecutor":7215,"contamination":7216,"Ġfloozie":7217,"Ġcodpiece":7218,"Ġrestoration":7219,"neeze":7220,"Ġcountess":7221,"Ġantecedent":7222,"Ġcalculation":7223,"Ġtorte":7224,"Ġtournament":7225,"Ġfollowing":7226,"Ġcourthouse":7227,"Ġpsychiat":7228,"Ġjunket":7229,"Ġthrill":7230,"Ġtoothbrush":7231,"doir":7232,"ratricide":7233,"Ġdigging":7234,"Ġgoddess":7235,"Ġshortwave":7236,"Ġanyone":7237,"Ġanybody":7238,"Ġmajority":7239,"zyme":7240,"Ġusher":7241,"Ġsailing":7242,"Ġpigpen":7243,"Ġpigsty":7244,"Ġresearcher":7245,"Ġshipping":7246,"Ġcookbook":7247,"Ġweedkiller":7248,"Ġturnip":7249,"Ġoatmeal":7250,"Ġclimb":7251,"Ġcamel":7252,"Ġbidet":7253,"Ġprovidence":7254,"Ġextinction":7255,"Ġmeatloaf":7256,"Ġorganising":7257,"Ġbriefs":7258,"Ġbriefing":7259,"Ġbriefly":7260,"cipitation":7261,"Ġkeyboarding":7262,"Ġpalace":7263,"Ġpaddle":7264,"Ġhunter":7265,"Ġencouragement":7266,"Ġinglenook":7267,"Ġsorghum":7268,"Ġdaylight":7269,"Ġpollutant":7270,"Ġwhey":7271,"Ġlapdog":7272,"ificate":7273,"Ġcounterpart":7274,"Ġcounterterrorism":7275,"Ġimmigrant":7276,"Ġnestmate":7277,"Ġnormalization":7278,"Ġsummit":7279,"Ġbathroom":7280,"Ġmystery":7281,"Ġmouser":7282,"Ġwidow":7283,"andelier":7284,"Ġradar":7285,"Ġradio":7286,"vitable":7287,"Ġslide":7288,"Ġdonation":7289,"Ġlittleneck":7290,"erkraut":7291,"Ġmixer":7292,"Ġwalking":7293,"Ġwalkway":7294,"Ġstoryboard":7295,"Ġvelvet":7296,"Ġchops":7297,"Ġratepayer":7298,"Ġshopping":7299,"Ġpossession":7300,"Ġgrassland":7301,"Ġcapital":7302,"Ġaccounting":7303,"Ġdoorway":7304,"Ġelectrocardiogram":7305,"Ġpilgrimage":7306,"gienic":7307,"trade":7308,"Ġtentacle":7309,"Ġbronco":7310,"Ġbronze":7311,"Ġweek":7312,"Ġremains":7313,"Ġresponsibility":7314,"Ġvitality":7315,"Ġvitamin":7316,"Ġchronometer":7317,"Ġhelp":7318,"Ġkingfish":7319,"Ġsequence":7320,"Ġshoehorn":7321,"Ġthermals":7322,"Ġsanity":7323,"Ġfireplace":7324,"Ġfarming":7325,"Ġpita":7326,"Ġrelief":7327,"Ġreliability":7328,"Ġchemical":7329,"Ġprivate":7330,"Ġcorporation":7331,"Ġmethane":7332,"Ġhydrolyse":7333,"burns":7334,"Ġpublishing":7335,"Ġmutton":7336,"irclement":7337,"Ġjellyfish":7338,"aintance":7339,"Ġdrawing":7340,"routine":7341,"Ġsuggestion":7342,"Ġessential":7343,"Ġbabushka":7344,"Ġmatchmaker":7345,"alousy":7346,"Ġhippodrome":7347,"Ġhomework":7348,"Ġhoneydew":7349,"Ġspokesman":7350,"Ġlasagna":7351,"Ġkilogram":7352,"Ġcontribution":7353,"Ġreporting":7354,"Ġdependent":7355,"Ġappetite":7356,"Ġappetiser":7357,"Ġjournalist":7358,"ulist":7359,"Ġsinuosity":7360,"Ġsatellite":7361,"Ġcannon":7362,"Ġpodcast":7363,"Ġpagoda":7364,"Ġgumshoe":7365,"Ġprostanoid":7366,"astropod":7367,"Ġcompetitor":7368,"Ġcomplexity":7369,"Ġneighbor":7370,"Ġdiffuse":7371,"Ġdifferential":7372,"Ġinflux":7373,"Ġglutamate":7374,"Ġgrandparent":7375,"Ġcampaigning":7376,"Ġinstrumentation":7377,"abolite":7378,"ukluk":7379,"Ġliterature":7380,"Ġpolyp":7381,"Ġrebellion":7382,"Ġrumor":7383,"ocolate":7384,"Ġheirloom":7385,"Ġsculpting":7386,"Ġappendix":7387,"Ġswitchboard":7388,"Ġfeedback":7389,"Ġephemeris":7390,"Ġcandidate":7391,"Ġfrosting":7392,"Ġnationality":7393,"Ġfoodstuffs":7394,"Ġeavesdropper":7395,"Ġlistening":7396,"regard":7397,"Ġbrowser":7398,"Ġmustard":7399,"Ġmachine":7400,"Ġwaveform":7401,"Ġlongitude":7402,"Ġscrutiny":7403,"Ġperfume":7404,"Ġbrandy":7405,"Ġmicrolending":7406,"Ġslippers":7407,"atonin":7408,"Ġeagle":7409,"Ġeaglet":7410,"Ġcivilisation":7411,"Ġplowman":7412,"Ġbrocolli":7413,"Ġbroccoli":7414,"Ġbombing":7415,"Ġwaiting":7416,"Ġventi":7417,"Ġventure":7418,"Ġveto":7419,"Ġconcentration":7420,"Ġconcentrate":7421,"Ġprobation":7422,"Ġprobability":7423,"Ġloafer":7424,"Ġmeasurement":7425,"Ġregionalism":7426,"Ġretrospectivity":7427,"Ġbuying":7428,"Ġscholarship":7429,"Ġcircumference":7430,"Ġcircumstance":7431,"popotamus":7432,"ticaem":7433,"Ġtankful":7434,"legal":7435,"lendor":7436,"appiness":7437,"Ġdancing":7438,"Ġpolarisation":7439,"Ġmiracle":7440,"Ġmolecule":7441,"Ġhotdog":7442,"ilanthrop":7443,"chovy":7444,"Ġstonework":7445,"Ġdeathwatch":7446,"Ġproximal":7447,"Ġheroine":7448,"Ġanalogy":7449,"Ġaccessory":7450,"Ġlaughter":7451,"Ġgearshift":7452,"Ġservitude":7453,"Ġtabletop":7454,"Ġdoubter":7455,"Ġeyelids":7456,"Ġtactile":7457,"Ġdomination":7458,"Ġfurnace":7459,"Ġeraser":7460,"Ġpseudocode":7461,"Ġblogger":7462,"Ġmistake":7463,"Ġmassage":7464,"rogance":7465,"Ġdesigner":7466,"Ġshareholder":7467,"employment":7468,"Ġalpha":7469,"Ġaccompanist":7470,"confidence":7471,"Ġbarbeque":7472,"Ġapproval":7473,"variate":7474,"Ġnickname":7475,"Ġdramaturge":7476,"Ġeconomy":7477,"Ġevaluation":7478,"Ġchampion":7479,"Ġchauvinist":7480,"Ġbeginner":7481,"Ġbracelet":7482,"Ġflatboat":7483,"Ġconsistency":7484,"Ġbroadcast":7485,"Ġdoctorate":7486,"Ġorientation":7487,"innamon":7488,"Ġocean":7489,"Ġdestiny":7490,"through":7491,"Ġpatriot":7492,"Ġelevator":7493,"Ġspecialty":7494,"Ġpicturesque":7495,"Ġgripper":7496,"Ġvoter":7497,"Ġrugby":7498,"embodiment":7499,"Ġspeakerphone":7500,"Ġutilization":7501,"Ġneighbourhood":7502,"Ġofficial":7503,"Ġthongs":7504,"clocking":7505,"granate":7506,"joyment":7507,"pretation":7508,"amboo":7509,"sychiatry":7510,"aobab":7511,"eignty":7512,"nivore":7513,"senchyme":7514,"uroy":7515,"aturalisation":7516,"Ġeternity":7517,"oneliness":7518,"Ġcemetery":7519,"aroscope":7520,"icosanoid":7521,"amphlet":7522,"adiolus":7523,"Ġastrakhan":7524,"Ġdestroyer":7525,"occasins":7526,"ographer":7527,"gernaut":7528,"olesterol":7529,"Ġcommercial":7530,"auliflower":7531,"ielbasa":7532,"Ġpsychiatrist":7533,"ticaemia":7534,"ilanthropy":7535,"aur":7536,"aire":7537,"aft":7538,"ba":7539,"bu":7540,"bud":7541,"bridge":7542,"bolt":7543,"cam":7544,"cir":7545,"cage":7546,"cern":7547,"dity":7548,"dug":7549,"ddar":7550,"erin":7551,"evitable":7552,"fight":7553,"flight":7554,"faction":7555,"gor":7556,"gate":7557,"gand":7558,"good":7559,"gia":7560,"hom":7561,"hard":7562,"hole":7563,"husband":7564,"iality":7565,"iency":7566,"je":7567,"kon":7568,"lp":7569,"lance":7570,"llip":7571,"llis":7572,"mac":7573,"mid":7574,"mnivore":7575,"ny":7576,"nsp":7577,"nia":7578,"nighter":7579,"ovel":7580,"olier":7581,"prop":7582,"pedia":7583,"ril":7584,"range":7585,"sen":7586,"sine":7587,"sbo":7588,"site":7589,"sicle":7590,"sitation":7591,"sius":7592,"sbian":7593,"ux":7594,"vity":7595,"vast":7596,"vency":7597,"vark":7598,"wog":7599,"wire":7600,"xism":7601,"ypus":7602,"Ġuse":7603,"ĠCD":7604,"Ġikebana":7605,"Ġxylophone":7606,"Ġtic":7607,"Ġtough":7608,"Ġtilt":7609,"Ġtote":7610,"Ġtouch":7611,"Ġtakeover":7612,"Ġtissue":7613,"Ġtepee":7614,"Ġtassel":7615,"heit":7616,"heism":7617,"Ġnob":7618,"Ġnose":7619,"Ġnumber":7620,"Ġnoir":7621,"Ġnymph":7622,"Ġnickel":7623,"Ġnephew":7624,"Ġnaturalisation":7625,"Ġsir":7626,"Ġsard":7627,"Ġsari":7628,"Ġslaw":7629,"Ġslot":7630,"Ġseparation":7631,"Ġsoda":7632,"Ġsherry":7633,"Ġsoutheast":7634,"Ġsilence":7635,"Ġsousaphone":7636,"Ġsneeze":7637,"leen":7638,"inj":7639,"inct":7640,"inase":7641,"atus":7642,"atomy":7643,"atillo":7644,"atural":7645,"apple":7646,"aplane":7647,"apitulation":7648,"Ġoar":7649,"Ġoven":7650,"Ġoval":7651,"Ġosm":7652,"Ġomeg":7653,"Ġomnivore":7654,"epage":7655,"Ġsleet":7656,"Ġoffense":7657,"Ġdad":7658,"Ġdue":7659,"Ġdud":7660,"Ġdock":7661,"Ġdose":7662,"Ġdream":7663,"Ġduration":7664,"Ġduty":7665,"Ġdentist":7666,"Ġdirndl":7667,"Ġdimension":7668,"Ġdaily":7669,"Ġdignity":7670,"Ġduffel":7671,"lict":7672,"liment":7673,"Ġfiction":7674,"Ġfellow":7675,"Ġflick":7676,"Ġficlet":7677,"Ġfusarium":7678,"Ġfestival":7679,"Ġfinding":7680,"Ġfritter":7681,"Ġfratricide":7682,"ndue":7683,"Ġeel":7684,"Ġejector":7685,"Ġeicosanoid":7686,"kensp":7687,"Ġliar":7688,"Ġlily":7689,"Ġlimo":7690,"Ġlitter":7691,"Ġlilac":7692,"Ġligand":7693,"rinet":7694,"ringe":7695,"rinter":7696,"Ġlikelihood":7697,"onut":7698,"onics":7699,"onier":7700,"erib":7701,"erole":7702,"ereo":7703,"Ġcym":7704,"Ġcuff":7705,"Ġclip":7706,"Ġcilant":7707,"Ġcaddy":7708,"Ġcategory":7709,"Ġcalendar":7710,"Ġcameo":7711,"Ġcascade":7712,"Ġcinnamon":7713,"Ġcauliflower":7714,"ref":7715,"reciation":7716,"Ġpence":7717,"Ġpower":7718,"Ġpike":7719,"Ġpiety":7720,"Ġpuggle":7721,"Ġpacemaker":7722,"Ġpneumonia":7723,"Ġpavilion":7724,"Ġpamphlet":7725,"arant":7726,"aroo":7727,"arerib":7728,"ionberry":7729,"anberry":7730,"engagement":7731,"ors":7732,"oriety":7733,"stache":7734,"Ġbin":7735,"Ġbail":7736,"Ġblight":7737,"Ġborrow":7738,"Ġbless":7739,"Ġborder":7740,"Ġblend":7741,"Ġbartender":7742,"Ġbucket":7743,"Ġbongo":7744,"Ġbamboo":7745,"Ġbaobab":7746,"Ġmound":7747,"Ġmur":7748,"Ġmug":7749,"Ġmaking":7750,"Ġmama":7751,"Ġmorning":7752,"Ġmukluk":7753,"Ġmoccasins":7754,"iture":7755,"itif":7756,"itzer":7757,"alo":7758,"alow":7759,"acity":7760,"acco":7761,"acier":7762,"acode":7763,"roach":7764,"rogen":7765,"ica":7766,"iccup":7767,"isode":7768,"isfaction":7769,"enth":7770,"entr":7771,"enter":7772,"loping":7773,"Ġgain":7774,"Ġgland":7775,"Ġgasket":7776,"Ġgift":7777,"Ġgander":7778,"Ġgastronomy":7779,"Ġgrocery":7780,"Ġgastropod":7781,"asab":7782,"Ġhit":7783,"Ġhog":7784,"Ġhive":7785,"Ġhavoc":7786,"Ġhierarchy":7787,"Ġhappiness":7788,"rade":7789,"rame":7790,"raising":7791,"cendant":7792,"omnia":7793,"Ġwound":7794,"Ġwok":7795,"Ġwick":7796,"Ġwaiter":7797,"Ġwiring":7798,"Ġwolf":7799,"Ġwannabe":7800,"Ġwombat":7801,"illegal":7802,"elhorn":7803,"amer":7804,"amics":7805,"rigation":7806,"adillo":7807,"adril":7808,"Ġrear":7809,"Ġreject":7810,"Ġreset":7811,"Ġrena":7812,"Ġreboot":7813,"Ġrediscovery":7814,"Ġreserve":7815,"Ġreamer":7816,"otype":7817,"othelium":7818,"chime":7819,"geance":7820,"Ġindex":7821,"Ġinspector":7822,"Ġinhibitor":7823,"Ġinevitable":7824,"urch":7825,"urger":7826,"olasses":7827,"ollection":7828,"olvency":7829,"Ġsting":7830,"Ġstot":7831,"Ġstress":7832,"Ġstill":7833,"Ġstrap":7834,"Ġstick":7835,"Ġstring":7836,"Ġstump":7837,"Ġstitch":7838,"Ġstinger":7839,"Ġstrate":7840,"Ġstrobe":7841,"Ġstove":7842,"Ġstadium":7843,"Ġstucco":7844,"Ġstereo":7845,"ctrine":7846,"ctuation":7847,"see":7848,"teracy":7849,"idase":7850,"una":7851,"union":7852,"unger":7853,"lava":7854,"laimer":7855,"Ġvali":7856,"Ġvase":7857,"Ġvision":7858,"Ġvoice":7859,"Ġvodka":7860,"Ġvagrant":7861,"Ġveteran":7862,"utan":7863,"antics":7864,"imeter":7865,"imba":7866,"isting":7867,"usader":7868,"Ġaim":7869,"Ġawe":7870,"Ġaward":7871,"verb":7872,"verity":7873,"versation":7874,"vereignty":7875,"quet":7876,"quette":7877,"Ġcho":7878,"Ġchow":7879,"Ġchord":7880,"Ġchime":7881,"Ġchino":7882,"Ġchalice":7883,"Ġchief":7884,"Ġchorus":7885,"Ġchastity":7886,"Ġchandelier":7887,"Ġchocolate":7888,"Ġcholesterol":7889,"ulke":7890,"ulance":7891,"Ġruling":7892,"Ġrouter":7893,"Ġruffle":7894,"opter":7895,"atex":7896,"Ġspill":7897,"Ġspume":7898,"Ġspray":7899,"Ġsphere":7900,"Ġsprag":7901,"Ġsplendor":7902,"ardvark":7903,"Ġdeep":7904,"Ġdeer":7905,"Ġdescent":7906,"ocide":7907,"ocals":7908,"Ġlord":7909,"Ġlamp":7910,"Ġliner":7911,"Ġlarch":7912,"Ġlining":7913,"Ġloneliness":7914,"andise":7915,"Ġjob":7916,"Ġjoy":7917,"Ġjicama":7918,"Ġjazz":7919,"ipper":7920,"ipline":7921,"ipulation":7922,"thm":7923,"thalm":7924,"thusiasm":7925,"alion":7926,"alibut":7927,"Ġshin":7928,"Ġshack":7929,"Ġshark":7930,"Ġshallot":7931,"Ġshingle":7932,"Ġshallows":7933,"shoot":7934,"shaft":7935,"abre":7936,"spec":7937,"Ġprow":7938,"Ġprospect":7939,"Ġproctor":7940,"Ġpromotion":7941,"Ġprostrate":7942,"agion":7943,"aging":7944,"estone":7945,"estring":7946,"upidity":7947,"Ġextension":7948,"Ġexocrine":7949,"Ġexcerpt":7950,"ective":7951,"ectory":7952,"ectonics":7953,"Ġheat":7954,"Ġheaven":7955,"Ġhesitation":7956,"Ġletter":7957,"Ġlending":7958,"Ġlett":7959,"Ġlecture":7960,"Ġlemur":7961,"Ġlesbian":7962,"aya":7963,"Ġkale":7964,"Ġkarate":7965,"Ġkumquat":7966,"Ġkayak":7967,"Ġkamikaze":7968,"Ġkielbasa":7969,"Ġkinase":7970,"neur":7971,"arture":7972,"ckle":7973,"Ġscarf":7974,"Ġsched":7975,"Ġscraper":7976,"Ġscanner":7977,"Ġscotch":7978,"Ġscarecrow":7979,"Ġscaffold":7980,"ivative":7981,"ugelhorn":7982,"dec":7983,"decessor":7984,"oshes":7985,"Ġcoal":7986,"Ġcoach":7987,"Ġcofactor":7988,"Ġcooperation":7989,"Ġcohort":7990,"Ġcoyote":7991,"Ġcoalition":7992,"Ġcovariate":7993,"oggle":7994,"ifocals":7995,"ibou":7996,"ibus":7997,"ormone":7998,"Ġanise":7999,"Ġanalyst":8000,"Ġanchovy":8001,"Ġselection":8002,"Ġseaside":8003,"Ġboar":8004,"nta":8005,"ntil":8006,"nthesis":8007,"armuffs":8008,"armulke":8009,"Ġtrick":8010,"Ġtractor":8011,"Ġtruth":8012,"uster":8013,"Ġbeak":8014,"Ġbeef":8015,"Ġbeaver":8016,"Ġbelief":8017,"Ġbeyond":8018,"Ġbehest":8019,"Ġbeggar":8020,"Ġraise":8021,"Ġramen":8022,"Ġrabbi":8023,"arees":8024,"Ġdisembodiment":8025,"ideo":8026,"ally":8027,"avo":8028,"Ġacid":8029,"Ġacorn":8030,"Ġacrylic":8031,"Ġacupuncture":8032,"Ġroster":8033,"Ġrocker":8034,"Ġrooster":8035,"Ġrostrum":8036,"cyclo":8037,"tee":8038,"cover":8039,"Ġtea":8040,"Ġtendency":8041,"beans":8042,"udge":8043,"udence":8044,"Ġquality":8045,"Ġquilt":8046,"Ġquote":8047,"Ġquiche":8048,"pendic":8049,"Ġpond":8050,"Ġposter":8051,"ashore":8052,"Ġcomparison":8053,"consideration":8054,"ignance":8055,"Ġplantation":8056,"Ġprey":8057,"Ġpreserves":8058,"Ġprecipitation":8059,"Ġenforcement":8060,"Ġenzyme":8061,"Ġenjoyment":8062,"Ġenthusiasm":8063,"rowave":8064,"athologist":8065,"Ġmeantime":8066,"Ġmesenchyme":8067,"Ġyouth":8068,"Ġyarn":8069,"Ġyolk":8070,"Ġyahoo":8071,"Ġcrate":8072,"Ġcrack":8073,"Ġcrane":8074,"Ġcrusader":8075,"licopter":8076,"Ġcaramel":8077,"Ġcarnival":8078,"eegee":8079,"Ġfondue":8080,"ariach":8081,"Ġemu":8082,"Ġcontest":8083,"Ġcontrol":8084,"Ġmanacle":8085,"Ġmankind":8086,"Ġgrab":8087,"Ġgraffiti":8088,"ronics":8089,"Ġclub":8090,"Ġhyacinth":8091,"Ġhygienic":8092,"ornado":8093,"sers":8094,"Ġtoad":8095,"Ġtoaster":8096,"Ġnexus":8097,"Ġparser":8098,"Ġparcel":8099,"Ġparallelogram":8100,"Ġparadise":8101,"Ġpermit":8102,"Ġpermission":8103,"Ġdiary":8104,"Ġdiox":8105,"Ġsubscription":8106,"Ġsubstitution":8107,"Ġsubsection":8108,"Ġsubexpression":8109,"Ġsubmitter":8110,"intiff":8111,"ampire":8112,"Ġpegboard":8113,"Ġpendulum":8114,"Ġpeople":8115,"Ġcreche":8116,"Ġcreativity":8117,"Ġarcher":8118,"Ġarrogance":8119,"Ġchess":8120,"Ġgrit":8121,"Ġgrub":8122,"Ġgrasp":8123,"Ġgroup":8124,"Ġsnorer":8125,"Ġinterpretation":8126,"cretion":8127,"maiden":8128,"Ġsovereignty":8129,"renheit":8130,"away":8131,"Ġrepre":8132,"Ġreply":8133,"Ġimpression":8134,"Ġimpostor":8135,"Ġmost":8136,"Ġmovie":8137,"Ġcommotion":8138,"Ġwhale":8139,"Ġpatch":8140,"Ġbratwurst":8141,"Ġoutcome":8142,"Ġoutlook":8143,"Ġflash":8144,"Ġflute":8145,"Ġflung":8146,"Ġphase":8147,"Ġphilanthropy":8148,"nergy":8149,"Ġzinc":8150,"Ġzither":8151,"Ġtrain":8152,"Ġtrade":8153,"Ġtradition":8154,"Ġtraveler":8155,"rich":8156,"rict":8157,"ricing":8158,"Ġorchard":8159,"ushion":8160,"Ġinfarction":8161,"Ġterror":8162,"Ġskin":8163,"Ġsurgeon":8164,"efruit":8165,"Ġriot":8166,"Ġcapon":8167,"Ġshoes":8168,"Ġbarn":8169,"annier":8170,"Ġweapon":8171,"chestra":8172,"Ġstepdaughter":8173,"Ġclosing":8174,"Ġcloves":8175,"Ġmineral":8176,"Ġguilder":8177,"Ġoverload":8178,"Ġoverclocking":8179,"Ġovernighter":8180,"Ġpride":8181,"ensil":8182,"Ġamazon":8183,"Ġamazement":8184,"Ġsupplement":8185,"Ġdeposition":8186,"Ġdepression":8187,"Ġdeposit":8188,"Ġdeployment":8189,"Ġapplication":8190,"Ġappreciation":8191,"ituation":8192,"ituality":8193,"Ġcurve":8194,"Ġcurler":8195,"Ġattack":8196,"Ġattention":8197,"Ġattainment":8198,"Ġattraction":8199,"Ġattenuation":8200,"Ġattachment":8201,"Ġassignment":8202,"Ġrecord":8203,"Ġrecruit":8204,"Ġrecognition":8205,"Ġrecapitulation":8206,"Ġrecollection":8207,"afer":8208,"afood":8209,"afore":8210,"Ġexpedition":8211,"Ġcounty":8212,"clesia":8213,"irdle":8214,"afflement":8215,"Ġunderweight":8216,"venor":8217,"Ġaspar":8218,"Ġarmament":8219,"Ġknot":8220,"undred":8221,"Ġabacus":8222,"Ġmisfit":8223,"isteria":8224,"Ġglucose":8225,"Ġgladiolus":8226,"Ġcharity":8227,"ondola":8228,"Ġhandover":8229,"Ġhandball":8230,"Ġhandsaw":8231,"Ġoption":8232,"Ġfreighter":8233,"Ġfrequency":8234,"Ġepoxy":8235,"Ġsunglasses":8236,"Ġdecimal":8237,"Ġgrandma":8238,"Ġmetro":8239,"Ġmetabolite":8240,"minder":8241,"Ġvessel":8242,"Ġvehicle":8243,"Ġconsumption":8244,"Ġpantry":8245,"exp":8246,"Ġbrood":8247,"Ġbroiler":8248,"Ġbrochure":8249,"ernatural":8250,"Ġpension":8251,"Ġpenalty":8252,"Ġpenguin":8253,"Ġgeneral":8254,"Ġtrigger":8255,"Ġtemple":8256,"Ġsmog":8257,"Ġsmoking":8258,"Ġdozen":8259,"Ġdoorknob":8260,"Ġconfiguration":8261,"Ġcygnet":8262,"issors":8263,"carnation":8264,"Ġfootrest":8265,"Ġfootprint":8266,"Ġelephant":8267,"Ġsnowsuit":8268,"Ġsignup":8269,"Ġsignature":8270,"Ġretreat":8271,"Ġretailer":8272,"Ġsalary":8273,"Ġsaloon":8274,"Ġpasta":8275,"Ġpaste":8276,"Ġwarlord":8277,"aikon":8278,"mblance":8279,"Ġtransmission":8280,"Ġellipse":8281,"Ġwaterbed":8282,"Ġwatermelon":8283,"centive":8284,"Ġstanding":8285,"Ġverve":8286,"Ġverification":8287,"spective":8288,"Ġimitation":8289,"Ġimagination":8290,"Ġdetention":8291,"Ġinvite":8292,"Ġinvention":8293,"illiteracy":8294,"amburger":8295,"Ġjealousy":8296,"meric":8297,"Ġnightclub":8298,"Ġbalcony":8299,"Ġafoul":8300,"Ġheadline":8301,"Ġformation":8302,"Ġformula":8303,"Ġcancer":8304,"reeze":8305,"Ġparticular":8306,"Ġbribery":8307,"Ġhardware":8308,"Ġresistance":8309,"Ġsyrup":8310,"Ġsyndrome":8311,"Ġevil":8312,"Ġevidence":8313,"Ġequinox":8314,"Ġincense":8315,"Ġinside":8316,"Ġtwitter":8317,"Ġintent":8318,"Ġlyre":8319,"Ġlychee":8320,"Ġpropaganda":8321,"curity":8322,"Ġpoppy":8323,"Ġpopularity":8324,"Ġpopulist":8325,"Ġgeography":8326,"Ġcope":8327,"angaroo":8328,"angutan":8329,"Ġbias":8330,"Ġbiopsy":8331,"Ġblackbird":8332,"Ġtenor":8333,"Ġtimber":8334,"Ġtimeline":8335,"Ġbanker":8336,"Ġdiscipline":8337,"Ġatrium":8338,"Ġkennel":8339,"Ġpurr":8340,"Ġpurse":8341,"Ġpressurization":8342,"ahrenheit":8343,"Ġsaviour":8344,"Ġforum":8345,"Ġbloomer":8346,"elfare":8347,"umbler":8348,"Ġlocust":8349,"Ġlocality":8350,"ylus":8351,"Ġsquare":8352,"Ġpanic":8353,"Ġplaintiff":8354,"Ġrevolution":8355,"Ġvolleyball":8356,"Ġphoto":8357,"Ġphotographer":8358,"disp":8359,"Ġtrellis":8360,"Ġbagel":8361,"Ġhorizon":8362,"Ġclaim":8363,"Ġcollege":8364,"Ġmidden":8365,"Ġrunway":8366,"Ġsecretion":8367,"Ġsecrecy":8368,"hibit":8369,"Ġoctet":8370,"Ġoctave":8371,"Ġcleaner":8372,"Ġprinting":8373,"Ġporch":8374,"Ġpottery":8375,"Ġsoftball":8376,"Ġpillow":8377,"Ġwindow":8378,"Ġauthority":8379,"Ġfortune":8380,"Ġpainter":8381,"Ġwebinar":8382,"Ġtexture":8383,"oey":8384,"viewer":8385,"Ġecology":8386,"Ġeclipse":8387,"Ġmortgage":8388,"Ġmedia":8389,"Ġkitten":8390,"Ġkitsch":8391,"Ġfishmonger":8392,"Ġcabbage":8393,"Ġpetitioner":8394,"ithm":8395,"Ġgoal":8396,"Ġgoose":8397,"Ġgossip":8398,"Ġdevil":8399,"Ġlandmine":8400,"Ġcheckbook":8401,"mosphere":8402,"repancy":8403,"identiality":8404,"Ġteletype":8405,"Ġsociology":8406,"Ġcereal":8407,"Ġpupa":8408,"Ġmagnet":8409,"Ġtestimony":8410,"Ġsandal":8411,"Ġsandwich":8412,"Ġestablishment":8413,"Ġpinworm":8414,"Ġhatred":8415,"Ġvenison":8416,"Ġangiosperm":8417,"Ġmessage":8418,"Ġnetball":8419,"Ġfrog":8420,"Ġplayer":8421,"Ġbugle":8422,"Ġhamster":8423,"iffonier":8424,"Ġsideburns":8425,"Ġoptimal":8426,"Ġentry":8427,"Ġhurry":8428,"Ġhurdler":8429,"Ġvanilla":8430,"Ġracer":8431,"Ġcodling":8432,"Ġbandanna":8433,"Ġmilestone":8434,"alentine":8435,"Ġantechamber":8436,"Ġcalcification":8437,"Ġiris":8438,"Ġtortilla":8439,"Ġsymbol":8440,"Ġsymptom":8441,"Ġonion":8442,"Ġoncology":8443,"Ġcourse":8444,"Ġviability":8445,"Ġthrush":8446,"Ġhypothesis":8447,"Ġicing":8448,"Ġdamage":8449,"standing":8450,"Ġmainland":8451,"Ġwalnut":8452,"Ġwallaby":8453,"clamen":8454,"Ġbreakthrough":8455,"Ġprogramme":8456,"breviation":8457,"Ġuser":8458,"Ġsailor":8459,"Ġfinisher":8460,"Ġelite":8461,"Ġelimination":8462,"Ġpiglet":8463,"Ġshipyard":8464,"Ġjewellery":8465,"Ġsuccess":8466,"Ġsensor":8467,"Ġsensibility":8468,"Ġcliff":8469,"Ġbankbook":8470,"Ġdefendant":8471,"esterday":8472,"Ġbehalf":8473,"Ġpremise":8474,"Ġpremeditation":8475,"Ġtarragon":8476,"Ġtaxicab":8477,"Ġlighting":8478,"Ġlightning":8479,"Ġpaddock":8480,"ungalow":8481,"ungarees":8482,"Ġenclave":8483,"Ġencirclement":8484,"Ġstandardization":8485,"Ġstandardisation":8486,"Ġderby":8487,"Ġlicense":8488,"Ġlicorice":8489,"Ġbowler":8490,"Ġwheat":8491,"Ġwingman":8492,"Ġstrife":8493,"Ġvalley":8494,"Ġvaluable":8495,"Ġrubbish":8496,"Ġlaparoscope":8497,"ificer":8498,"Ġboyhood":8499,"Ġboyfriend":8500,"Ġboycott":8501,"Ġbeanstalk":8502,"Ġimmortal":8503,"shed":8504,"Ġnutmeg":8505,"Ġnormalisation":8506,"Ġclerk":8507,"Ġmoustache":8508,"Ġgarage":8509,"Ġgarlic":8510,"Ġwidget":8511,"Ġstyling":8512,"Ġswordfish":8513,"Ġdonor":8514,"Ġpayoff":8515,"Ġalias":8516,"Ġalibi":8517,"Ġgrasshopper":8518,"Ġrecipe":8519,"Ġtenth":8520,"Ġdrunk":8521,"Ġfigure":8522,"Ġbronchitis":8523,"Ġmaple":8524,"Ġmelatonin":8525,"romone":8526,"Ġgliding":8527,"urgency":8528,"Ġvitro":8529,"Ġexamination":8530,"Ġscallion":8531,"Ġyew":8532,"Ġthermometer":8533,"Ġthermostat":8534,"Ġgelatin":8535,"Ġdebate":8536,"Ġrowing":8537,"Ġrowboat":8538,"Ġquartet":8539,"Ġengineering":8540,"Ġprivacy":8541,"Ġprivilege":8542,"Ġsupervisor":8543,"Ġdynamics":8544,"Ġillusion":8545,"Ġoperation":8546,"litaire":8547,"Ġfedora":8548,"Ġmutt":8549,"Ġdeduction":8550,"Ġscene":8551,"Ġmobster":8552,"Ġcria":8553,"Ġcriminal":8554,"Ġcottage":8555,"Ġpaperwork":8556,"Ġpaperback":8557,"Ġhippopotamus":8558,"Ġhoneybee":8559,"Ġwrench":8560,"Ġreinscription":8561,"Ġrhetoric":8562,"Ġdeclaration":8563,"Ġjackal":8564,"Ġjackfruit":8565,"Ġeyebrows":8566,"ariness":8567,"snip":8568,"ouching":8569,"Ġtailspin":8570,"Ġsuite":8571,"Ġdictator":8572,"Ġferry":8573,"Ġferret":8574,"Ġfacet":8575,"Ġpillbox":8576,"Ġmatrix":8577,"Ġjumpsuit":8578,"Ġalcohol":8579,"Ġalpenglow":8580,"Ġnecklace":8581,"Ġattendant":8582,"Ġdocumentation":8583,"Ġsuede":8584,"Ġsuspect":8585,"Ġsimplicity":8586,"Ġsunday":8587,"Ġfurry":8588,"Ġeggplant":8589,"Ġcardigan":8590,"Ġcauseway":8591,"reshold":8592,"Ġpomegranate":8593,"Ġboudoir":8594,"Ġstrawberry":8595,"Ġaltar":8596,"Ġaluminum":8597,"Ġappeal":8598,"Ġsubconscious":8599,"Ġtermite":8600,"Ġguidance":8601,"Ġfactory":8602,"Ġfixture":8603,"Ġeveryone":8604,"Ġblowgun":8605,"Ġbeneficiary":8606,"Ġmask":8607,"itoring":8608,"Ġwoolens":8609,"Ġrevenge":8610,"Ġstaircase":8611,"Ġagenda":8612,"Ġdeadline":8613,"Ġluncheonette":8614,"Ġjustice":8615,"Ġhearsay":8616,"Ġadvertisement":8617,"Ġcreationist":8618,"Ġpriesthood":8619,"Ġreceptor":8620,"Ġhydrogen":8621,"Ġshelf":8622,"Ġballoonist":8623,"Ġmacaroni":8624,"Ġdirective":8625,"Ġdiplomacy":8626,"gotiation":8627,"Ġideal":8628,"Ġashram":8629,"hedral":8630,"Ġsynonym":8631,"Ġliquor":8632,"Ġgamebird":8633,"olliwog":8634,"Ġchinchilla":8635,"Ġcriterion":8636,"Ġblueberry":8637,"Ġpaintwork":8638,"Ġcourtroom":8639,"Ġtoothpaste":8640,"Ġfavorite":8641,"urai":8642,"Ġdancer":8643,"Ġfingerling":8644,"Ġpolarization":8645,"Ġmirror":8646,"Ġmilkshake":8647,"Ġhotel":8648,"Ġlantern":8649,"Ġproximity":8650,"Ġkidney":8651,"oscience":8652,"Ġlaugh":8653,"ropriation":8654,"ropriety":8655,"Ġshootdown":8656,"Ġpickaxe":8657,"Ġtintype":8658,"Ġtuna":8659,"Ġtablecloth":8660,"Ġethnicity":8661,"Ġpinto":8662,"Ġpitching":8663,"Ġhornet":8664,"Ġharbor":8665,"Ġharbour":8666,"Ġvictim":8667,"Ġvictory":8668,"Ġjuggernaut":8669,"Ġlemonade":8670,"Ġpatentee":8671,"Ġzebrafish":8672,"Ġmonastery":8673,"Ġmonasticism":8674,"Ġautomation":8675,"Ġautomaton":8676,"Ġexpectation":8677,"Ġexpectancy":8678,"Ġfloodplain":8679,"evolution":8680,"Ġsingular":8681,"Ġsimilarity":8682,"Ġsample":8683,"Ġsauerkraut":8684,"Ġsomewhere":8685,"Ġdatabase":8686,"Ġfuture":8687,"Ġphenomenon":8688,"Ġhoward":8689,"Ġwildlife":8690,"Ġreasoning":8691,"Ġinjury":8692,"Ġpromise":8693,"Ġadrenaline":8694,"Ġcruise":8695,"Ġfoxglove":8696,"Ġcommitment":8697,"Ġwhirlwind":8698,"Ġeyeliner":8699,"Ġmorbidity":8700,"Ġfiberglass":8701,"Ġmerchant":8702,"Ġneuropsychiatry":8703,"Ġnonbeliever":8704,"Ġsepticaemia":8705,"Ġsoundness":8706,"Ġcorduroy":8707,"Ġpianist":8708,"Ġblister":8709,"Ġbirthday":8710,"Ġmoody":8711,"Ġgingerbread":8712,"Ġrehospitalisation":8713,"Ġaquifer":8714,"Ġexecutor":8715,"Ġkoala":8716,"Ġscripture":8717,"Ġdishwasher":8718,"Ġadapter":8719,"Ġplacebo":8720,"Ġgrammar":8721,"Ġadvancement":8722,"Ġmuscatel":8723,"Ġinventory":8724,"Ġworshiper":8725,"Ġectodermal":8726,"pathy":8727,"Ġwatchmaker":8728,"Ġstimulation":8729,"Ġacquaintance":8730,"Ġcrisp":8731,"Ġflintlock":8732,"Ġtrapezoid":8733,"nitzel":8734,"Ġsnakebite":8735,"Ġcappuccino":8736,"Ġschoolhouse":8737,"Ġintentionality":8738,"Ġcertificate":8739,"Ġsafeguard":8740,"Ġnewsprint":8741,"Ġchopsticks":8742,"Ġsanctuary":8743,"Ġwholesaler":8744,"culature":8745,"oxygenase":8746,"oustics":8747,"Ġramie":8748,"ownership":8749,"Ġnotebook":8750,"currence":8751,"aurant":8752,"duggery":8753,"erinarian":8754,"gorithm":8755,"llipop":8756,"sbok":8757,"vastatin":8758,"Ġnobody":8759,"Ġsardine":8760,"Ġosmosis":8761,"Ġomega":8762,"kenspiel":8763,"Ġcymbal":8764,"Ġcilantro":8765,"arantee":8766,"Ġblessing":8767,"Ġmurder":8768,"iccups":8769,"asabi":8770,"radeship":8771,"adrille":8772,"Ġrenaissance":8773,"Ġstrategy":8774,"thalmologist":8775,"Ġlettuce":8776,"oggles":8777,"pendicular":8778,"ariachi":8779,"Ġdioxide":8780,"Ġasparagus":8781,"bur":8782,"bration":8783,"bacco":8784,"cure":8785,"cart":8786,"cress":8787,"cium":8788,"ckenspiel":8789,"eff":8790,"eway":8791,"fro":8792,"fry":8793,"fast":8794,"flow":8795,"fboard":8796,"front":8797,"flops":8798,"gion":8799,"gur":8800,"gust":8801,"hl":8802,"har":8803,"hum":8804,"ige":8805,"iqu":8806,"irie":8807,"iride":8808,"kn":8809,"krat":8810,"lasm":8811,"lama":8812,"nx":8813,"nosis":8814,"nickel":8815,"ov":8816,"oire":8817,"pac":8818,"pic":8819,"past":8820,"ption":8821,"pick":8822,"phere":8823,"riss":8824,"sle":8825,"sav":8826,"sume":8827,"tur":8828,"test":8829,"tem":8830,"tili":8831,"tok":8832,"tary":8833,"tcy":8834,"taker":8835,"ude":8836,"uator":8837,"uroc":8838,"vat":8839,"wall":8840,"waiter":8841,"warf":8842,"xation":8843,"xir":8844,"xyl":8845,"Ġaction":8846,"Ġillegal":8847,"Ġilliteracy":8848,"Ġurgency":8849,"Ġtire":8850,"Ġtale":8851,"Ġtell":8852,"Ġticket":8853,"Ġtitle":8854,"Ġtweet":8855,"Ġtectonics":8856,"Ġtornado":8857,"Ġtumbler":8858,"hett":8859,"hemat":8860,"Ġtheme":8861,"Ġthesis":8862,"Ġname":8863,"Ġnative":8864,"Ġniece":8865,"Ġnonsense":8866,"Ġnudge":8867,"Ġsort":8868,"Ġsite":8869,"Ġsinger":8870,"Ġselling":8871,"Ġseller":8872,"Ġsolvency":8873,"Ġsabre":8874,"Ġsituation":8875,"lease":8876,"inv":8877,"appen":8878,"Ġost":8879,"Ġoil":8880,"Ġoph":8881,"Ġott":8882,"eple":8883,"Ġsled":8884,"Ġoffer":8885,"Ġoffence":8886,"Ġdill":8887,"Ġdory":8888,"Ġdome":8889,"Ġdanger":8890,"Ġdaughter":8891,"Ġdusk":8892,"Ġdagger":8893,"Ġdaikon":8894,"Ġdungarees":8895,"lia":8896,"live":8897,"lision":8898,"liament":8899,"Ġfine":8900,"Ġfame":8901,"Ġfridge":8902,"Ġfriction":8903,"Ġfowl":8904,"Ġfringe":8905,"Ġfisting":8906,"Ġfahrenheit":8907,"ndation":8908,"Ġeast":8909,"Ġedge":8910,"Ġeasel":8911,"Ġearmuffs":8912,"Ġliver":8913,"Ġlime":8914,"Ġfoundation":8915,"oner":8916,"onge":8917,"onse":8918,"eritif":8919,"Ġcrap":8920,"Ġcatch":8921,"Ġcode":8922,"Ġcinder":8923,"Ġcushion":8924,"rec":8925,"rent":8926,"recker":8927,"Ġpion":8928,"Ġpom":8929,"Ġpie":8930,"Ġpile":8931,"Ġpier":8932,"Ġpony":8933,"Ġpicket":8934,"Ġpipe":8935,"Ġpricing":8936,"Ġpannier":8937,"Ġpolliwog":8938,"around":8939,"arong":8940,"anation":8941,"anine":8942,"orl":8943,"orance":8944,"orage":8945,"orial":8946,"orah":8947,"stic":8948,"stile":8949,"Ġbos":8950,"Ġbite":8951,"Ġbody":8952,"Ġblast":8953,"Ġbuckle":8954,"Ġbifocals":8955,"Ġbafflement":8956,"Ġbreeze":8957,"Ġbungalow":8958,"Ġmop":8959,"Ġmight":8960,"Ġmolar":8961,"Ġmuffin":8962,"Ġmolasses":8963,"Ġmariachi":8964,"allion":8965,"ingale":8966,"ingness":8967,"ingency":8968,"acam":8969,"acie":8970,"acomb":8971,"aclava":8972,"roid":8973,"icap":8974,"icure":8975,"isure":8976,"isket":8977,"entor":8978,"Ġgap":8979,"Ġgator":8980,"Ġgown":8981,"Ġgang":8982,"Ġgrid":8983,"Ġgirdle":8984,"Ġgondola":8985,"Ġgoggles":8986,"asy":8987,"Ġhail":8988,"Ġhole":8989,"Ġhunt":8990,"Ġhike":8991,"Ġhanger":8992,"Ġhaunt":8993,"Ġhalibut":8994,"Ġhormone":8995,"Ġhundred":8996,"Ġhamburger":8997,"Ġhiccups":8998,"rabi":8999,"omics":9000,"Ġway":9001,"Ġwall":9002,"Ġwording":9003,"Ġwont":9004,"Ġwafer":9005,"Ġwisteria":9006,"Ġwelfare":9007,"Ġwasabi":9008,"ilty":9009,"ilage":9010,"ellect":9011,"amide":9012,"ammation":9013,"adyl":9014,"Ġreach":9015,"Ġreaction":9016,"Ġrealm":9017,"Ġreminder":9018,"otheism":9019,"umph":9020,"ummer":9021,"chi":9022,"chat":9023,"chment":9024,"chini":9025,"gedy":9026,"Ġinch":9027,"Ġinversion":9028,"Ġincentive":9029,"ssor":9030,"urer":9031,"Ġstag":9032,"Ġstole":9033,"Ġstool":9034,"Ġstupidity":9035,"Ġstylus":9036,"ctare":9037,"seum":9038,"idav":9039,"labe":9040,"lavery":9041,"lazer":9042,"laxation":9043,"irst":9044,"irch":9045,"irrel":9046,"Ġvio":9047,"Ġvogue":9048,"Ġvideo":9049,"Ġvampire":9050,"Ġvalentine":9051,"iguity":9052,"iggur":9053,"antism":9054,"antasy":9055,"immun":9056,"imitar":9057,"usation":9058,"Ġavenue":9059,"Ġaardvark":9060,"verty":9061,"Ġchub":9062,"Ġchatter":9063,"Ġchrome":9064,"Ġchoir":9065,"Ġchurch":9066,"Ġchiffonier":9067,"ulth":9068,"Ġrack":9069,"Ġrise":9070,"Ġrush":9071,"Ġritual":9072,"Ġrally":9073,"Ġcontext":9074,"Ġconcert":9075,"Ġconcern":9076,"Ġconversation":9077,"Ġspace":9078,"Ġspring":9079,"Ġspool":9080,"Ġsparrow":9081,"Ġspacing":9082,"Ġspleen":9083,"Ġsparerib":9084,"Ġdegradation":9085,"ocle":9086,"Ġlouse":9087,"Ġluck":9088,"Ġlane":9089,"Ġlute":9090,"Ġlux":9091,"Ġlatex":9092,"Ġllama":9093,"bohyd":9094,"herbet":9095,"Ġjaw":9096,"Ġjockey":9097,"Ġjoey":9098,"ipt":9099,"ipeline":9100,"Ġshock":9101,"Ġshaw":9102,"Ġshape":9103,"ryption":9104,"spout":9105,"Ġprofit":9106,"Ġcomma":9107,"Ġcomradeship":9108,"agne":9109,"agreement":9110,"agnosis":9111,"aghett":9112,"emy":9113,"uplex":9114,"Ġexile":9115,"Ġexchange":9116,"Ġexterior":9117,"Ġexhibit":9118,"Ġheight":9119,"Ġhearing":9120,"Ġhelicopter":9121,"Ġleft":9122,"Ġlentil":9123,"Ġleeway":9124,"ayenne":9125,"Ġkite":9126,"Ġkangaroo":9127,"Ġscent":9128,"Ġscam":9129,"Ġscience":9130,"Ġscissors":9131,"ivor":9132,"ivalent":9133,"osure":9134,"Ġcoast":9135,"ourself":9136,"ibling":9137,"Ġangle":9138,"Ġanime":9139,"Ġanatomy":9140,"Ġseaplane":9141,"Ġseverity":9142,"Ġseashore":9143,"Ġseafood":9144,"Ġsecurity":9145,"Ġbore":9146,"Ġalley":9147,"Ġalgorithm":9148,"Ġtract":9149,"Ġtrace":9150,"Ġtritone":9151,"Ġbeating":9152,"illment":9153,"ainer":9154,"Ġramb":9155,"derness":9156,"Ġdisability":9157,"Ġdiscovery":9158,"Ġdisplacement":9159,"Ġdisappointment":9160,"Ġdisregard":9161,"gerency":9162,"letter":9163,"ologism":9164,"mendation":9165,"avigation":9166,"aviar":9167,"nders":9168,"Ġacoustics":9169,"Ġloft":9170,"Ġlollipop":9171,"Ġthistle":9172,"Ġthreshold":9173,"Ġroot":9174,"Ġroast":9175,"Ġadmission":9176,"Ġaddress":9177,"Ġadjective":9178,"Ġaddiction":9179,"Ġtear":9180,"beat":9181,"besity":9182,"Ġlayer":9183,"Ġlava":9184,"udgery":9185,"Ġquill":9186,"Ġquiver":9187,"Ġquince":9188,"penders":9189,"Ġpolo":9190,"Ġpoint":9191,"Ġpoignance":9192,"Ġcomplement":9193,"Ġcompliance":9194,"Ġcompliment":9195,"conform":9196,"Ġplacode":9197,"Ġprevention":9198,"Ġpreference":9199,"Ġpresentation":9200,"Ġpresence":9201,"Ġprecision":9202,"Ġpredecessor":9203,"Ġencyclo":9204,"Ġmeans":9205,"phot":9206,"Ġyog":9207,"Ġyarmulke":9208,"Ġyesterday":9209,"Ġcrunch":9210,"Ġcricke":9211,"Ġcranberry":9212,"Ġcouple":9213,"Ġcousin":9214,"Ġcaribou":9215,"akeup":9216,"eezer":9217,"Ġfool":9218,"ario":9219,"Ġemail":9220,"Ġemery":9221,"Ġemotion":9222,"airness":9223,"Ġcontagion":9224,"Ġcontingency":9225,"Ġcontainer":9226,"Ġmanor":9227,"Ġmanager":9228,"Ġmanipulation":9229,"Ġgray":9230,"Ġgravy":9231,"Ġgradient":9232,"Ġgravity":9233,"poss":9234,"poise":9235,"pooner":9236,"Ġappointment":9237,"Ġaperitif":9238,"Ġswell":9239,"Ġswallow":9240,"Ġtoe":9241,"Ġtosser":9242,"Ġtoffee":9243,"Ġtobacco":9244,"Ġnegotiation":9245,"Ġpark":9246,"Ġparty":9247,"Ġparka":9248,"Ġparsnip":9249,"Ġparchment":9250,"hynx":9251,"Ġperspective":9252,"Ġperpendicular":9253,"Ġdialogue":9254,"Ġsubset":9255,"Ġsubroutine":9256,"commendation":9257,"Ġpear":9258,"Ġpecan":9259,"Ġcreek":9260,"ramid":9261,"Ġarrange":9262,"Ġcheddar":9263,"Ġgrill":9264,"Ġmarketer":9265,"Ġmarxism":9266,"Ġmarionberry":9267,"Ġmarimba":9268,"Ġsnap":9269,"Ġblouse":9270,"Ġinterior":9271,"Ġintervenor":9272,"ucchini":9273,"clad":9274,"Ġsoot":9275,"Ġsolitaire":9276,"Ġhoe":9277,"awk":9278,"Ġrepeat":9279,"Ġimpress":9280,"Ġimpediment":9281,"Ġimpulse":9282,"Ġimpudence":9283,"Ġimpropriety":9284,"Ġmover":9285,"Ġmovement":9286,"Ġmocha":9287,"Ġcommon":9288,"Ġcommonsense":9289,"Ġwhorl":9290,"Ġoutlet":9291,"Ġflanker":9292,"Ġflugelhorn":9293,"amecium":9294,"auce":9295,"auge":9296,"Ġzipper":9297,"Ġtrading":9298,"Ġtravel":9299,"Ġtraining":9300,"Ġtragedy":9301,"plate":9302,"ricane":9303,"Ġorange":9304,"Ġorchestra":9305,"Ġorangutan":9306,"Ġmaid":9307,"Ġmailer":9308,"Ġinfusion":9309,"Ġski":9310,"Ġskirt":9311,"Ġskating":9312,"Ġridge":9313,"Ġriding":9314,"Ġcapacity":9315,"Ġshoestring":9316,"Ġairbag":9317,"Ġairbus":9318,"Ġairplane":9319,"clooxygenase":9320,"Ġmonitoring":9321,"Ġstepmother":9322,"Ġclove":9323,"Ġminnow":9324,"Ġminibus":9325,"Ġguarantee":9326,"Ġoverhead":9327,"cessing":9328,"Ġsupernatural":9329,"Ġdeparture":9330,"Ġappropriation":9331,"ongue":9332,"Ġcurd":9333,"Ġcurrant":9334,"Ġattempt":9335,"Ġassault":9336,"Ġrecorder":9337,"Ġrecording":9338,"Ġuncle":9339,"Ġuncertainty":9340,"Ġunemployment":9341,"Ġexposition":9342,"reading":9343,"affe":9344,"Ġunderground":9345,"Ġunderwear":9346,"Ġunderpass":9347,"Ġunderestimate":9348,"Ġunderstanding":9349,"Ġaccident":9350,"sonant":9351,"Ġarmpit":9352,"Ġarmadillo":9353,"Ġdiving":9354,"Ġreference":9355,"Ġreflection":9356,"Ġrefectory":9357,"Ġspeaking":9358,"Ġknight":9359,"Ġabsence":9360,"Ġabbreviation":9361,"Ġmisplacement":9362,"Ġfeel":9363,"Ġglacier":9364,"Ġobject":9365,"Ġcathedral":9366,"onductor":9367,"Ġopening":9368,"Ġfreckle":9369,"Ġepisode":9370,"Ġsunshine":9371,"inerary":9372,"Ġeyrie":9373,"Ġgrandmother":9374,"Ġmetal":9375,"ritory":9376,"Ġveal":9377,"Ġconsumer":9378,"uctance":9379,"exertion":9380,"Ġbrook":9381,"Ġpenny":9382,"Ġgenre":9383,"Ġgenocide":9384,"Ġtriangle":9385,"Ġtriumph":9386,"Ġbackyard":9387,"servoir":9388,"servatory":9389,"Ġdoing":9390,"Ġdoctrine":9391,"Ġconflict":9392,"Ġconfidentiality":9393,"Ġcyclamen":9394,"Ġcyclooxygenase":9395,"Ġworking":9396,"Ġworkbench":9397,"brero":9398,"Ġsignal":9399,"Ġretention":9400,"Ġretina":9401,"Ġretouching":9402,"Ġsalad":9403,"Ġsalami":9404,"Ġwarlock":9405,"aiver":9406,"Ġmuscle":9407,"Ġmusculature":9408,"Ġmuskrat":9409,"Ġtransfer":9410,"Ġelver":9411,"Ġelbow":9412,"Ġbuzz":9413,"Ġbuilder":9414,"Ġbuzzard":9415,"Ġinvader":9416,"Ġjeep":9417,"Ġsheep":9418,"Ġeditor":9419,"Ġedible":9420,"Ġcalm":9421,"Ġlegal":9422,"Ġlegacy":9423,"gonometry":9424,"gano":9425,"Ġformat":9426,"Ġeffort":9427,"Ġpartridge":9428,"Ġgoodness":9429,"Ġgoodbye":9430,"Ġresort":9431,"Ġloggia":9432,"Ġsynthesis":9433,"Ġsynergy":9434,"Ġequal":9435,"Ġequation":9436,"Ġinsight":9437,"Ġinsomnia":9438,"ternal":9439,"Ġtwins":9440,"Ġnotation":9441,"Ġnotoriety":9442,"Ġschnitzel":9443,"Ġlycra":9444,"Ġlysine":9445,"Ġpropane":9446,"Ġproponent":9447,"cury":9448,"Ġpopsicle":9449,"Ġgender":9450,"Ġturmeric":9451,"Ġendothelium":9452,"Ġcartload":9453,"misphere":9454,"zzanine":9455,"Ġserval":9456,"Ġbanner":9457,"Ġbanquette":9458,"unkhouse":9459,"Ġdisclaimer":9460,"Ġdiscrepancy":9461,"Ġforever":9462,"Ġatom":9463,"Ġatmosphere":9464,"Ġtomb":9465,"Ġtomatillo":9466,"Ġcentre":9467,"Ġcentury":9468,"Ġcentimeter":9469,"Ġpurity":9470,"Ġpuritan":9471,"ahlia":9472,"lude":9473,"Ġblock":9474,"umbrel":9475,"Ġupdate":9476,"Ġsquatter":9477,"Ġsqueegee":9478,"Ġsquirrel":9479,"Ġcaution":9480,"Ġpancake":9481,"Ġplastic":9482,"Ġtremor":9483,"Ġhorde":9484,"Ġstew":9485,"Ġstealth":9486,"Ġsteward":9487,"nutrition":9488,"Ġclause":9489,"Ġclarinet":9490,"Ġharp":9491,"Ġharvest":9492,"Ġharald":9493,"Ġcongo":9494,"Ġcollector":9495,"tenance":9496,"Ġartist":9497,"Ġartificer":9498,"Ġsemantics":9499,"Ġrunaway":9500,"Ġcommunion":9501,"Ġspecification":9502,"Ġspeculation":9503,"tlement":9504,"Ġoctavo":9505,"Ġdistrict":9506,"Ġprint":9507,"Ġprincess":9508,"alfa":9509,"acterium":9510,"Ġdispatch":9511,"Ġslump":9512,"Ġslang":9513,"Ġflax":9514,"Ġworth":9515,"Ġworry":9516,"ophole":9517,"Ġafterthought":9518,"Ġbrake":9519,"Ġinstinct":9520,"cutive":9521,"Ġecclesia":9522,"Ġceiling":9523,"asmine":9524,"elligerency":9525,"ridor":9526,"Ġstatistic":9527,"Ġcrewmember":9528,"oyage":9529,"Ġfishbone":9530,"Ġcabin":9531,"Ġheartwood":9532,"Ġlanding":9533,"Ġvibe":9534,"Ġconduct":9535,"Ġlawsuit":9536,"Ġwhiskey":9537,"Ġdolman":9538,"Ġfilm":9539,"Ġfiling":9540,"Ġvisual":9541,"Ġviscose":9542,"Ġcollapse":9543,"Ġestuary":9544,"Ġpinafore":9545,"Ġvenom":9546,"Ġvenue":9547,"Ġvengeance":9548,"Ġangel":9549,"Ġcolonial":9550,"Ġclassic":9551,"Ġclassroom":9552,"Ġclassmate":9553,"black":9554,"Ġnetbook":9555,"Ġsetback":9556,"Ġcrab":9557,"Ġcradle":9558,"Ġpickle":9559,"Ġpickup":9560,"Ġbutane":9561,"Ġbutton":9562,"iffle":9563,"ruptcy":9564,"Ġbottle":9565,"Ġracing":9566,"Ġdefense":9567,"Ġcredential":9568,"Ġskywalk":9569,"Ġskyscraper":9570,"Ġflock":9571,"Ġcodepage":9572,"Ġcustard":9573,"Ġcustomer":9574,"Ġcocktail":9575,"Ġcockroach":9576,"Ġbandolier":9577,"Ġmicrowave":9578,"Ġglobe":9579,"Ġglockenspiel":9580,"Ġrestriction":9581,"Ġrestaurant":9582,"Ġanteater":9583,"Ġcalculator":9584,"Ġirony":9585,"Ġirrigation":9586,"Ġtortoise":9587,"Ġsympathy":9588,"Ġpsychology":9589,"Ġpsychologist":9590,"Ġbattalion":9591,"Ġviola":9592,"Ġjunker":9593,"Ġjudgment":9594,"Ġmenu":9595,"Ġmaintainer":9596,"Ġgodfather":9597,"Ġshorts":9598,"Ġambience":9599,"Ġambulance":9600,"Ġbreakdown":9601,"breaker":9602,"Ġwoodwind":9603,"Ġresemblance":9604,"Ġcontractor":9605,"munition":9606,"patrol":9607,"Ġtuba":9608,"Ġtuber":9609,"Ġclient":9610,"Ġbidder":9611,"Ġhonesty":9612,"Ġextreme":9613,"Ġbehold":9614,"Ġswimming":9615,"menade":9616,"Ġtopsail":9617,"Ġbakery":9618,"Ġgreatness":9619,"Ġharmonica":9620,"fficulty":9621,"Ġderivative":9622,"Ġbowling":9623,"Ġwheel":9624,"Ġchapel":9625,"Ġrubric":9626,"Ġdeveloper":9627,"Ġdeveloping":9628,"Ġboxspring":9629,"Ġbeancurd":9630,"Ġnormal":9631,"Ġcleric":9632,"Ġwilderness":9633,"Ġchairman":9634,"Ġchairlift":9635,"Ġskullcap":9636,"Ġskullduggery":9637,"foil":9638,"toplasm":9639,"Ġdonut":9640,"Ġcassock":9641,"Ġcasserole":9642,"Ġplea":9643,"Ġpayment":9644,"Ġpayee":9645,"Ġbedroom":9646,"Ġbedrock":9647,"Ġmantle":9648,"Ġgovernance":9649,"Ġratio":9650,"Ġconstitution":9651,"Ġpossibility":9652,"Ġcapitulation":9653,"Ġassistant":9654,"Ġrecipient":9655,"Ġcouncilperson":9656,"Ġdoorpost":9657,"Ġelectronics":9658,"Ġcopying":9659,"Ġcopyright":9660,"Ġtypewriter":9661,"Ġdrill":9662,"Ġcaliber":9663,"Ġcalibre":9664,"Ġcupcake":9665,"Ġpackaging":9666,"Ġremnant":9667,"Ġstopsign":9668,"Ġspirituality":9669,"Ġhelmet":9670,"Ġscalp":9671,"Ġyear":9672,"Ġmarketplace":9673,"Ġearthworm":9674,"Ġutensil":9675,"Ġnurse":9676,"Ġnurture":9677,"Ġnursing":9678,"Ġfirm":9679,"Ġfarmer":9680,"Ġespadrille":9681,"Ġbassinet":9682,"Ġreligion":9683,"Ġspectrum":9684,"Ġdynamo":9685,"wheat":9686,"Ġopera":9687,"Ġoperating":9688,"Ġduster":9689,"Ġpunctuation":9690,"Ġmutation":9691,"locity":9692,"Ġresidence":9693,"Ġjellybeans":9694,"Ġmobility":9695,"Ġtemporariness":9696,"Ġsweatshop":9697,"Ġoccurrence":9698,"Ġcrime":9699,"Ġbrushfire":9700,"Ġjournal":9701,"Ġjournalism":9702,"Ġsatisfaction":9703,"Ġsuitcase":9704,"Ġfacility":9705,"Ġpillar":9706,"Ġinitiative":9707,"Ġprotection":9708,"Ġcompetition":9709,"Ġnecktie":9710,"Ġauthentication":9711,"Ġsuet":9712,"Ġsuspension":9713,"Ġsundial":9714,"Ġbouquet":9715,"Ġstrawman":9716,"Ġconspirator":9717,"Ġlunchroom":9718,"Ġmarshland":9719,"Ġgymnastics":9720,"Ġtownship":9721,"Ġeverything":9722,"Ġparenting":9723,"Ġbonus":9724,"Ġbonnet":9725,"Ġbrowsing":9726,"Ġhallway":9727,"Ġrevenant":9728,"Ġstreetcar":9729,"Ġrhythm":9730,"Ġspyglass":9731,"Ġhedgehog":9732,"Ġbondsman":9733,"Ġcreationism":9734,"Ġsoybean":9735,"Ġpattypan":9736,"Ġpharmacist":9737,"Ġpriority":9738,"Ġknowledge":9739,"Ġnewsstand":9740,"ffeur":9741,"Ġfundraising":9742,"Ġpapaya":9743,"Ġberet":9744,"Ġbayou":9745,"Ġbuffalo":9746,"Ġmattock":9747,"Ġhugger":9748,"Ġveterinarian":9749,"Ġrations":9750,"Ġmeeting":9751,"Ġcloudburst":9752,"Ġdiversity":9753,"Ġuniverse":9754,"Ġopportunity":9755,"Ġaftershave":9756,"ticoat":9757,"Ġsafety":9758,"Ġdenim":9759,"Ġdueling":9760,"Ġescort":9761,"Ġcelsius":9762,"Ġwitness":9763,"Ġdelivery":9764,"Ġprocessor":9765,"Ġtrousers":9766,"Ġplatypus":9767,"Ġenterprise":9768,"Ġassociate":9769,"Ġcorrespondent":9770,"Ġarchaeology":9771,"Ġproductivity":9772,"Ġdemocrat":9773,"Ġbehavior":9774,"Ġweekend":9775,"Ġastrologer":9776,"Ġprofessional":9777,"fauna":9778,"Ġtactics":9779,"Ġtoga":9780,"Ġdomain":9781,"lisher":9782,"Ġfurniture":9783,"Ġerror":9784,"Ġpseudoscience":9785,"Ġbestseller":9786,"Ġalphabet":9787,"Ġtrapdoor":9788,"Ġaccomplishment":9789,"Ġlookout":9790,"Ġribbon":9791,"Ġbarbecue":9792,"Ġapproach":9793,"Ġmissile":9794,"Ġshearling":9795,"micelli":9796,"Ġsinging":9797,"Ġsimvastatin":9798,"Ġsampan":9799,"Ġsauce":9800,"Ġsomeone":9801,"Ġdata":9802,"Ġfuton":9803,"Ġphenotype":9804,"itanium":9805,"Ġgaloshes":9806,"Ġgallon":9807,"Ġhowitzer":9808,"Ġinjunction":9809,"Ġdealing":9810,"Ġprompt":9811,"Ġexhaustion":9812,"Ġadrenalin":9813,"Ġpolenta":9814,"Ġcrude":9815,"Ġcommittee":9816,"Ġwhirlpool":9817,"Ġclockwork":9818,"representation":9819,"repreneur":9820,"Ġmerchandise":9821,"Ġneuropathologist":9822,"simile":9823,"Ġtattler":9824,"Ġtattoo":9825,"Ġfailure":9826,"Ġpheasant":9827,"Ġpheromone":9828,"Ġboutique":9829,"Ġview":9830,"Ġviewer":9831,"imono":9832,"imonial":9833,"Ġaudience":9834,"Ġroute":9835,"Ġroutine":9836,"Ġdesire":9837,"Ġdescendant":9838,"Ġlinen":9839,"Ġlinseed":9840,"Ġshadowbox":9841,"Ġplugin":9842,"Ġchestnut":9843,"Ġbranch":9844,"Ġmiddleman":9845,"Ġkettledrum":9846,"Ġfatigues":9847,"Ġathletics":9848,"Ġnectarine":9849,"Ġnucleotidase":9850,"Ġsamurai":9851,"Ġlimestone":9852,"Ġcellar":9853,"Ġbadger":9854,"Ġgrapefruit":9855,"ominium":9856,"Ġspiderling":9857,"Ġrailroad":9858,"Ġmechanic":9859,"Ġmanufacturing":9860,"Ġsurvival":9861,"Ġindependence":9862,"Ġhumanity":9863,"Ġintegral":9864,"Ġbusinessman":9865,"Ġcareer":9866,"Ġcrayon":9867,"Ġmineshaft":9868,"Ġhackwork":9869,"Ġvintner":9870,"Ġhearthside":9871,"Ġgnu":9872,"Ġefficiency":9873,"coplas":9874,"levard":9875,"stripe":9876,"Ġmillimeter":9877,"Ġgemsbok":9878,"entrism":9879,"seeing":9880,"Ġvalidity":9881,"frost":9882,"hlrabi":9883,"iquity":9884,"iridescence":9885,"ovar":9886,"paca":9887,"rissae":9888,"tilizer":9889,"tokine":9890,"urocentrism":9891,"hematics":9892,"appening":9893,"Ġostrich":9894,"Ġophthalmologist":9895,"Ġottoman":9896,"Ġpioneer":9897,"Ġpompom":9898,"Ġbosom":9899,"acamole":9900,"acienda":9901,"idavit":9902,"Ġviolet":9903,"iggurat":9904,"immunity":9905,"ulthood":9906,"Ġluxury":9907,"bohydrate":9908,"aghetti":9909,"uplexer":9910,"Ġrambler":9911,"conformist":9912,"Ġencyclopedia":9913,"Ġcricketer":9914,"eezers":9915,"Ġarrangement":9916,"umbrella":9917,"coplasma":9918,"TV":9919,"bil":9920,"bund":9921,"cal":9922,"cand":9923,"camp":9924,"cade":9925,"count":9926,"cca":9927,"dist":9928,"dem":9929,"dgling":9930,"eem":9931,"ease":9932,"fin":9933,"fib":9934,"file":9935,"falfa":9936,"god":9937,"gain":9938,"gram":9939,"garine":9940,"harm":9941,"high":9942,"kit":9943,"lammation":9944,"med":9945,"mag":9946,"main":9947,"oct":9948,"pin":9949,"prin":9950,"pot":9951,"pup":9952,"press":9953,"play":9954,"rance":9955,"rano":9956,"sl":9957,"som":9958,"squ":9959,"soon":9960,"swe":9961,"suke":9962,"the":9963,"tch":9964,"tance":9965,"tab":9966,"turn":9967,"troller":9968,"tician":9969,"tzel":9970,"vi":9971,"war":9972,"wor":9973,"wal":9974,"well":9975,"xis":9976,"yan":9977,"zone":9978,"Ġiridescence":9979,"Ġumbrella":9980,"ouven":9981,"Ġtry":9982,"Ġtill":9983,"Ġtalent":9984,"Ġtongue":9985,"Ġtitanium":9986,"heart":9987,"Ġtheology":9988,"Ġtheft":9989,"Ġner":9990,"Ġnovel":9991,"Ġnavigation":9992,"Ġsack":9993,"Ġsolution":9994,"Ġsoup":9995,"Ġsarong":9996,"Ġslavery":9997,"Ġsherbet":9998,"Ġsibling":9999,"inker":10000,"inator":10001,"inyl":10002,"ata":10003,"aphor":10004,"Ġotter":10005,"Ġoasis":10006,"Ġolive":10007,"Ġobesity":10008,"oday":10009,"eptance":10010,"Ġoffice":10011,"Ġoffset":10012,"Ġdance":10013,"Ġdick":10014,"Ġdirt":10015,"Ġdining":10016,"Ġdensity":10017,"Ġdahlia":10018,"Ġduplexer":10019,"liseum":10020,"Ġfog":10021,"Ġflight":10022,"Ġflip":10023,"Ġfiner":10024,"Ġfault":10025,"Ġfava":10026,"Ġfulf":10027,"Ġfont":10028,"Ġfantasy":10029,"Ġfairness":10030,"ndroid":10031,"Ġeve":10032,"Ġestro":10033,"Ġego":10034,"Ġeurocentrism":10035,"Ġlion":10036,"rinoline":10037,"Ġfounding":10038,"Ġlikeness":10039,"onna":10040,"Ġcul":10041,"Ġcity":10042,"Ġcherry":10043,"Ġcayenne":10044,"Ġcaviar":10045,"rev":10046,"redient":10047,"Ġpug":10048,"Ġpimp":10049,"Ġpaw":10050,"Ġpacket":10051,"Ġpith":10052,"Ġpipeline":10053,"aratus":10054,"anium":10055,"ancing":10056,"ene":10057,"enza":10058,"orter":10059,"stige":10060,"Ġbog":10061,"Ġbunch":10062,"Ġbillion":10063,"Ġbelt":10064,"Ġblazer":10065,"Ġbirch":10066,"Ġbunkhouse":10067,"Ġbacterium":10068,"Ġbelligerency":10069,"Ġmud":10070,"Ġmind":10071,"Ġmention":10072,"Ġmentor":10073,"Ġmakeup":10074,"itim":10075,"alge":10076,"acao":10077,"roat":10078,"rocessing":10079,"icy":10080,"icit":10081,"isition":10082,"loo":10083,"Ġgrin":10084,"Ġgit":10085,"Ġgale":10086,"Ġgame":10087,"Ġgasp":10088,"Ġgeek":10089,"Ġghost":10090,"Ġgauge":10091,"ask":10092,"ashes":10093,"Ġhake":10094,"Ġhalt":10095,"Ġhawk":10096,"Ġhappening":10097,"Ġhacienda":10098,"rand":10099,"cemeat":10100,"Ġwin":10101,"Ġwel":10102,"Ġwad":10103,"Ġwink":10104,"Ġwax":10105,"Ġwasp":10106,"Ġwaste":10107,"Ġwarden":10108,"Ġwedge":10109,"Ġwinery":10110,"Ġwrecker":10111,"Ġwaiver":10112,"ets":10113,"ilding":10114,"eland":10115,"elay":10116,"ampo":10117,"ador":10118,"adet":10119,"adish":10120,"adian":10121,"Ġrelish":10122,"Ġrecreation":10123,"Ġreunion":10124,"Ġreconsideration":10125,"Ġrelease":10126,"Ġrelaxation":10127,"Ġrecommendation":10128,"Ġreservoir":10129,"Ġinner":10130,"Ġincarnation":10131,"urb":10132,"urgeon":10133,"olon":10134,"olvement":10135,"Ġstake":10136,"Ġstench":10137,"Ġsticker":10138,"Ġstorage":10139,"Ġstallion":10140,"Ġstrand":10141,"session":10142,"iddle":10143,"uncle":10144,"unciation":10145,"lagen":10146,"Ġvise":10147,"Ġvoid":10148,"Ġvector":10149,"Ġvoyage":10150,"Ġvinyl":10151,"igloo":10152,"imalism":10153,"imuth":10154,"istration":10155,"Ġaster":10156,"Ġaxis":10157,"Ġandroid":10158,"quest":10159,"Ġchit":10160,"Ġchug":10161,"Ġchili":10162,"Ġchowder":10163,"ulsion":10164,"Ġrod":10165,"Ġround":10166,"Ġrust":10167,"Ġrange":10168,"Ġrule":10169,"Ġriser":10170,"Ġconception":10171,"Ġconsideration":10172,"Ġconstruction":10173,"Ġconsonant":10174,"Ġsprinter":10175,"Ġsponge":10176,"Ġsphynx":10177,"Ġspaghetti":10178,"Ġdew":10179,"Ġdestruction":10180,"ocado":10181,"Ġlatter":10182,"inema":10183,"Ġjam":10184,"Ġjasmine":10185,"Ġshit":10186,"Ġshred":10187,"assador":10188,"shield":10189,"abric":10190,"spice":10191,"ortment":10192,"Ġprohibition":10193,"Ġprocure":10194,"Ġpromenade":10195,"edo":10196,"edom":10197,"Ġcomic":10198,"estrain":10199,"esteem":10200,"Ġexternal":10201,"Ġhen":10202,"Ġhelium":10203,"Ġhectare":10204,"Ġhemisphere":10205,"Ġleague":10206,"Ġleading":10207,"Ġleisure":10208,"Ġkiss":10209,"Ġkimono":10210,"new":10211,"nez":10212,"Ġscore":10213,"Ġscreamer":10214,"Ġscimitar":10215,"perty":10216,"outon":10217,"osing":10218,"osiery":10219,"Ġcoat":10220,"Ġcoverage":10221,"Ġcoevolution":10222,"Ġcoliseum":10223,"ormation":10224,"Ġanger":10225,"Ġanalogue":10226,"ilight":10227,"ilitary":10228,"Ġsea":10229,"Ġseat":10230,"Ġseal":10231,"Ġsession":10232,"Ġboon":10233,"Ġalpaca":10234,"Ġalfalfa":10235,"Ġtrance":10236,"Ġtrash":10237,"Ġbend":10238,"Ġbeach":10239,"Ġrabbit":10240,"Ġdisengagement":10241,"Ġdiscretion":10242,"Ġdisgust":10243,"lett":10244,"leton":10245,"allurg":10246,"Ġloophole":10247,"Ġthug":10248,"Ġthaw":10249,"Ġrole":10250,"Ġrobe":10251,"Ġroll":10252,"Ġadverb":10253,"Ġadulthood":10254,"tech":10255,"Ġteepee":10256,"bear":10257,"Ġlake":10258,"udel":10259,"izer":10260,"izza":10261,"Ġpoor":10262,"Ġpoet":10263,"Ġpoker":10264,"Ġpoverty":10265,"Ġcomplication":10266,"Ġcomprom":10267,"Ġcomposite":10268,"Ġcomptroller":10269,"Ġcomportment":10270,"cong":10271,"irect":10272,"Ġcollision":10273,"Ġplum":10274,"Ġplunger":10275,"Ġpresume":10276,"Ġprelude":10277,"Ġpretzel":10278,"Ġprestige":10279,"Ġenemy":10280,"Ġmeal":10281,"Ġmezzanine":10282,"Ġyourself":10283,"Ġcouch":10284,"Ġcarriage":10285,"Ġcarnation":10286,"Ġcarbohydrate":10287,"Ġfoam":10288,"ftan":10289,"Ġemitter":10290,"Ġmanicure":10291,"Ġgrade":10292,"Ġclam":10293,"Ġcluster":10294,"sery":10295,"seradish":10296,"Ġtool":10297,"Ġneologism":10298,"Ġparliament":10299,"Ġparamecium":10300,"Ġdiagnosis":10301,"Ġdifficulty":10302,"Ġsubstance":10303,"commod":10304,"Ġpeak":10305,"Ġpecker":10306,"Ġcrest":10307,"Ġcreator":10308,"itement":10309,"ramble":10310,"Ġark":10311,"Ġarrow":10312,"Ġcheque":10313,"Ġgrouse":10314,"Ġmarble":10315,"Ġmarriage":10316,"Ġsnack":10317,"Ġsnug":10318,"Ġsnarl":10319,"Ġsniffle":10320,"Ġinterviewer":10321,"crew":10322,"class":10323,"cliner":10324,"Ġhovel":10325,"Ġimplication":10326,"Ġmochi":10327,"Ġwhite":10328,"Ġpatio":10329,"Ġbrisket":10330,"Ġoutline":10331,"Ġflame":10332,"Ġflume":10333,"aulier":10334,"Ġzone":10335,"Ġzucchini":10336,"Ġziggurat":10337,"Ġtrait":10338,"Ġtrader":10339,"ply":10340,"ricot":10341,"Ġorchid":10342,"ushi":10343,"Ġinflammation":10344,"Ġinformation":10345,"Ġterritory":10346,"Ġsurfboard":10347,"Ġrim":10348,"glect":10349,"Ġantique":10350,"Ġantiquity":10351,"Ġshoat":10352,"Ġbark":10353,"Ġbarber":10354,"Ġbarley":10355,"Ġbarrier":10356,"Ġairman":10357,"Ġairmail":10358,"check":10359,"Ġmonth":10360,"Ġmonkey":10361,"Ġmonotheism":10362,"Ġmonocle":10363,"Ġcloset":10364,"Ġminister":10365,"Ġguilty":10366,"Ġguacamole":10367,"Ġoverflight":10368,"Ġoverexertion":10369,"Ġammunition":10370,"Ġsupper":10371,"Ġsupplier":10372,"Ġdepth":10373,"Ġapple":10374,"Ġappellation":10375,"Ġapparatus":10376,"Ġcurse":10377,"Ġmotion":10378,"Ġrecall":10379,"after":10380,"azine":10381,"mote":10382,"Ġexposure":10383,"Ġunderwriting":10384,"Ġundertaker":10385,"Ġaccusation":10386,"Ġacceptance":10387,"Ġaside":10388,"sonance":10389,"Ġarmy":10390,"Ġarmoire":10391,"Ġdivider":10392,"ounter":10393,"Ġabuse":10394,"Ġabortion":10395,"Ġfender":10396,"Ġobservation":10397,"Ġobjective":10398,"Ġobservatory":10399,"Ġcatacomb":10400,"Ġhandrail":10401,"Ġhandmaiden":10402,"Ġhandicap":10403,"group":10404,"structure":10405,"Ġsunlight":10406,"Ġsunroom":10407,"Ġsunrise":10408,"Ġcoral":10409,"Ġcorridor":10410,"Ġdecryption":10411,"Ġvelocity":10412,"Ġconsignment":10413,"ucturing":10414,"Ġpantologist":10415,"exper":10416,"Ġbrooch":10417,"archist":10418,"ernacle":10419,"tran":10420,"Ġpenis":10421,"Ġpennant":10422,"Ġgenie":10423,"Ġgenius":10424,"Ġagent":10425,"boxyl":10426,"Ġtribut":10427,"Ġtrigonometry":10428,"Ġsmoke":10429,"Ġbackpack":10430,"Ġdoe":10431,"Ġcytoplasm":10432,"Ġcytokine":10433,"carriage":10434,"Ġfootnote":10435,"Ġsnowboarding":10436,"bris":10437,"useum":10438,"Ġsalute":10439,"Ġsalsa":10440,"horse":10441,"mbly":10442,"Ġtransom":10443,"Ġelm":10444,"Ġwaterfall":10445,"Ġwatercress":10446,"Ġwaterspout":10447,"rimony":10448,"Ġstandoff":10449,"Ġvermicelli":10450,"Ġdetainment":10451,"Ġdetector":10452,"Ġdetective":10453,"Ġearplug":10454,"Ġinvolvement":10455,"Ġnightlight":10456,"Ġnightingale":10457,"Ġedger":10458,"Ġbalaclava":10459,"Ġmeme":10460,"Ġmemorial":10461,"Ġlegume":10462,"Ġformamide":10463,"Ġcanon":10464,"Ġcanoe":10465,"retch":10466,"Ġresolution":10467,"Ġequity":10468,"Ġequivalent":10469,"Ġinsulation":10470,"Ġinsurance":10471,"velation":10472,"Ġtweezers":10473,"Ġintensity":10474,"Ġintellect":10475,"toot":10476,"Ġcornmeal":10477,"Ġgeometry":10478,"ribute":10479,"sky":10480,"Ġdownfall":10481,"Ġcartilage":10482,"Ġtension":10483,"Ġbreast":10484,"Ġbrewer":10485,"Ġbanyan":10486,"Ġmacaw":10487,"Ġfledgling":10488,"Ġcuticle":10489,"Ġpursuit":10490,"Ġpressure":10491,"Ġmorsel":10492,"Ġsaving":10493,"Ġsavings":10494,"insula":10495,"Ġbloom":10496,"umbwaiter":10497,"Ġpansy":10498,"Ġburro":10499,"Ġphotograph":10500,"Ġsombrero":10501,"Ġhorse":10502,"Ġsteeple":10503,"Ġcrotch":10504,"Ġharpooner":10505,"Ġrunning":10506,"Ġdistance":10507,"Ġclearing":10508,"Ġporpoise":10509,"Ġdisposal":10510,"Ġflare":10511,"Ġbirdcage":10512,"Ġworld":10513,"Ġaffect":10514,"Ġaffinity":10515,"Ġaffidavit":10516,"Ġwebsite":10517,"Ġinstant":10518,"Ġrainstorm":10519,"Ġcement":10520,"Ġmedication":10521,"Ġmedium":10522,"Ġmedian":10523,"Ġstatue":10524,"Ġactivation":10525,"Ġpetition":10526,"Ġpetticoat":10527,"Ġlandscape":10528,"Ġpolitician":10529,"Ġhospital":10530,"Ġhumour":10531,"Ġhummus":10532,"Ġvibrissae":10533,"Ġvariation":10534,"Ġcondor":10535,"Ġconditioner":10536,"Ġcondominium":10537,"Ġlawn":10538,"Ġheron":10539,"Ġceramics":10540,"Ġpuppet":10541,"Ġpathway":10542,"Ġvisor":10543,"Ġicebreaker":10544,"Ġtestimonial":10545,"Ġsandbar":10546,"Ġcolonisation":10547,"Ġtechnologist":10548,"Ġsettlement":10549,"Ġcravat":10550,"Ġplayroom":10551,"Ġbutler":10552,"Ġmercury":10553,"Ġsweets":10554,"Ġvegetable":10555,"Ġcirculation":10556,"Ġdirector":10557,"Ġentrepreneur":10558,"Ġentrance":10559,"Ġhurricane":10560,"Ġinstruction":10561,"Ġvanadyl":10562,"Ġracist":10563,"Ġracism":10564,"Ġcredenza":10565,"Ġcodon":10566,"Ġbasin":10567,"Ġbasil":10568,"Ġbandana":10569,"Ġmileage":10570,"Ġcombat":10571,"Ġonset":10572,"Ġfollower":10573,"Ġbatting":10574,"Ġviolence":10575,"Ġjungle":10576,"dozer":10577,"Ġdigit":10578,"redger":10579,"Ġmenorah":10580,"Ġmaintenance":10581,"Ġwallet":10582,"Ġambiguity":10583,"Ġbreakfast":10584,"break":10585,"Ġsaucer":10586,"Ġfinance":10587,"Ġelixir":10588,"Ġwoodshed":10589,"Ġdemur":10590,"Ġannual":10591,"Ġjewelry":10592,"Ġturnstile":10593,"Ġclick":10594,"Ġbankruptcy":10595,"Ġplanter":10596,"Ġpremium":10597,"Ġcelebration":10598,"Ġtaxi":10599,"liferation":10600,"Ġmailman":10601,"Ġscreening":10602,"Ġencounter":10603,"Ġcounselor":10604,"Ġsorrow":10605,"Ġpublicity":10606,"Ġbowl":10607,"Ġwhelp":10608,"Ġwarming":10609,"umpernickel":10610,"Ġtracksuit":10611,"Ġbeanie":10612,"Ġthunderhead":10613,"Ġthunderbolt":10614,"Ġpostage":10615,"Ġlaboratory":10616,"Ġoptimization":10617,"Ġnutrient":10618,"Ġsummer":10619,"Ġsummary":10620,"Ġmycoplasma":10621,"ichoke":10622,"andelion":10623,"Ġswordfight":10624,"Ġterrace":10625,"Ġopponent":10626,"Ġlegislation":10627,"Ġsentence":10628,"Ġlitmus":10629,"Ġpleat":10630,"Ġvelodrome":10631,"Ġshopper":10632,"estyle":10633,"Ġaccountant":10634,"Ġaccountability":10635,"Ġdoorbell":10636,"Ġphysiology":10637,"Ġdrug":10638,"Ġdrudgery":10639,"Ġfright":10640,"Ġmelody":10641,"Ġresponse":10642,"Ġkingdom":10643,"Ġhostel":10644,"Ġutility":10645,"Ġpitcher":10646,"Ġwasting":10647,"Ġinvestigation":10648,"Ġdebt":10649,"Ġquartz":10650,"Ġsupervision":10651,"azelle":10652,"Ġhydrolyze":10653,"Ġtonight":10654,"Ġfederation":10655,"Ġpublisher":10656,"Ġgigantism":10657,"Ġdedication":10658,"Ġscenario":10659,"Ġmobile":10660,"Ġdrawbridge":10661,"osexuality":10662,"Ġoriginal":10663,"Ġoccupation":10664,"Ġbillboard":10665,"Ġhomeownership":10666,"Ġastrolabe":10667,"Ġchalet":10668,"Ġprofessor":10669,"Ġbrushing":10670,"Ġsemiconductor":10671,"Ġsatire":10672,"Ġfertilizer":10673,"Ġfacsimile":10674,"Ġmathematics":10675,"Ġwrapper":10676,"Ġwraparound":10677,"Ġcompetence":10678,"Ġcongressman":10679,"Ġsuicide":10680,"Ġsuspenders":10681,"Ġsundae":10682,"Ġdarkness":10683,"Ġfallacy":10684,"Ġegghead":10685,"Ġboulevard":10686,"Ġreceipt":10687,"Ġstranger":10688,"Ġstructure":10689,"Ġsculpture":10690,"Ġsculptural":10691,"Ġitinerary":10692,"Ġlisting":10693,"Ġbonfire":10694,"Ġblowhole":10695,"Ġbreadfruit":10696,"Ġmandolin":10697,"Ġmallard":10698,"Ġchildbirth":10699,"Ġlinguist":10700,"Ġlayout":10701,"Ġrepublican":10702,"Ġhydroxyl":10703,"Ġhydrofoil":10704,"Ġrevitalisation":10705,"prime":10706,"Ġideology":10707,"Ġnitrogen":10708,"Ġoregano":10709,"Ġdashboard":10710,"Ġfilly":10711,"Ġliquid":10712,"Ġcivilization":10713,"Ġprayer":10714,"Ġbuffer":10715,"Ġbuffet":10716,"Ġgaming":10717,"Ġstamen":10718,"Ġconvertible":10719,"Ġtrafficker":10720,"Ġfamiliarity":10721,"counter":10722,"Ġsightseeing":10723,"Ġcrocus":10724,"Ġpounding":10725,"Ġprairie":10726,"Ġmillstone":10727,"Ġguitar":10728,"Ġgarbage":10729,"Ġlanai":10730,"Ġprocessing":10731,"Ġcomfortable":10732,"Ġanklet":10733,"Ġautoimmunity":10734,"Ġtunic":10735,"Ġdilution":10736,"Ġethics":10737,"Ġcoconut":10738,"Ġpyramid":10739,"rograph":10740,"Ġgoldfish":10741,"Ġhistory":10742,"Ġhourglass":10743,"Ġreluctance":10744,"Ġstarboard":10745,"Ġdesignation":10746,"Ġexploration":10747,"Ġexplanation":10748,"Ġrandomisation":10749,"Ġachievement":10750,"Ġphilosopher":10751,"Ġshoreline":10752,"Ġtemptress":10753,"Ġmacrofauna":10754,"Ġvolunteer":10755,"Ġmethodology":10756,"hropology":10757,"Ġsoulmate":10758,"Ġdrama":10759,"Ġdrummer":10760,"Ġeconomics":10761,"Ġevaluator":10762,"Ġbasketball":10763,"Ġchampagne":10764,"Ġchauffeur":10765,"Ġleadership":10766,"Ġcobweb":10767,"Ġbeginning":10768,"Ġcommandment":10769,"Ġguestbook":10770,"Ġarchitecture":10771,"Ġnonconformist":10772,"Ġsepal":10773,"Ġpiano":10774,"Ġblizzard":10775,"Ġrehospitalization":10776,"Ġaquarium":10777,"Ġspatula":10778,"Ġexecutive":10779,"Ġkohlrabi":10780,"Ġkindness":10781,"Ġadaptation":10782,"Ġpercentage":10783,"Ġinventor":10784,"Ġironclad":10785,"Ġmythology":10786,"Ġathlete":10787,"Ġnectar":10788,"Ġnucleotide":10789,"Ġsamovar":10790,"Ġsalesman":10791,"Ġdoughnut":10792,"Ġlimitation":10793,"Ġbadge":10794,"Ġmoment":10795,"Ġgasoline":10796,"Ġgrape":10797,"ominator":10798,"Ġwiretap":10799,"Ġstacking":10800,"Ġmechanism":10801,"Ġmanufacturer":10802,"Ġsurvivor":10803,"Ġuniformity":10804,"Ġindependent":10805,"Ġsteamroller":10806,"Ġnetworking":10807,"Ġintegrity":10808,"Ġignorant":10809,"Ġignorance":10810,"Ġtimeout":10811,"Ġcloakroom":10812,"Ġmeteorology":10813,"Ġexpertise":10814,"normality":10815,"Ġtherapist":10816,"Ġpronoun":10817,"Ġmallet":10818,"Ġwillingness":10819,"Ġschema":10820,"Ġconsulate":10821,"Ġtemperature":10822,"Ġrevascularisation":10823,"Ġdistributor":10824,"Ġladybug":10825,"Ġindustrialisation":10826,"Ġpuddle":10827,"Ġavocado":10828,"Ġradiator":10829,"Ġcolumnist":10830,"Ġpresident":10831,"Ġneighborhood":10832,"Ġchampionship":10833,"camore":10834,"inja":10835,"Ġscheduling":10836,"Ġrepresentation":10837,"ummerbund":10838,"aucet":10839,"affeine":10840,"ouvenir":10841,"Ġnerve":10842,"Ġfulfillment":10843,"Ġestrogen":10844,"onnaise":10845,"Ġculvert":10846,"itimacy":10847,"Ġwelcome":10848,"ampoo":10849,"Ġinnervation":10850,"Ġasterisk":10851,"Ġprocurement":10852,"allurgist":10853,"Ġcompromise":10854,"rambled":10855,"auliere":10856,"Ġtributary":10857,"blo":10858,"base":10859,"bank":10860,"bott":10861,"bby":10862,"brief":10863,"cod":10864,"cit":10865,"cla":10866,"cab":10867,"cust":10868,"cock":10869,"coll":10870,"copy":10871,"dr":10872,"dou":10873,"dol":10874,"dig":10875,"doc":10876,"dip":10877,"dyn":10878,"eker":10879,"egg":10880,"found":10881,"for":10882,"fac":10883,"flo":10884,"fil":10885,"farm":10886,"fare":10887,"gration":10888,"ham":10889,"hur":10890,"half":10891,"ioc":10892,"iologist":10893,"ialist":10894,"jun":10895,"jour":10896,"lap":10897,"lad":10898,"lamp":10899,"mand":10900,"mance":10901,"mile":10902,"moon":10903,"nic":10904,"not":10905,"nur":10906,"nomer":10907,"oge":10908,"pil":10909,"pig":10910,"rh":10911,"rac":10912,"rub":10913,"rack":10914,"sli":10915,"san":10916,"sage":10917,"soci":10918,"tre":10919,"tro":10920,"tri":10921,"tub":10922,"tort":10923,"tax":10924,"van":10925,"vir":10926,"vib":10927,"wrap":10928,"xedo":10929,"yro":10930,"yman":10931,"ystem":10932,"zef":10933,"zimuth":10934,"ĠTV":10935,"Ġigloo":10936,"Ġtip":10937,"Ġtramp":10938,"Ġtoday":10939,"Ġnuke":10940,"Ġniche":10941,"Ġninja":10942,"Ġsop":10943,"Ġsow":10944,"Ġsage":10945,"Ġsize":10946,"Ġsource":10947,"Ġsushi":10948,"Ġsouvenir":10949,"leman":10950,"inst":10951,"inte":10952,"instr":10953,"invest":10954,"inosa":10955,"atility":10956,"Ġome":10957,"Ġozone":10958,"odity":10959,"Ġsledge":10960,"Ġsleepiness":10961,"Ġnapkin":10962,"Ġdaddy":10963,"Ġdude":10964,"Ġdwarf":10965,"Ġdelay":10966,"Ġdumbwaiter":10967,"Ġdredger":10968,"Ġdandelion":10969,"ligation":10970,"Ġfence":10971,"Ġflow":10972,"Ġfiddle":10973,"Ġfabric":10974,"Ġfaucet":10975,"Ġero":10976,"Ġeman":10977,"Ġescape":10978,"Ġliability":10979,"rinkle":10980,"oncho":10981,"erce":10982,"Ġcall":10983,"Ġcensus":10984,"Ġcrinoline":10985,"Ġcacao":10986,"Ġcadet":10987,"Ġcinema":10988,"Ġcummerbund":10989,"Ġcaffeine":10990,"Ġput":10991,"Ġpace":10992,"Ġpork":10993,"Ġpelt":10994,"Ġpeek":10995,"Ġpizza":10996,"Ġpumpernickel":10997,"Ġponcho":10998,"stat":10999,"stud":11000,"stopper":11001,"Ġbroom":11002,"Ġboulder":11003,"Ġmath":11004,"Ġmouton":11005,"Ġmilitary":11006,"Ġmuseum":11007,"itage":11008,"alade":11009,"acas":11010,"roke":11011,"icine":11012,"icinity":11013,"isdom":11014,"entleman":11015,"Ġgazelle":11016,"Ġgyro":11017,"asury":11018,"Ġhay":11019,"Ġhint":11020,"Ġhope":11021,"Ġhosiery":11022,"raint":11023,"rastructure":11024,"oma":11025,"Ġword":11026,"Ġwagon":11027,"Ġwife":11028,"ellett":11029,"riac":11030,"Ġrestr":11031,"Ġreading":11032,"Ġreverse":11033,"Ġrecliner":11034,"Ġremote":11035,"Ġrevelation":11036,"otomy":11037,"otene":11038,"chap":11039,"chop":11040,"chase":11041,"Ġincrease":11042,"Ġinverse":11043,"ssing":11044,"uron":11045,"older":11046,"Ġstir":11047,"Ġstain":11048,"Ġstrip":11049,"Ġsturgeon":11050,"Ġstretch":11051,"Ġstroke":11052,"secre":11053,"second":11054,"Ġvice":11055,"Ġvote":11056,"utu":11057,"ante":11058,"usher":11059,"Ġale":11060,"Ġauction":11061,"Ġaverage":11062,"Ġazimuth":11063,"vercraft":11064,"versal":11065,"vection":11066,"veget":11067,"Ġchard":11068,"Ġrank":11069,"Ġcone":11070,"Ġconifer":11071,"Ġconformation":11072,"Ġspud":11073,"Ġsprat":11074,"Ġdebris":11075,"Ġlace":11076,"Ġlung":11077,"boe":11078,"Ġjute":11079,"thunder":11080,"Ġshampoo":11081,"sho":11082,"short":11083,"about":11084,"sport":11085,"Ġproperty":11086,"Ġproliferation":11087,"edy":11088,"estream":11089,"Ġexcess":11090,"Ġleave":11091,"Ġkilt":11092,"neighb":11093,"Ġscow":11094,"Ġscrambled":11095,"def":11096,"dev":11097,"deve":11098,"osk":11099,"osond":11100,"osystem":11101,"Ġcoin":11102,"ogyn":11103,"ourwood":11104,"Ġanterior":11105,"Ġanarchist":11106,"Ġsegment":11107,"Ġseeker":11108,"armalade":11109,"Ġtrunk":11110,"ailability":11111,"Ġbeam":11112,"Ġbeard":11113,"Ġbeck":11114,"Ġrage":11115,"Ġdisk":11116,"Ġdisaster":11117,"Ġdisconnection":11118,"Ġdisagreement":11119,"Ġdisease":11120,"Ġdissonance":11121,"allation":11122,"mess":11123,"Ġload":11124,"Ġthinking":11125,"Ġthirst":11126,"Ġthroat":11127,"Ġromance":11128,"tele":11129,"bey":11130,"iseguy":11131,"Ġpoetry":11132,"Ġcomputer":11133,"Ġcompulsion":11134,"Ġcollagen":11135,"Ġplant":11136,"Ġplough":11137,"Ġprescription":11138,"Ġmeander":11139,"Ġmecca":11140,"phy":11141,"phoon":11142,"Ġyoke":11143,"Ġcrash":11144,"Ġcarboxyl":11145,"Ġfob":11146,"Ġcontent":11147,"Ġcontrail":11148,"Ġmany":11149,"Ġgrain":11150,"Ġgraft":11151,"Ġgravel":11152,"Ġapricot":11153,"Ġclone":11154,"Ġclarity":11155,"Ġswing":11156,"Ġswine":11157,"Ġtoy":11158,"Ġneglect":11159,"Ġneuron":11160,"Ġperp":11161,"Ġdial":11162,"Ġsubway":11163,"Ġsuburb":11164,"Ġsubprime":11165,"ample":11166,"comb":11167,"Ġpea":11168,"Ġpeace":11169,"Ġcreative":11170,"Ġarcade":11171,"uckus":11172,"ateral":11173,"achoma":11174,"Ġmargarine":11175,"Ġblush":11176,"Ġblinker":11177,"Ġintercourse":11178,"cred":11179,"mafrost":11180,"rency":11181,"Ġhovercraft":11182,"Ġreplication":11183,"Ġreporter":11184,"Ġreprocessing":11185,"Ġcommission":11186,"Ġcommodity":11187,"Ġcommerce":11188,"Ġpatron":11189,"Ġpatience":11190,"Ġpatrimony":11191,"Ġflour":11192,"anky":11193,"Ġinfection":11194,"Ġskunk":11195,"Ġriver":11196,"Ġantler":11197,"Ġanthropology":11198,"Ġcape":11199,"Ġbarometer":11200,"Ġbarstool":11201,"cheology":11202,"Ġmonsoon":11203,"Ġstepson":11204,"Ġclover":11205,"Ġcloister":11206,"Ġmining":11207,"Ġmincemeat":11208,"Ġminimalism":11209,"Ġovershoot":11210,"Ġsupply":11211,"Ġappliance":11212,"Ġapparel":11213,"Ġcurrent":11214,"Ġcurrency":11215,"Ġmotel":11216,"Ġattribute":11217,"Ġasset":11218,"Ġassumption":11219,"Ġassertion":11220,"Ġautumn":11221,"motor":11222,"Ġunit":11223,"Ġundershirt":11224,"Ġunderwire":11225,"Ġascot":11226,"Ġaspic":11227,"Ġreform":11228,"Ġabnormality":11229,"Ġmisreading":11230,"Ġmisrepresentation":11231,"Ġregime":11232,"Ġfreight":11233,"Ġfreedom":11234,"Ġpassion":11235,"Ġpassenger":11236,"Ġepoch":11237,"Ġepauliere":11238,"Ġeyestrain":11239,"Ġgranddaughter":11240,"Ġmetaphor":11241,"Ġmetallurgist":11242,"minology":11243,"Ġconsole":11244,"guage":11245,"Ġpants":11246,"Ġpanther":11247,"ext":11248,"Ġpeninsula":11249,"Ġaggradation":11250,"ghole":11251,"Ġsmith":11252,"servative":11253,"Ġfootstool":11254,"Ġelevation":11255,"brane":11256,"Ġreturn":11257,"Ġtransformation":11258,"Ġelf":11259,"rimination":11260,"Ġimage":11261,"Ġdetail":11262,"Ġbuilding":11263,"ambling":11264,"Ġsheath":11265,"Ġshell":11266,"Ġedition":11267,"Ġlegitimacy":11268,"Ġformal":11269,"Ġhomeland":11270,"Ġhomosexuality":11271,"Ġhardcover":11272,"Ġsycamore":11273,"Ġeviction":11274,"Ġinsolence":11275,"Ġtwilight":11276,"leslaw":11277,"Ġendoderm":11278,"Ġcopper":11279,"Ġblackfish":11280,"zzarel":11281,"Ġserial":11282,"Ġbanana":11283,"Ġmacrame":11284,"Ġtomato":11285,"Ġsavage":11286,"Ġlocker":11287,"Ġuplift":11288,"Ġcaftan":11289,"Ġpanpipe":11290,"Ġburden":11291,"Ġvolume":11292,"disc":11293,"ousand":11294,"Ġhorseradish":11295,"Ġartichoke":11296,"Ġmidwife":11297,"Ġcommunity":11298,"Ġcleft":11299,"Ġbooking":11300,"prem":11301,"Ġmodeling":11302,"Ġproduction":11303,"Ġmedicine":11304,"Ġcrewman":11305,"Ġheartbeat":11306,"Ġcondition":11307,"Ġhermit":11308,"Ġheritage":11309,"Ġtabernacle":11310,"Ġfillet":11311,"Ġmagazine":11312,"Ġtestament":11313,"Ġpince":11314,"Ġpinot":11315,"Ġpinstripe":11316,"Ġnetsuke":11317,"Ġhammer":11318,"Ġcircadian":11319,"Ġsidecar":11320,"Ġentity":11321,"Ġentree":11322,"Ġhurdle":11323,"Ġdeficit":11324,"Ġemerald":11325,"Ġcredibility":11326,"Ġtuxedo":11327,"Ġfloor":11328,"Ġbasis":11329,"Ġfolder":11330,"Ġlipstick":11331,"Ġviolin":11332,"Ġthrone":11333,"Ġicicle":11334,"Ġgodparent":11335,"Ġanywhere":11336,"Ġambassador":11337,"Ġbreakpoint":11338,"Ġfinish":11339,"Ġwoodland":11340,"Ġemergence":11341,"Ġturnover":11342,"Ġprovince":11343,"Ġextent":11344,"Ġmarkup":11345,"Ġorganization":11346,"Ġeffector":11347,"Ġeffective":11348,"Ġkeyboard":11349,"Ġcounselling":11350,"Ġingredient":11351,"Ġbowtie":11352,"Ġgrey":11353,"Ġchaplain":11354,"Ġrubber":11355,"Ġpostfix":11356,"Ġpineapple":11357,"Ġbudget":11358,"Ġchairperson":11359,"Ġeyeglasses":11360,"Ġslime":11361,"Ġpleasure":11362,"Ġconstraint":11363,"Ġfriend":11364,"Ġfrigate":11365,"Ġcupboard":11366,"icken":11367,"Ġchronicle":11368,"eye":11369,"soft":11370,"Ġtreaty":11371,"Ġnursery":11372,"Ġsanction":11373,"Ġfarmland":11374,"Ġinvestment":11375,"Ġspectrograph":11376,"Ġcorporal":11377,"crumb":11378,"colle":11379,"colon":11380,"Ġillustration":11381,"Ġtonality":11382,"Ġresident":11383,"Ġsweatshirt":11384,"Ġbitter":11385,"Ġdecline":11386,"Ġappetizer":11387,"Ġsemicolon":11388,"Ġtailor":11389,"Ġsectional":11390,"Ġvinegar":11391,"Ġprotest":11392,"Ġcongressperson":11393,"Ġinstrumentalist":11394,"Ġdocumentary":11395,"Ġfalling":11396,"Ġcardboard":11397,"Ġcastle":11398,"Ġbulldozer":11399,"Ġstruggle":11400,"Ġstrudel":11401,"Ġlunchmeat":11402,"Ġminority":11403,"Ġfeeding":11404,"Ġeverybody":11405,"Ġparenthesis":11406,"Ġrevenue":11407,"Ġchildhood":11408,"Ġnewsletter":11409,"ferometer":11410,"Ġidea":11411,"Ġliquidity":11412,"Ġmayonnaise":11413,"Ġgamma":11414,"Ġwaitress":11415,"Ġprisoner":11416,"counsel":11417,"council":11418,"mpse":11419,"Ġdenominator":11420,"ashtub":11421,"Ġrequest":11422,"Ġprecedent":11423,"Ġassembly":11424,"Ġservice":11425,"Ġcollectivisation":11426,"Ġdoubling":11427,"Ġskeleton":11428,"Ġsadness":11429,"Ġsneakers":11430,"Ġcultivar":11431,"Ġdesktop":11432,"Ġexplorer":11433,"Ġsolicitor":11434,"Ġparticipation":11435,"Ġsensitivity":11436,"Ġnumeracy":11437,"Ġfisherman":11438,"Ġlifestyle":11439,"Ġpiracy":11440,"Ġpocketbook":11441,"Ġgiant":11442,"Ġgallery":11443,"Ġcoordinator":11444,"Ġeyelashes":11445,"Ġgenerator":11446,"Ġindustry":11447,"Ġprinciple":11448,"Ġidiom":11449,"simmon":11450,"Ġocelot":11451,"Ġfirewall":11452,"Ġaudit":11453,"Ġdestination":11454,"Ġcarpenter":11455,"Ġswanling":11456,"Ġdiamond":11457,"Ġpatriarch":11458,"Ġhandlebar":11459,"Ġeleventh":11460,"Ġspectacles":11461,"author":11462,"Ġbustle":11463,"Ġstimulus":11464,"aggeration":11465,"Ġacquisition":11466,"Ġcrisis":11467,"Ġtrapezium":11468,"equality":11469,"Ġtripod":11470,"Ġcrayfish":11471,"account":11472,"Ġhacksaw":11473,"Ġvintage":11474,"Ġlumberman":11475,"Ġripple":11476,"Ġplasterboard":11477,"Ġtherapy":11478,"Ġfitness":11479,"Ġpronunciation":11480,"Ġmalnutrition":11481,"Ġhellcat":11482,"Ġscheme":11483,"Ġtrustee":11484,"Ġrevascularization":11485,"Ġdistribution":11486,"Ġindustrialization":11487,"Ġcribbage":11488,"Ġbuckwheat":11489,"Ġgerbil":11490,"Ġgeranium":11491,"Ġstorey":11492,"Ġexcuse":11493,"Ġexcitement":11494,"Ġcritic":11495,"Ġcriticism":11496,"Ġzoology":11497,"Ġzoologist":11498,"Ġpractice":11499,"Ġpractitioner":11500,"Ġbloodflow":11501,"circ":11502,"jewel":11503,"senberry":11504,"Ġclipboard":11505,"Ġborrowing":11506,"Ġchoosing":11507,"Ġposterior":11508,"sleep":11509,"calc":11510,"sweat":11511,"algesia":11512,"icycle":11513,"techn":11514,"commodation":11515,"tooth":11516,"ioca":11517,"ogeyman":11518,"zefight":11519,"Ġsoprano":11520,"inosaur":11521,"Ġomelet":11522,"Ġerosion":11523,"Ġemanate":11524,"elletti":11525,"Ġrestructuring":11526,"osonde":11527,"ogyny":11528,"zzarella":11529,"aud":11530,"bou":11531,"bul":11532,"bass":11533,"bill":11534,"blow":11535,"brow":11536,"bake":11537,"bron":11538,"buff":11539,"bull":11540,"cli":11541,"cow":11542,"card":11543,"cine":11544,"cali":11545,"cry":11546,"cler":11547,"civili":11548,"cross":11549,"don":11550,"dam":11551,"ded":11552,"dest":11553,"dish":11554,"dragon":11555,"every":11556,"elect":11557,"fat":11558,"fra":11559,"fam":11560,"fir":11561,"fig":11562,"fed":11563,"fav":11564,"fund":11565,"gre":11566,"gal":11567,"gel":11568,"gam":11569,"gig":11570,"gym":11571,"great":11572,"govern":11573,"hip":11574,"hub":11575,"home":11576,"honey":11577,"iking":11578,"jack":11579,"jelly":11580,"ki":11581,"kra":11582,"lan":11583,"lunch":11584,"map":11585,"mant":11586,"mort":11587,"mast":11588,"may":11589,"mix":11590,"nod":11591,"nest":11592,"nog":11593,"obe":11594,"pad":11595,"pun":11596,"pla":11597,"pine":11598,"pub":11599,"pay":11600,"pain":11601,"pump":11602,"poll":11603,"public":11604,"psych":11605,"pocket":11606,"ris":11607,"su":11608,"sat":11609,"sum":11610,"sus":11611,"sale":11612,"suc":11613,"sym":11614,"sens":11615,"sund":11616,"tar":11617,"tour":11618,"town":11619,"tank":11620,"treat":11621,"vine":11622,"wing":11623,"wet":11624,"warm":11625,"wash":11626,"wait":11627,"yphoon":11628,"Ġtone":11629,"Ġtart":11630,"Ġtree":11631,"Ġtaste":11632,"Ġtask":11633,"Ġtutu":11634,"Ġtyphoon":11635,"hear":11636,"Ġnature":11637,"Ġsourwood":11638,"initi":11639,"appe":11640,"appet":11641,"Ġoposs":11642,"Ġoboe":11643,"Ġokra":11644,"Ġdiner":11645,"Ġdinner":11646,"Ġdibble":11647,"Ġdinosaur":11648,"like":11649,"list":11650,"liqu":11651,"lith":11652,"Ġfawn":11653,"Ġfarrow":11654,"Ġlimit":11655,"Ġcyn":11656,"rese":11657,"resid":11658,"recip":11659,"Ġpusher":11660,"enc":11661,"engine":11662,"orig":11663,"stop":11664,"stock":11665,"story":11666,"straw":11667,"Ġbelly":11668,"Ġbicycle":11669,"Ġmit":11670,"Ġmink":11671,"Ġmoney":11672,"Ġmigrant":11673,"Ġmarmalade":11674,"alb":11675,"romo":11676,"Ġgentleman":11677,"Ġgambling":11678,"asub":11679,"Ġhound":11680,"Ġholder":11681,"cele":11682,"Ġwrinkle":11683,"Ġwisdom":11684,"Ġwiseguy":11685,"Ġwashtub":11686,"amic":11687,"admin":11688,"adget":11689,"Ġreversal":11690,"chron":11691,"champ":11692,"gebra":11693,"Ġinequality":11694,"semic":11695,"terr":11696,"Ġvulture":11697,"Ġvicinity":11698,"igo":11699,"imm":11700,"Ġabo":11701,"quart":11702,"Ġchive":11703,"Ġchurn":11704,"Ġchange":11705,"Ġchicken":11706,"Ġruckus":11707,"opp":11708,"oper":11709,"optim":11710,"atelier":11711,"Ġconclusion":11712,"Ġconvenience":11713,"Ġconvection":11714,"Ġconservative":11715,"Ġspite":11716,"bossing":11717,"andex":11718,"Ġjerk":11719,"Ġshackle":11720,"spe":11721,"Ġprofile":11722,"edal":11723,"astro":11724,"Ġcomedy":11725,"emer":11726,"Ġexaggeration":11727,"Ġheating":11728,"neu":11729,"Ġscrap":11730,"deb":11731,"decl":11732,"defe":11733,"Ġcoleslaw":11734,"Ġanalgesia":11735,"Ġboogeyman":11736,"Ġallow":11737,"Ġalgebra":11738,"Ġtrachoma":11739,"Ġbeat":11740,"Ġrailing":11741,"sco":11742,"screw":11743,"sculpt":11744,"Ġaccommodation":11745,"Ġlock":11746,"Ġthousand":11747,"Ġrotation":11748,"Ġadobe":11749,"cob":11750,"cook":11751,"Ġquit":11752,"Ġqueen":11753,"Ġcompress":11754,"Ġcomposer":11755,"phys":11756,"Ġcranky":11757,"Ġcarotene":11758,"Ġmansion":11759,"poli":11760,"ringue":11761,"Ġparole":11762,"Ġparable":11763,"hyp":11764,"hyra":11765,"Ġpermafrost":11766,"Ġpersimmon":11767,"Ġsubgroup":11768,"Ġpeen":11769,"Ġarrival":11770,"Ġarcheology":11771,"Ġcheer":11772,"Ġmaracas":11773,"Ġinterconnection":11774,"Ġinterferometer":11775,"major":11776,"feed":11777,"Ġhospice":11778,"Ġhobby":11779,"Ġmozzarella":11780,"Ġwharf":11781,"Ġoutrun":11782,"Ġphone":11783,"indust":11784,"Ġmaker":11785,"Ġinfancy":11786,"Ġinfrastructure":11787,"Ġterminology":11788,"Ġskill":11789,"Ġantling":11790,"Ġbarge":11791,"Ġbargain":11792,"Ġbarrack":11793,"Ġairforce":11794,"chem":11795,"Ġprune":11796,"Ġminute":11797,"Ġdraft":11798,"Ġprizefight":11799,"Ġcurry":11800,"reador":11801,"Ġaspect":11802,"Ġrefuse":11803,"Ġabbey":11804,"restler":11805,"Ġmiscarriage":11806,"Ġmisnomer":11807,"Ġmisogyny":11808,"Ġfear":11809,"Ġcharter":11810,"Ġobsession":11811,"Ġobligation":11812,"Ġcatcher":11813,"Ġregulator":11814,"Ġregistration":11815,"grass":11816,"Ġephyra":11817,"minor":11818,"rito":11819,"gula":11820,"expl":11821,"track":11822,"Ġsmell":11823,"Ġbackup":11824,"weed":11825,"itorium":11826,"Ġworkhorse":11827,"Ġwarfare":11828,"Ġadvice":11829,"prom":11830,"prov":11831,"prose":11832,"profe":11833,"program":11834,"Ġwaterfront":11835,"compass":11836,"Ġversion":11837,"therm":11838,"Ġshed":11839,"Ġballet":11840,"Ġballot":11841,"Ġmembrane":11842,"Ġheadrest":11843,"Ġlegging":11844,"retrospect":11845,"Ġhomosexual":11846,"Ġresist":11847,"Ġresale":11848,"meth":11849,"Ġtwister":11850,"Ġproposal":11851,"skull":11852,"Ġseries":11853,"Ġdiscrimination":11854,"Ġforearm":11855,"Ġforebear":11856,"Ġpurple":11857,"Ġpurchase":11858,"umbling":11859,"Ġvolatility":11860,"Ġtreasury":11861,"Ġbagpipe":11862,"Ġsteak":11863,"Ġmidline":11864,"Ġspecialist":11865,"Ġclef":11866,"Ġclearance":11867,"Ġdisplay":11868,"Ġwindshield":11869,"diff":11870,"Ġinstallation":11871,"Ġraincoat":11872,"Ġecosystem":11873,"Ġsonata":11874,"Ġdevice":11875,"Ġvariability":11876,"Ġcertainty":11877,"Ġcollateral":11878,"sentative":11879,"Ġbutcher":11880,"Ġhighland":11881,"Ġskylight":11882,"Ġrestroom":11883,"swim":11884,"sword":11885,"switch":11886,"Ġpersonality":11887,"standard":11888,"Ġgodmother":11889,"Ġusual":11890,"Ġfinancing":11891,"Ġtrophy":11892,"Ġturning":11893,"Ġprovision":11894,"Ġplanula":11895,"Ġorganisation":11896,"Ġceleriac":11897,"Ġtopic":11898,"Ġmailbox":11899,"Ġsorrel":11900,"Ġderivation":11901,"Ġgreens":11902,"character":11903,"Ġlaptop":11904,"Ġboysenberry":11905,"marsh":11906,"market":11907,"Ġnutrition":11908,"Ġfeng":11909,"Ġfencing":11910,"Ġbathrobe":11911,"Ġintegration":11912,"Ġslider":11913,"Ġdonkey":11914,"Ġconstant":11915,"Ġcouncilman":11916,"Ġcopywriter":11917,"super":11918,"whis":11919,"whole":11920,"Ġglimpse":11921,"Ġwashcloth":11922,"Ġvaccine":11923,"Ġspiral":11924,"Ġspiritual":11925,"eyel":11926,"eyeb":11927,"subsid":11928,"Ġburning":11929,"Ġwetsuit":11930,"Ġsweatsuit":11931,"music":11932,"Ġessence":11933,"Ġchafe":11934,"Ġkiosk":11935,"Ġtailbud":11936,"Ġwrapping":11937,"Ġdifference":11938,"Ġstudent":11939,"Ġappearance":11940,"Ġswitching":11941,"Ġtownhouse":11942,"priv":11943,"Ġfunding":11944,"Ġcivilian":11945,"hydroly":11946,"Ġtapioca":11947,"Ġsidestream":11948,"legis":11949,"Ġlanguage":11950,"Ġservant":11951,"Ġmodernity":11952,"Ġdoubt":11953,"employ":11954,"Ġtamale":11955,"Ġgalley":11956,"Ġreadiness":11957,"Ġreorganization":11958,"Ġcobbler":11959,"Ġhybridisation":11960,"Ġclavicle":11961,"Ġownership":11962,"Ġinitialise":11963,"surround":11964,"Ġidentification":11965,"Ġmambo":11966,"Ġruler":11967,"Ġanesthesiologist":11968,"Ġbeetle":11969,"Ġsolidity":11970,"corpor":11971,"Ġvoting":11972,"Ġroadway":11973,"Ġdrainage":11974,"Ġutilisation":11975,"accord":11976,"Ġyoungster":11977,"Ġcappelletti":11978,"Ġcertification":11979,"Ġnewspaper":11980,"Ġsanctity":11981,"Ġwholesale":11982,"Ġdictionary":11983,"Ġbunghole":11984,"Ġgnat":11985,"Ġlobster":11986,"Ġlobby":11987,"Ġlobotomy":11988,"Ġtrailpatrol":11989,"Ġefficacy":11990,"Ġcraftsman":11991,"Ġcompassionate":11992,"earth":11993,"Ġpudding":11994,"Ġavailability":11995,"Ġradiosonde":11996,"Ġpresidency":11997,"Ġcrackers":11998,"Ġcarpeting":11999,"Ġimplementation":12000,"Ġborrower":12001,"Ġchoker":12002,"Ġtraditionalism":12003,"Ġterrorist":12004,"Ġferryboat":12005,"Ġyoga":12006,"Ġyogurt":12007,"Ġeditorial":12008,"harmon":12009,"question":12010,"Ġroundabout":12011,"news":12012,"congress":12013,"Ġbreastplate":12014,"doub":12015,"document":12016,"journ":12017,"instrument":12018,"Ġopossum":12019,"lithograph":12020,"Ġcynic":12021,"origin":12022,"Ġmitten":12023,"romolithograph":12024,"asuble":12025,"Ġabolishment":12026,"Ġallowance":12027,"Ġbarracks":12028,"aqu":12029,"bat":12030,"bli":12031,"bad":12032,"bun":12033,"best":12034,"blog":12035,"bay":12036,"bout":12037,"bust":12038,"batt":12039,"buck":12040,"broc":12041,"batter":12042,"basket":12043,"bomb":12044,"brown":12045,"borrow":12046,"benef":12047,"battle":12048,"cou":12049,"cro":12050,"cri":12051,"cant":12052,"coc":12053,"cass":12054,"cub":12055,"cour":12056,"cash":12057,"cord":12058,"cric":12059,"cann":12060,"croc":12061,"clip":12062,"crit":12063,"cray":12064,"craw":12065,"crib":12066,"cause":12067,"curi":12068,"criter":12069,"cultiv":12070,"dra":12071,"dil":12072,"die":12073,"dust":12074,"dash":12075,"dire":12076,"dram":12077,"duck":12078,"dial":12079,"dump":12080,"dark":12081,"doll":12082,"dio":12083,"diver":12084,"dough":12085,"dune":12086,"duel":12087,"downt":12088,"drag":12089,"depend":12090,"drain":12091,"direct":12092,"ez":12093,"ele":12094,"eli":12095,"esp":12096,"eag":12097,"esc":12098,"econ":12099,"eval":12100,"effic":12101,"eaves":12102,"evening":12103,"elev":12104,"fan":12105,"fen":12106,"fur":12107,"fol":12108,"fun":12109,"fut":12110,"fail":12111,"fill":12112,"food":12113,"furn":12114,"free":12115,"flu":12116,"finger":12117,"field":12118,"fisher":12119,"fanny":12120,"faith":12121,"flat":12122,"folk":12123,"frame":12124,"gas":12125,"gum":12126,"gall":12127,"grap":12128,"guit":12129,"gold":12130,"grip":12131,"green":12132,"graph":12133,"garb":12134,"ginger":12135,"girl":12136,"hot":12137,"hun":12138,"hist":12139,"hop":12140,"hack":12141,"hug":12142,"hour":12143,"hide":12144,"hall":12145,"hav":12146,"hair":12147,"hob":12148,"harb":12149,"hazel":12150,"jug":12151,"jail":12152,"jump":12153,"ko":12154,"kid":12155,"kill":12156,"kick":12157,"knee":12158,"know":12159,"lin":12160,"lun":12161,"lard":12162,"long":12163,"lamb":12164,"lumber":12165,"mou":12166,"mal":12167,"mil":12168,"mir":12169,"mut":12170,"mist":12171,"mass":12172,"mos":12173,"must":12174,"mill":12175,"mood":12176,"mall":12177,"matt":12178,"mole":12179,"mater":12180,"mach":12181,"match":12182,"miss":12183,"milli":12184,"milk":12185,"master":12186,"nap":12187,"non":12188,"nect":12189,"nood":12190,"nick":12191,"numer":12192,"nucleot":12193,"phe":12194,"pap":12195,"pod":12196,"pound":12197,"pal":12198,"pra":12199,"pir":12200,"pard":12201,"pag":12202,"pud":12203,"pron":12204,"pint":12205,"pink":12206,"pian":12207,"pome":12208,"pitch":12209,"pray":12210,"phen":12211,"polar":12212,"poly":12213,"paste":12214,"paint":12215,"pepper":12216,"pseud":12217,"picture":12218,"ru":12219,"rhe":12220,"ran":12221,"rug":12222,"rhy":12223,"sep":12224,"ske":12225,"sound":12226,"sam":12227,"sad":12228,"sug":12229,"sili":12230,"sust":12231,"sill":12232,"simp":12233,"sock":12234,"song":12235,"saf":12236,"some":12237,"sense":12238,"soul":12239,"silk":12240,"soy":12241,"slipper":12242,"sneaker":12243,"tu":12244,"tin":12245,"tent":12246,"tam":12247,"tun":12248,"tow":12249,"tug":12250,"tact":12251,"tog":12252,"tatt":12253,"talk":12254,"table":12255,"trip":12256,"time":12257,"tamb":12258,"tune":12259,"tempt":12260,"tigo":12261,"uar":12262,"vac":12263,"vent":12264,"vot":12265,"vali":12266,"vint":12267,"villa":12268,"vict":12269,"vault":12270,"wo":12271,"wit":12272,"wil":12273,"wast":12274,"west":12275,"wee":12276,"witch":12277,"wild":12278,"waist":12279,"yog":12280,"yellow":12281,"young":12282,"zo":12283,"zebra":12284,"Ġatelier":12285,"hel":12286,"hero":12287,"heir":12288,"hedge":12289,"hell":12290,"health":12291,"lever":12292,"lemon":12293,"leader":12294,"inscription":12295,"insect":12296,"atte":12297,"appro":12298,"appre":12299,"ephemer":12300,"Ġoffering":12301,"Ġdwell":12302,"lim":12303,"liter":12304,"liability":12305,"Ġfuel":12306,"keep":12307,"Ġligula":12308,"onment":12309,"Ġcane":12310,"Ġcess":12311,"reb":12312,"rece":12313,"reck":12314,"recess":12315,"reven":12316,"relation":12317,"reason":12318,"revit":12319,"reorgan":12320,"rehospit":12321,"Ġpouch":12322,"Ġpedal":12323,"analog":12324,"anesthes":12325,"orient":12326,"star":12327,"station":12328,"stam":12329,"stim":12330,"stack":12331,"store":12332,"street":12333,"Ġbump":12334,"Ġmouth":12335,"itial":12336,"alco":12337,"alph":12338,"alpen":12339,"alumin":12340,"access":12341,"accomp":12342,"academ":12343,"acceler":12344,"rose":12345,"lob":12346,"Ġgadget":12347,"Ġhull":12348,"Ġhiking":12349,"radi":12350,"random":12351,"cell":12352,"Ġwant":12353,"Ġwrestler":12354,"eth":12355,"aming":12356,"riot":12357,"river":12358,"adap":12359,"advert":12360,"adrenal":12361,"chin":12362,"chip":12363,"chain":12364,"chau":12365,"gem":12366,"gear":12367,"Ġstream":12368,"Ġstumbling":12369,"sem":12370,"sex":12371,"term":12372,"terror":12373,"idi":12374,"univer":12375,"uniform":12376,"laug":12377,"iron":12378,"utili":12379,"quality":12380,"Ġchromolithograph":12381,"Ġchasuble":12382,"opportun":12383,"Ġspur":12384,"Ġspandex":12385,"Ġdelight":12386,"inea":12387,"bob":12388,"bond":12389,"herb":12390,"thong":12391,"assist":12392,"associ":12393,"show":12394,"share":12395,"shock":12396,"shore":12397,"shadow":12398,"spy":12399,"spat":12400,"spot":12401,"spread":12402,"spoke":12403,"spider":12404,"sponsor":12405,"speed":12406,"editor":12407,"aguar":12408,"Ġexample":12409,"ectoderm":12410,"iew":12411,"neon":12412,"need":12413,"perf":12414,"percent":12415,"period":12416,"des":12417,"deli":12418,"deal":12419,"dead":12420,"death":12421,"desk":12422,"decision":12423,"Ġbooster":12424,"ketch":12425,"kettle":12426,"scr":12427,"sche":12428,"scen":12429,"scal":12430,"science":12431,"sched":12432,"mean":12433,"meet":12434,"measure":12435,"mechan":12436,"Ġlox":12437,"import":12438,"manufact":12439,"teen":12440,"team":12441,"cost":12442,"coord":12443,"beet":12444,"beast":12445,"begin":12446,"behav":12447,"peac":12448,"lingu":12449,"const":12450,"contr":12451,"concent":12452,"convert":12453,"conspir":12454,"contractor":12455,"Ġplume":12456,"Ġpreface":12457,"Ġmeringue":12458,"phr":12459,"pharmac":12460,"philosop":12461,"Ġyard":12462,"Ġembossing":12463,"poster":12464,"poison":12465,"polit":12466,"Ġapron":12467,"Ġtoreador":12468,"hybrid":12469,"Ġdiet":12470,"intention":12471,"comm":12472,"common":12473,"commer":12474,"commit":12475,"comfort":12476,"command":12477,"achie":12478,"max":12479,"cloud":12480,"independ":12481,"plat":12482,"plan":12483,"chest":12484,"cheese":12485,"cloak":12486,"Ġguard":12487,"ensing":12488,"rocket":12489,"working":12490,"Ġfresco":12491,"Ġsunlamp":12492,"Ġcorsage":12493,"mini":12494,"guid":12495,"guest":12496,"exc":12497,"exe":12498,"exam":12499,"exhaust":12500,"expect":12501,"archae":12502,"architect":12503,"monast":12504,"trou":12505,"trust":12506,"carp":12507,"carpet":12508,"bran":12509,"brass":12510,"brace":12511,"brick":12512,"gener":12513,"prob":12514,"prot":12515,"prox":12516,"prost":12517,"proof":12518,"complex":12519,"Ġvertigo":12520,"spectacle":12521,"therap":12522,"merch":12523,"Ġresource":12524,"meteor":12525,"glut":12526,"Ġnotion":12527,"toler":12528,"ribution":12529,"ributor":12530,"Ġturkey":12531,"Ġserum":12532,"Ġforehead":12533,"Ġfleck":12534,"lux":12535,"barbe":12536,"Ġupward":12537,"Ġburrito":12538,"Ġrevival":12539,"Ġreview":12540,"Ġprinter":12541,"Ġdisparity":12542,"presid":12543,"Ġmodel":12544,"diam":12545,"pract":12546,"prison":12547,"Ġgoat":12548,"Ġpolitics":12549,"report":12550,"republic":12551,"Ġceramic":12552,"Ġvisitor":12553,"Ġredirect":12554,"blue":12555,"implement":12556,"contin":12557,"contact":12558,"capp":12559,"capit":12560,"capitulation":12561,"offic":12562,"swan":12563,"balloon":12564,"doctor":12565,"Ġwalker":12566,"breast":12567,"Ġcooking":12568,"patent":12569,"patty":12570,"Ġclimate":12571,"Ġbanking":12572,"param":12573,"robot":12574,"Ġvalue":12575,"shel":12576,"shear":12577,"broad":12578,"fox":12579,"ecology":12580,"trail":12581,"traffic":12582,"tradition":12583,"whirl":12584,"solic":12585,"solid":12586,"Ġinvestor":12587,"cris":12588,"cracker":12589,"color":12590,"collection":12591,"column":12592,"Ġtonic":12593,"Ġoperator":12594,"Ġhubris":12595,"muscat":12596,"Ġchaise":12597,"snake":12598,"butter":12599,"myth":12600,"panty":12601,"Ġeggnog":12602,"Ġstudio":12603,"labor":12604,"labour":12605,"corner":12606,"partner":12607,"region":12608,"Ġbreadcrumb":12609,"advoc":12610,"advance":12611,"ferry":12612,"prior":12613,"priest":12614,"trapez":12615,"Ġmayor":12616,"hydro":12617,"hydrocarb":12618,"Ġretrospective":12619,"drive":12620,"school":12621,"scholar":12622,"Ġtunnel":12623,"Ġethyl":12624,"Ġkilling":12625,"micro":12626,"Ġeyelash":12627,"flint":12628,"handle":12629,"morbid":12630,"surv":12631,"innoc":12632,"Ġpicnic":12633,"Ġauditorium":12634,"product":12635,"auto":12636,"autom":12637,"authent":12638,"correspond":12639,"modern":12640,"Ġpeacoat":12641,"business":12642,"Ġofficer":12643,"divide":12644,"forest":12645,"safe":12646,"consist":12647,"consul":12648,"brand":12649,"earring":12650,"iara":12651,"volunte":12652,"steam":12653,"Ġmillisecond":12654,"buy":12655,"macar":12656,"macro":12657,"middle":12658,"special":12659,"Ġschedule":12660,"Ġrepresentative":12661,"expansion":12662,"effect":12663,"human":12664,"knife":12665,"pastor":12666,"pickax":12667,"temper":12668,"tempor":12669,"candid":12670,"campaign":12671,"country":12672,"democ":12673,"fiber":12674,"princip":12675,"tablet":12676,"worship":12677,"revascular":12678,"newsp":12679,"expert":12680,"experiment":12681,"transp":12682,"transport":12683,"blood":12684,"bottom":12685,"citizen":12686,"clav":12687,"diplo":12688,"dynam":12689,"flood":12690,"lady":12691,"pilgrim":12692,"rhosis":12693,"sanct":12694,"vironment":12695,"integr":12696,"chopstick":12697,"secret":12698,"vegetarian":12699,"neighbor":12700,"neighbour":12701,"development":12702,"Ġriverbed":12703,"Ġfriendship":12704,"eyelid":12705,"collectiv":12706,"circum":12707,"crystal":12708,"fatigue":12709,"fraud":12710,"famili":12711,"favor":12712,"gymnast":12713,"plaster":12714,"pumpkin":12715,"sensit":12716,"hearth":12717,"initiali":12718,"champion":12719,"speaker":12720,"astrolog":12721,"emerg":12722,"neurop":12723,"police":12724,"industri":12725,"promise":12726,"profession":12727,"compassion":12728,"method":12729,"eyebrow":12730,"legisl":12731,"court":12732,"weeke":12733,"Ġcesspool":12734}